的 489754
， 342065
。 288755
和 95113
在 95037
— 81602
是 74795
了 71491
、 44409
但 35987
也 35529
美国 32288
对 31807
（ 31807
） 31784
而 31085
将 30980
“ 27439
” 27322
国家 27223
这 26782
经济 24379
年 23750
中 23629
一个 22637
不 21768
都 21717
有 21509
我们 21374
中国 19835
并 19740
与 19151
会 19063
他们 19013
可能 18443
就 18186
为 17784
问题 16876
更 16838
其 16620
他 16539
上 16512
政府 16341
人 16259
可以 16179
到 15573
所 15572
这些 15166
欧洲 14769
被 14766
没有 14056
已经 13482
让 13121
· 13049
全球 12869
% 12825
政治 12706
需要 12426
地 11975
从 11935
增长 11839
： 11735
它 11714
如果 11621
政策 11541
以及 11430
其他 11321
世界 10874
以 10714
这一 10544
因为 10493
新 10413
来 10410
必须 10224
还 9615
欧盟 9432
要 9111
或 9041
应该 8957
能 8603
多 8490
社会 8452
它们 8444
市场 8409
不是 8383
因此 8356
最 8312
； 8262
通过 8162
这样 8150
？ 8018
但是 8012
下 7983
支持 7918
我 7813
后 7752
投资 7747
发展 7486
于 7444
时 7438
总统 7411
认为 7367
影响 7045
成为 7045
包括 6911
国际 6845
尽管 6776
实现 6749
地区 6734
许多 6685
重要 6655
导致 6622
能够 6601
着 6599
自己 6584
这个 6583
提供 6571
月 6476
� 6417
目标 6382
无法 6375
进行 6356
俄罗斯 6353
正在 6286
所有 6271
计划 6269
特朗普 6266
英国 6221
危机 6157
情况 6146
人们 6118
开始 6093
现在 6092
这种 6087
比 6032
银行 5939
就是 5912
增加 5874
改革 5797
却 5777
一些 5665
该 5654
事实上 5642
带来 5614
大 5604
很 5570
主要 5532
未来 5465
前 5449
债务 5417
等 5392
德国 5266
公司 5243
向 5240
说 5239
获得 5193
给 5172
印度 5136
由 5082
要求 5056
日本 5032
民主 5016
方面 5011
把 4987
一 4983
发生 4969
风险 4969
则 4963
那些 4946
领导人 4945
企业 4926
结果 4890
之间 4840
安全 4717
更加 4711
那么 4706
- 4698
任何 4665
存在 4655
同时 4650
作为 4628
技术 4539
伊朗 4530
甚至 4525
贸易 4524
如此 4428
一种 4422
解决 4413
不会 4406
持续 4404
长期 4403
造成 4402
最近 4398
金融 4377
机构 4365
可 4353
过去 4350
特别 4320
目前 4297
工作 4280
一直 4266
组织 4253
又 4247
货币 4242
建立 4199
20 4152
比如 4149
成功 4089
当 4086
而且 4079
做 4057
此外 4057
高 4048
收入 4012
面临 3988
对于 3979
国内 3974
挑战 3971
产生 3962
出现 3958
以色列 3944
们 3932
如今 3903
研究 3900
如何 3898
使 3883
稳定 3881
只有 3858
意味着 3858
像 3831
法国 3831
决定 3819
得到 3791
继续 3788
并且 3760
个 3758
采取 3746
用 3741
关系 3732
同样 3732
者 3718
威胁 3714
希望 3684
仍 3658
世纪 3631
表明 3614
什么 3611
西方 3607
其中 3593
选择 3586
实施 3579
协议 3577
教育 3564
能力 3556
GDP 3554
最终 3552
似乎 3544
行动 3510
下降 3507
拥有 3503
合作 3497
来说 3494
战争 3489
资本 3470
提高 3458
以来 3441
仍然 3420
严重 3412
原因 3411
选举 3405
行为 3394
不能 3391
巨大 3378
利益 3375
改变 3374
欧元区 3370
生活 3355
不同 3339
承诺 3327
还是 3317
使用 3310
为了 3306
》 3299
《 3295
环境 3279
经济体 3266
措施 3260
美元 3248
来自 3242
保护 3235
战略 3225
成本 3216
历史 3203
一样 3193
方式 3193
是否 3172
自由 3163
接受 3162
机会 3160
受到 3157
财政 3156
你 3137
随着 3132
之 3128
非洲 3117
已 3108
奥巴马 3101
几乎 3090
从而 3076
亚洲 3072
减少 3069
去 3065
即使 3057
时间 3055
水平 3048
出 3039
移民 3024
资产 3003
真正 3001
或者 2993
作用 2980
得 2980
降低 2979
制度 2962
人口 2944
由于 2944
希腊 2937
项目 2932
控制 2924
谈判 2914
叙利亚 2912
各国 2912
利率 2898
确保 2884
那样 2875
虽然 2871
类似 2868
提出 2864
完全 2839
价格 2835
有效 2830
当然 2808
变化 2806
资金 2802
还有 2793
需求 2790
能源 2784
年代 2777
也许 2756
过 2736
变得 2731
时候 2731
大部分 2728
考虑 2721
观点 2715
她 2707
反对 2705
和平 2704
国 2704
冲突 2698
因素 2691
系统 2688
自身 2686
体系 2685
非常 2684
再 2682
最大 2681
低 2674
帮助 2674
土耳其 2673
保持 2668
权力 2660
基础 2638
及 2634
一点 2621
不断 2621
某些 2618
伊拉克 2603
欧元 2594
领导 2594
服务 2592
, 2578
超过 2574
内 2570
联合国 2570
今天 2567
领域 2564
进一步 2563
越来越 2559
1 2551
一次 2550
成员国 2547
相反 2544
重新 2525
做出 2521
另 2512
占 2507
创造 2504
程度 2498
联盟 2496
好 2493
地方 2487
只是 2485
才 2482
关于 2480
方案 2480
力量 2479
表现 2459
改善 2458
管理 2451
模式 2443
这是 2442
亿美元 2439
关注 2439
当前 2439
限制 2429
最后 2428
里 2427
监管 2426
利用 2420
民众 2420
数据 2416
过程 2415
公共 2409
大量 2399
援助 2384
支出 2384
出口 2383
方法 2370
如 2365
在于 2351
关键 2341
共同 2336
具有 2336
知道 2321
首先 2311
的话 2309
美联储 2296
不仅 2295
部门 2285
刺激 2284
只 2284
就业 2278
推动 2276
伊斯兰 2271
达到 2267
价值 2264
努力 2260
而是 2258
法律 2254
破坏 2242
投资者 2241
结束 2238
至少 2236
人民 2225
应对 2209
很多 2208
自 2205
制定 2202
及其 2201
家庭 2200
显然 2200
资源 2198
传统 2196
基础设施 2189
地位 2187
规则 2187
两个 2185
普京 2185
人类 2180
全世界 2170
相对 2164
气候变化 2163
取得 2159
公民 2153
即 2153
非 2144
一场 2135
危险 2135
新兴 2135
整个 2126
石油 2126
通胀 2120
指出 2111
10 2105
活动 2102
压力 2100
朝鲜 2096
尤其 2095
上述 2090
大规模 2090
报告 2089
发现 2088
参与 2086
创新 2070
之后 2067
现实 2063
城市 2056
直接 2044
委员会 2036
维持 2036
私人 2035
乌克兰 2028
一项 2024
运动 2022
令人 2019
想 2019
军事 2012
试图 2008
选民 2006
那 2006
2008 2005
避免 1996
状况 1994
与此同时 1987
平等 1985
经济学家 1981
2 1968
正 1965
之一 1963
健康 1961
劳动力 1953
不再 1951
所谓 1951
时代 1951
意大利 1946
上升 1945
根据 1938
之前 1937
央行 1937
事件 1936
平衡 1929
公众 1928
形成 1918
错误 1914
相关 1913
贫困 1913
基本 1907
扩大 1907
将会 1900
贷款 1895
事实 1891
信息 1888
才能 1883
发展中国家 1880
或许 1875
规模 1875
性 1869
陷入 1862
竞争 1856
金融危机 1851
巴基斯坦 1845
消费 1842
生产 1841
3 1829
唯一 1828
爆发 1826
进入 1825
依然 1824
机制 1824
个人 1821
进步 1817
会议 1815
政权 1810
部分 1806
解释 1805
责任 1805
担心 1801
繁荣 1801
今年 1800
后果 1800
实际 1790
认识 1790
失败 1789
文化 1789
媒体 1786
欧洲央行 1781
独立 1780
中东 1778
证明 1777
代表 1776
官员 1776
预算 1776
日益 1772
强大 1770
日 1769
条件 1769
相信 1765
阿拉伯 1757
更好 1753
十年 1752
税收 1752
全球化 1751
去年 1745
每年 1741
针对 1741
000 1739
债券 1738
融资 1737
预测 1734
明确 1732
一位 1729
数字 1729
医疗 1725
埃及 1723
视为 1721
穆斯林 1718
5 1715
较 1711
理由 1701
重大 1700
应当 1690
承认 1690
核心 1689
内部 1684
引发 1677
正如 1677
理解 1675
阻止 1672
韩国 1669
起来 1666
难民 1666
标准 1659
达成 1658
愿意 1655
儿童 1652
女性 1649
干预 1649
往往 1647
只能 1646
财富 1634
手段 1632
讨论 1632
领袖 1630
用于 1626
拒绝 1621
缺乏 1620
而言 1612
总理 1609
宣布 1606
产品 1605
广泛 1604
吗 1600
容易 1599
经历 1595
根本 1585
基金 1583
不管 1582
30 1579
复苏 1579
准备 1578
曾 1572
然而 1570
面对 1569
受 1567
一切 1564
反 1563
赤字 1562
IMF 1561
革命 1560
削减 1556
权利 1550
结构 1549
调整 1541
暴力 1540
外国 1537
且 1535
趋势 1534
加入 1532
允许 1528
当时 1525
时期 1523
赢得 1522
气候 1521
基于 1516
期间 1513
正确 1512
促进 1502
工人 1501
货币政策 1501
损失 1498
过度 1498
预期 1496
看到 1492
很大 1491
％ 1491
迅速 1490
主义 1488
数量 1487
更为 1487
十分 1486
反应 1484
行业 1482
相当 1479
进程 1477
巴西 1475
主权 1472
足够 1471
目的 1468
条约 1467
范围 1455
外交 1451
成员 1451
代价 1447
反映 1447
通常 1446
失去 1445
并非 1444
原则 1443
正是 1439
经常 1439
起 1435
商品 1434
积极 1431
好处 1430
实际上 1429
衰退 1428
有关 1427
实力 1426
该国 1425
发达国家 1423
巴勒斯坦 1419
感到 1415
治理 1415
近 1414
宗教 1412
4 1411
形式 1409
更大 1405
阿富汗 1405
依赖 1403
潜在 1402
仅仅 1400
这场 1399
大幅 1398
民粹主义 1396
是因为 1388
开放 1386
意义 1386
储蓄 1374
必要 1373
妇女 1371
支付 1369
科学 1368
网络 1363
主席 1362
完成 1360
保证 1358
决策 1358
曾经 1357
极端 1356
大多数 1355
显示 1350
联系 1348
呢 1345
鼓励 1343
共和党 1342
肯定 1342
不可 1340
交易 1340
加强 1338
短期 1334
约 1333
决策者 1332
寻求 1332
有助于 1329
确实 1323
崩溃 1321
一部分 1320
墨西哥 1319
有所 1315
角色 1311
优势 1310
生产率 1310
政党 1309
建设 1306
令 1304
疾病 1301
态度 1300
排放 1294
影响力 1293
看 1292
立场 1292
因 1291
苏联 1290
腐败 1287
评估 1286
间 1286
为什么 1284
引起 1282
12 1280
毕竟 1280
转移 1280
确定 1279
遏制 1279
效果 1278
/ 1275
框架 1273
11 1270
任务 1269
再次 1268
建议 1268
本身 1267
50 1264
承担 1264
处于 1263
复杂 1263
紧缩 1263
工具 1259
汇率 1258
强化 1254
工资 1252
消费者 1250
大约 1249
想要 1248
找到 1247
最新 1247
表示 1247
退出 1244
多数 1242
9 1240
宪法 1240
只要 1238
军队 1237
6 1235
其实 1234
举行 1233
商业 1232
强调 1231
2015 1227
伦敦 1227
几个 1227
例如 1226
农业 1226
小 1226
每 1218
一致 1217
难以 1216
购买 1215
即便 1213
例子 1210
开发 1210
事情 1207
打击 1206
7 1204
削弱 1204
经验 1204
简单 1201
恶化 1200
纽约 1195
成立 1191
西班牙 1191
放弃 1190
恢复 1189
2010 1186
协定 1186
理论 1184
公开 1183
核武器 1182
有些 1179
证据 1178
化 1173
一定 1168
北约 1168
同意 1168
追求 1168
除了 1168
道德 1166
负责 1165
一@@ 1164
崛起 1164
调查 1164
防止 1164
一起 1163
可能性 1162
遭到 1161
之外 1159
转变 1159
办法 1157
投票 1151
常常 1150
专家 1149
死亡 1149
布什 1148
做法 1147
全面 1145
策略 1144
当局 1140
收益 1138
钱 1138
加剧 1137
动荡 1135
坚持 1134
使得 1133
经济学 1133
亿 1132
明显 1132
执行 1129
逐渐 1128
东西 1124
执政 1124
满足 1124
制造 1123
灾难 1121
国际货币基金组织 1119
困难 1118
群体 1114
不到 1113
发自 1113
有人 1113
袭击 1113
治疗 1112
快速 1111
公平 1110
国会 1108
统治 1107
比例 1104
中心 1100
失业 1099
90 1095
充分 1095
转型 1095
候选人 1091
政客 1091
扩张 1090
大学 1089
信心 1088
合理 1088
效率 1088
竞争力 1088
巴黎 1086
所有人 1083
发达 1081
多年 1081
大@@ 1081
几十年 1080
集中 1080
处理 1079
议会 1079
外部 1078
现代 1075
现有 1075
平均 1073
思想 1072
至 1072
补贴 1072
几年 1069
制裁 1069
峰会 1068
不@@ 1066
即将 1066
此 1065
分配 1064
解决方案 1062
以上 1061
外交政策 1061
速度 1061
人民币 1057
15 1055
金融市场 1053
统一 1052
既 1050
糟糕 1047
人权 1046
成 1045
俄国 1043
2009 1042
燃料 1042
民族 1041
盟友 1041
吸引 1039
前景 1038
年轻人 1038
分裂 1035
失业率 1034
不仅仅 1033
生命 1033
永远 1032
集团 1030
8 1025
一系列 1021
一年 1018
不幸 1018
分析 1018
各 1016
情绪 1016
并未 1015
不过 1012
&quot; 1011
宽松 1011
不但 1010
冲击 1009
对此 1008
迫使 1008
至关重要 1004
信任 1001
担忧 1001
万 1000
了解 1000
福利 1000
谁 1000
局面 997
最高 995
状态 995
提升 994
精英 992
2012 990
进展 989
势力 988
支持者 987
民族主义 987
80 986
这方面 984
技能 980
为何 979
秩序 977
批评 976
利润 974
应 972
武器 972
2014 971
很快 971
规定 971
2013 969
总是 967
现象 965
流动性 963
意识 962
知识 962
怀疑 960
效应 960
争论 959
波兰 958
障碍 958
天然气 957
取决于 956
核 954
70 953
清楚 953
后者 952
贬值 951
道路 950
胜利 948
方针 945
左右 944
不足 943
进口 943
每个 939
名 938
增长率 936
一份 935
各种 935
2011 934
本国 933
有着 925
华盛顿 924
需 923
随后 922
区域 921
空间 921
结构性 921
世界银行 919
之中 919
式 919
下跌 918
出来 918
60 917
依靠 916
双方 915
否则 914
一体化 911
这项 911
贡献 910
社区 909
官方 907
显著 907
值得 905
无论 905
激励 905
设计 905
土地 904
恐怖主义 904
孩子 902
联邦 902
总 901
具体 900
学生 899
多少 898
邻国 898
储备 896
25 895
当选 895
40 893
竞选 890
本 889
精神 889
共识 888
大选 887
关税 886
取代 886
没 886
还要 885
三个 881
仅 880
党 879
泡沫 878
身份 878
方向 876
重要性 876
. 874
从未 874
事 873
呼吁 873
斗争 873
组成 873
盈余 872
负担 872
停止 869
沙特 869
预计 869
直到 866
取消 865
真实 864
类 863
达 863
岁 861
警告 861
旨在 860
太 859
互联网 858
转向 858
消除 857
推进 854
无 854
相比 854
远远 853
在内 852
回报 850
人员 849
一旦 848
伤害 848
投入 848
水 848
符合 848
埃 846
万亿美元 844
变革 840
接近 840
据 839
采用 839
真的 837
摆脱 836
极大 836
禁止 836
2007 835
正式 835
未能 834
某种 834
派 834
自然 833
民主党 829
地球 827
构成 825
体制 824
工业 823
寻找 822
除非 822
分歧 821
被迫 821
要么 821
欧洲人 819
起到 819
碳 818
2016 816
多边 813
习近平 812
停滞 812
当今 812
层面 810
联合 810
领土 810
教训 807
质疑 807
相当于 805
法 803
致力于 803
信用 802
批准 802
人士 801
所以 801
有利于 801
比较 799
概念 797
良好 797
阿根廷 793
指责 792
两国 791
萧条 790
称为 789
中@@ 788
最佳 788
彻底 787
有限 787
发表 786
这次 786
单一 785
担任 785
最好 785
看来 785
食品 785
阻碍 784
团结 783
强烈 781
那里 781
国民 779
左翼 779
100 778
学校 777
差异 777
流动 776
想象 774
连 773
不得不 772
普遍 772
遭受 772
立法 771
持有 769
资本主义 768
攻击 767
发挥 766
变成 766
说法 766
事务 765
指标 765
痛苦 765
一半 764
低于 763
最为 761
阶段 760
供给 757
外 757
潜力 757
利比亚 756
假设 755
体现 753
家 753
地缘 752
脆弱 752
答案 751
边境 751
实行 750
显而易见 750
协调 748
混乱 748
未 747
学习 746
定义 745
签署 745
走 745
重组 745
放缓 744
路 744
重点 744
增强 743
得以 743
州 742
可靠 740
总体 740
提振 740
疫苗 740
告诉 739
冷战 737
不确定性 736
具备 736
信贷 735
哈马斯 735
岗位 735
破产 734
大国 733
付出 732
制造业 732
新闻 732
法案 732
然后 732
缺少 732
有时 731
差距 730
年前 730
生物 727
忽视 724
安排 722
构建 722
税 722
伙伴 721
背景 721
角度 719
明白 718
讲 718
倾向 717
另外 717
宣称 716
黎巴嫩 716
发布 715
意愿 715
二氧化碳 712
属于 712
价值观 711
年轻 710
2000 709
二战 707
升值 707
内容 705
当地 705
政治家 704
远 703
量化 702
其它 698
不愿 697
债权人 697
德 697
穷人 697
重建 697
产业 696
其次 696
衡量 696
众多 694
反对派 694
对抗 694
斯 694
种族 694
变暖 693
程序 693
一条 691
替代 691
产出 690
委内瑞拉 690
药物 690
房地产 689
点 688
全部 687
右翼 686
波动 686
辩论 685
两年 683
沙特阿拉伯 683
的确 683
少数 682
账户 682
加速 680
对话 680
回到 679
很难 679
快 679
记者 679
缓慢 678
富裕 677
汽车 677
克林顿 676
自我 676
合法性 675
很少 675
成就 675
越 674
默克尔 674
不平等性 673
南非 673
不要 672
严格 672
安 671
此前 671
中央银行 670
公投 670
克服 669
对手 669
之@@ 668
伊斯兰教 668
发动 668
这么 668
走向 667
这里 667
争议 666
报道 666
估计 665
大型 664
意识形态 663
生存 663
作出 662
方 662
捍卫 660
到来 659
毫无疑问 659
少 657
乐观 656
尽管如此 656
描述 656
贫穷 656
拯救 655
缺陷 655
抵制 654
金融机构 654
鉴于 654
展开 653
开支 653
管制 653
通货膨胀 653
怎样 650
遭遇 650
背后 649
农民 648
多@@ 648
信号 647
尝试 647
年间 647
以前 646
基因 644
站 644
团体 643
工程 643
损害 643
给予 643
保险 642
激进 642
加上 640
其他人 639
庞大 639
特征 639
按照 638
花 638
访问 638
长 638
充满 637
思考 637
思维 635
普通 635
任期 634
分子 634
时刻 634
中产阶级 633
妥协 633
深刻 633
两 632
便 632
日程 632
国外 631
上涨 630
促使 630
入侵 630
究竟 630
五年 629
能否 629
逊尼派 629
主张 628
尔多 627
巩固 627
正常 627
主导 626
占据 626
无@@ 626
党派 625
化石 624
理念 624
适应 624
宏观经济 621
扮演 621
操纵 621
前所未有 620
升级 620
推翻 620
由此 620
科学家 620
约束 620
马克 620
2005 619
用来 619
科技 619
) 617
她们 617
掌握 617
质量 616
引入 614
条款 614
紧张 613
爱尔兰 612
型 611
局势 611
人数 610
目前为止 610
研发 609
高达 609
实体 608
全国 607
喜欢 606
说明 606
感觉 605
愤怒 604
人@@ 603
减税 603
出于 603
传播 602
启动 602
困境 602
平台 601
拉 599
犹太人 598
( 597
欧盟委员会 597
杠杆 596
恐惧 595
率 595
跨 595
回归 594
理想 594
农村 593
什叶派 592
早期 592
第一个 590
举措 589
故事 587
共产主义 586
区 586
培训 586
患者 586
成果 586
著名 586
记录 586
违约 586
受益 585
包含 584
脱欧 584
足以 584
of 583
之上 583
涉及 583
看起来 583
表达 583
巴勒斯坦人 582
阿萨德 582
卫生 579
高度 579
主义者 578
内战 578
动力 578
监督 578
看法 578
不满 577
尊重 577
过于 577
不可避免 576
供应 576
推行 575
计算 575
21 574
集体 573
整体 571
身上 571
采取行动 571
… 570
刚刚 570
奇怪 569
税率 568
诸多 568
两大 567
2001 566
龙 566
声称 565
手中 565
指数 565
流入 565
驱动 565
吸引力 564
森林 564
一家 563
巨额 563
回应 562
应用 562
抑制 562
500 561
大大 561
粮食 561
加沙 558
第一次 558
两种 557
抗议 556
维护 556
绿色 556
合法 555
尚未 555
期 555
第二 555
保护主义 554
s 553
周期 553
一名 551
言论 551
安倍 550
第三 550
跟 550
难 550
与其 549
渴望 549
结论 549
观察 549
香港 549
无疑 547
缅甸 547
幸运 546
温和 546
有利 545
流 545
美国政府 545
大陆 544
早已 544
负债表 544
加拿大 543
尔 542
资格 542
借贷 541
想法 541
有@@ 541
男性 541
首次 541
释放 540
人物 539
消失 539
澳大利亚 539
边界 539
任命 538
数百万 538
来源 538
财政政策 538
适用 538
参加 537
武装 536
道 536
之所以 535
持 535
经济危机 535
－ 535
本人 534
消灭 534
员工 533
测试 533
强劲 532
特殊 532
超越 532
净 530
可行 530
比率 530
行长 530
说服 530
死 529
不够 528
中国政府 528
之下 527
产量 527
理性 527
于是 526
形势 526
医生 525
荷兰 525
2006 524
负债 524
2017 523
协助 523
发行 523
一般 522
伟大 522
克 522
处 522
基地 521
现代化 521
矛盾 519
却是 518
位于 517
保障 517
性别 517
承受 517
突然 517
艾滋病 517
顾问 516
意见 515
大西洋 514
官僚 514
零 514
a 513
议程 513
占领 512
打破 512
毫无 512
现状 512
自由化 512
权 511
活力 511
镇压 511
小@@ 510
油价 510
股市 510
惩罚 509
美 509
量 509
S@@ 508
失衡 508
摧毁 507
组合 507
违反 507
义务 506
独裁 506
第二个 506
高于 506
拉丁美洲 505
排除 505
最初 505
以往 504
诚然 504
预防 504
极为 503
论坛 503
明智 502
受害者 501
马@@ 501
一步 499
以此 499
命运 499
支撑 498
敌人 498
中期 497
放在 497
模型 497
注意力 497
非法 497
激烈 496
欢迎 495
司法 494
宣传 494
此次 494
规划 494
逻辑 494
只会 493
瑞典 493
名义 492
绝不 492
帝国 491
同 490
离开 490
灾难性 489
要素 488
为此 487
以下 487
公正 487
期望 486
获益 486
相互 485
第一 485
绝大多数 485
公约 484
北京 483
另一方面 483
拉@@ 483
退休 483
孤立 482
通缩 482
一套 481
月份 481
绝对 481
牺牲 480
股票 480
高@@ 480
人群 479
决心 479
疲软 479
以后 478
力 478
某种程度 478
倍 477
参与者 477
廉价 477
来看 477
各自 476
必然 476
气体 476
特 476
特定 476
部长 476
召开 475
紧密 475
纳入 475
个体 474
导弹 474
上@@ 473
双边 473
带 473
海外 473
费用 473
透明 473
阿@@ 473
B@@ 471
三@@ 471
不足以 471
现金 471
相同 471
认定 471
高效 471
200 470
一下 470
主流 470
短缺 470
保留 469
优先 468
信誉 468
法治 468
终于 468
还会 467
2004 466
升高 466
各方 466
18 465
度 465
近期 464
万人 462
动物 462
指控 462
居民 461
新加坡 461
自由主义 460
谴责 460
迹象 460
1990 459
再生能源 459
恐怖分子 459
选票 459
M@@ 458
均 458
谨慎 458
遵守 458
金融体系 458
前任 457
整合 457
称 457
’ 456
一国 456
人均 456
克里姆林宫 456
扭曲 456
脱离 456
艰难 456
19 455
二十世纪 455
任 455
合作伙伴 454
对待 454
额外 454
哪些 453
标志 453
经过 453
劳动 452
常规 452
语言 452
2003 451
下去 451
放松 451
设备 451
L@@ 450
自由贸易 450
货币联盟 450
运作 450
演讲 448
称之为 448
性质 447
抵消 447
渠道 447
重塑 447
以便 446
出售 446
温室 446
种 446
P@@ 445
o 445
巴沙尔 445
污染 445
负 445
发起 443
塔利班 443
子 443
指导 443
贸易协定 443
软 443
首相 443
and 442
不用说 442
享受 441
工业化 441
忽略 441
根源 441
疟疾 441
1@@ 440
动机 440
换句话说 440
朋友 440
麻烦 440
判断 439
某个 439
纳税人 439
面前 439
s@@ 438
唐纳德 438
富有 438
自@@ 437
逐步 437
~ 436
例外 436
减轻 436
注意 436
这位 436
不少 435
东盟 435
住房 435
平民 435
强 435
积累 435
资助 435
两者 434
做好 434
F@@ 433
住 433
多么 433
本地 433
恐慌 432
旧 432
N@@ 431
b@@ 431
业务 431
多样性 431
太平洋 431
富人 431
此后 431
伴随 430
情形 430
人道主义 429
可怕 429
授权 429
服务业 429
极 429
每天 429
越南 429
on 428
无力 428
条 428
世界各地 427
回答 427
当中 427
靠 427
专注 426
部署 426
长期以来 426
阵营 426
G@@ 425
互相 425
形象 425
电力 425
获胜 425
实验 424
覆盖 424
那种 424
D@@ 423
全球性 423
强硬 423
第 423
2@@ 422
位 422
犯罪 422
终结 422
减速 421
奥 421
客户 421
法院 421
缓解 421
t@@ 420
像是 420
失望 420
尼日利亚 420
拉美 420
深度 420
困扰 419
地@@ 419
股东 419
C@@ 417
伙伴关系 417
包容 417
职位 417
声明 416
市场经济 416
莫迪 416
T@@ 415
打 415
明年 415
监管者 415
退欧 415
TPP 414
中间 414
做到 414
区别 414
学者 414
约翰 414
2030 412
丧失 412
兑现 412
国债 412
比方说 412
一天 411
不必 411
全新 411
动作 410
恰恰 410
昂贵 410
清洁 410
经营 410
拿出 409
紧迫 409
而@@ 409
获取 409
低估 408
日渐 408
本质 408
机器 408
梅 408
两@@ 407
准确 407
反过来 407
哥伦比亚 407
落后 407
否认 406
初 405
完美 405
马 405
K@@ 404
示威 404
反而 403
团队 403
对@@ 403
格鲁吉亚 403
正义 403
观念 403
部队 403
不太可能 402
人才 402
智利 402
至今 402
H@@ 401
也门 401
后来 401
或是 401
接触 401
解体 401
三年 400
制定者 400
立刻 400
致命 400
13 399
中有 399
可@@ 399
坚定 399
比@@ 399
相似 399
原本 398
法庭 398
破坏性 398
前提 397
匈牙利 397
留下 397
不利 396
垄断 396
过剩 396
除 396
预算赤字 396
R@@ 395
古巴 395
海洋 395
财政部长 395
所在 394
饱受 394
er 393
听 393
企业家 392
从事 391
武力 391
功能 390
距离 390
阶层 390
17 389
份额 389
共享 389
尼 389
感 389
最低 389
肯尼亚 389
觉得 389
卡 388
契约 388
更是 388
浪费 388
过渡 388
争取 387
可持续性 387
显得 387
i 386
三分之一 386
征收 386
印尼 385
发出 385
台湾 385
纷纷 385
内塔尼亚胡 384
分别 384
助长 384
存款 384
开展 384
副 383
布鲁塞尔 383
引导 383
社交 383
讽刺 383
卡@@ 382
对外 382
小时 382
结核病 382
二十年 381
太阳能 381
沦为 381
便是 380
加 380
比重 380
真相 380
经合组织 380
统计 380
运行 380
16 379
2020 379
其@@ 379
转化 379
e 378
只不过 378
好消息 378
生产力 378
纳 378
金 378
14 377
以@@ 377
抛弃 377
改进 377
留在 377
包容性 376
多个 376
根本性 376
注入 376
百分点 376
论 376
运用 376
领导层 376
p@@ 375
审查 375
急需 375
接着 375
流向 375
深远 375
赋予 375
跨国 375
G20 374
按 374
边缘 374
产能 373
融合 373
al 372
一段时间 372
加以 372
复兴 372
头 372
更具 372
有力 372
简言之 372
低收入 371
工会 371
早 371
流行 371
运转 371
一方面 370
偿还 370
基金会 370
犹太 370
病毒 370
白宫 370
群众 370
设立 370
逆转 370
两次 369
分享 369
声音 369
大多 369
愿景 369
途径 369
G 368
d@@ 368
心@@ 368
总量 368
提到 368
菲律宾 368
决议 367
凯恩斯 367
年度 367
所说 367
抓住 367
结合 367
心理 366
用户 366
看上去 366
融入 366
何种 365
动员 365
恐怖 365
经济衰退 365
职业 365
东亚 364
公共部门 364
外围 364
战后 364
斯@@ 364
高级 364
上个月 363
中东地区 363
合同 363
暴露 363
系统性 363
评论 363
那个 363
首席 363
A@@ 362
事业 362
南部 362
害怕 362
消息 362
进 362
选项 362
下滑 361
加大 361
灵活 361
剑桥 360
办公室 360
操作 360
法官 360
外汇储备 359
年来 359
悲剧 359
战斗 359
抵押 359
提议 359
35 358
m@@ 358
研究所 358
绝非 357
在线 356
严峻 355
俄 355
强制 355
极端主义 355
设施 355
忧虑 354
毫不 354
突破 354
药品 354
保守 353
安@@ 353
强势 353
担保 353
持久 353
黄金 353
倒 352
僵局 352
掉 352
无论如何 352
！ 352
以外 351
印象 351
怎么 351
成熟 351
泰国 351
大屠杀 350
现任 350
财政赤字 350
• 349
利 349
各个 349
暂时 349
监控 349
警察 349
兴趣 348
全 347
出@@ 347
受欢迎 347
干涉 347
新@@ 347
看似 347
约旦 347
考验 347
高昂 347
the 346
世俗 346
国有企业 346
德@@ 346
感染 346
知识产权 346
文明 345
防务 345
以至于 344
清晰 344
下@@ 343
哪个 343
无论是 343
权威 343
苏格兰 343
金正恩 343
¾ 342
举动 342
信仰 342
制约 342
恰当 342
长时间 342
陷阱 342
乔治 341
估算 341
关闭 341
医院 341
排放量 341
补偿 341
议员 341
é 340
严厉 340
作 340
剥夺 340
推出 340
an 339
主宰 339
军方 339
合适 339
四个 339
扭转 339
文章 339
线 339
自动 339
世贸组织 338
吸收 338
响应 338
哪里 338
兄弟 337
冒险 337
前进 337
女孩 337
癌症 337
不久前 336
席位 336
机器人 336
立即 336
专制 335
修改 335
宏观 335
批评者 335
错 335
问 335
丰富 334
人工智能 334
位置 334
核计划 334
中央 333
为例 333
得不到 333
煤炭 333
统治者 333
葡萄牙 333
规范 333
诊断 333
青年 333
2002 332
专业 332
亲 331
他人 331
披露 331
教授 331
柏林 331
游说 331
独裁者 331
重@@ 331
300 330
万美元 330
业 330
突尼斯 330
领导力 330
下来 329
充足 329
急剧 329
莫斯科 329
透明度 329
领导者 329
c@@ 328
将军 328
讲话 328
in 327
从来 327
延长 327
次 327
纠正 327
衰落 327
让步 327
W@@ 326
一件 326
在政治上 326
相应 326
东欧 325
倒闭 325
小组 325
弱点 325
情景 325
煽动 325
美国国会 325
西 325
财务 325
出台 324
物种 324
确认 324
等待 324
紧急 324
花费 324
保守派 323
养老金 323
利息 323
定价 323
循环 323
总需求 323
恐怖袭击 323
欧洲议会 323
病人 323
信念 322
就业机会 322
推迟 322
水@@ 322
生 322
西@@ 322
银行家 322
h@@ 321
两位 321
和解 321
废除 321
走上 321
这笔 321
今后 320
介入 320
公布 320
可信 320
母亲 320
认可 320
万@@ 319
偏好 319
加快 319
已有 319
施加 319
期待 319
机遇 319
深化 319
罪行 319
E@@ 318
依赖于 318
先进 318
处在 318
审判 318
当年 318
抗生素 318
报纸 318
给出 318
薪酬 318
解决问题 318
金砖 318
雇主 318
予以 317
对象 317
库尔德人 317
手 317
步骤 317
焦点 317
for 316
口号 316
四年 316
填补 316
大宗 316
找 316
时@@ 316
类型 316
单位 315
反@@ 315
反对者 315
某 315
盟国 315
这@@ 315
1980 314
乃至 314
商品价格 314
天 314
导向 314
早就 314
此类 314
法@@ 314
注定 314
自然资源 314
销售 314
军事行动 313
履行 313
掌权 313
签订 313
军 312
夫 312
自从 312
市 311
扩散 311
梦想 311
证券 311
评级 311
侵犯 310
国务卿 310
打@@ 310
新政府 310
歧视 310
反弹 309
提醒 309
有望 309
表面 309
非@@ 309
基本上 308
多样化 308
工厂 308
意外 308
案例 308
残酷 308
遇到 308
防御 308
可谓 307
推广 307
朝 307
秘密 307
训练 307
体 306
参议员 306
大众 306
展示 306
庇护 306
换取 306
若 306
随之 306
亚 305
全民 305
智慧 305
深入 305
游戏 305
里根 305
2018 304
劳动者 304
支持率 304
数十年 304
物质 304
经 304
认真 304
野心 304
压制 303
本月 303
毒品 303
瑞士 303
而已 303
落实 303
非政府 303
天@@ 302
森 302
榜样 302
缺口 302
低利率 301
北部 301
外界 301
实践 301
开启 301
自由民主 301
迄今为止 301
O@@ 300
不论 300
决定性 300
如@@ 300
救助 300
试验 300
大胆 299
敦促 299
苏丹 299
限度 299
难题 299
饥饿 299
借助 298
相 298
设定 298
跨境 298
交通 297
仇恨 297
传染病 297
典型 297
同事 297
圣战 297
坏 297
强国 297
漫长 297
超级 297
y 296
国@@ 296
纠纷 296
角度看 296
过@@ 296
霸权 296
一代 295
使命 295
国防 295
成长 295
海@@ 295
联合国安理会 295
自愿 295
补充 295
重视 295
严肃 294
审慎 294
情报 294
特@@ 294
起诉 294
鲁 294
t 293
内阁 293
幅度 293
提案 293
至于 293
蔓延 293
一再 292
中共 292
促成 292
工党 292
极其 292
街头 292
书 291
学 291
滥用 291
1989 290
加@@ 290
外@@ 290
容忍 290
巴 290
快速增长 290
总额 290
热情 290
证实 290
24 289
f@@ 289
丑闻 289
以南 289
愿望 289
来讲 289
社会主义 289
科索沃 289
行 289
谷歌 289
进而 289
非常规 289
i@@ 288
低迷 288
关心 288
制 288
南 288
巴@@ 288
拜 288
课程 288
阻挠 288
一篇 287
两倍 287
内@@ 287
安理会 287
巨头 287
时任 287
沮丧 287
演变 287
病 287
看待 287
纳粹 287
号 286
年龄 286
普及 286
穆巴拉克 286
金融部门 286
一边 285
临时 285
修正 285
催生 285
写 285
均衡 285
末 285
生产总值 285
真主党 285
缩小 285
老 285
超出 285
1997 284
I@@ 284
l@@ 284
发明 284
最有 284
气 284
一大 283
保罗 283
将来 283
工作岗位 283
监狱 283
营养 283
这会 283
不了 282
互动 282
平心而论 282
房价 282
马来西亚 282
不久 281
发 281
哪怕 281
好@@ 281
年底 281
德国人 281
成@@ 281
盈利 281
缓和 281
罗@@ 281
贸易战 281
上台 280
卡梅伦 280
参议院 280
和@@ 280
大概 280
对立 280
建筑 280
时机 280
暴跌 280
绝大部分 280
罗 280
记忆 280
18@@ 279
三十年 279
克里米亚 279
家族 279
提名 279
生态系统 279
那时 279
in@@ 278
中等 278
从中 278
偏见 278
共和党人 278
尽可能 278
组成部分 278
话 278
近年来 278
任何人 277
减排 277
四分之一 277
好像 277
退休金 277
适合 277
马上 277
; 276
专利 276
之际 276
医学 276
回 276
宣言 276
就要 276
材料 276
第三个 276
绝望 276
预见 276
食物 276
首要 276
为@@ 275
伊@@ 275
发@@ 275
否决 275
国际法 275
士兵 275
布莱尔 275
律师 275
心 275
战胜 275
掩盖 275
网站 275
项 275
y@@ 274
丹麦 274
作物 274
共产党 274
引擎 274
暗示 274
膨胀 274
自动化 274
裁决 274
es 273
争端 273
千年 273
妨碍 273
政变 273
流离失所 273
突出 273
近几年来 273
22 272
人为 272
共和国 272
卡塔尔 272
四@@ 272
姿态 272
日@@ 272
果断 272
理应 272
萨达姆 272
长@@ 272
1.5 271
多元化 271
孟加拉国 271
总统大选 271
挽救 271
排名 271
深层次 271
源 271
电影 271
石油价格 271
稳定性 271
1999 270
借口 270
区分 270
彼此 270
沟通 270
源自 270
穷国 270
3@@ 269
n@@ 269
分@@ 269
哥本哈根 269
居住 269
惊人 269
英格兰银行 269
阵线 269
上限 268
低下 268
尚 268
建造 268
撒哈拉 268
罗马 268
部 268
交换 267
亿人 267
分散 267
敏感 267
有用 267
依据 266
偿付 266
完善 266
收紧 266
解决办法 266
负面 266
克@@ 265
入 265
国王 265
感受 265
更高 265
查韦斯 265
物价 265
美军 265
英国人 265
完整 264
当@@ 264
拖累 264
首都 264
动态 263
姆 263
慷慨 263
抨击 263
移动 263
高质量 263
er@@ 262
伊 262
保守党 262
制药 262
壁垒 262
屠杀 262
授予 262
电视 262
贸易赤字 262
连任 262
颠覆 262
众议院 261
地带 261
塞尔维亚 261
斯大林 261
沉重 261
看作 261
行政 261
这类 261
飙升 261
2050 260
27 260
征税 260
收集 260
未必 260
民调 260
特点 260
看看 260
迎来 260
道理 260
否定 259
局 259
挪威 259
眼下 259
米 259
股权 259
g@@ 258
不如 258
反恐 258
固定 258
狭隘 258
专门 257
史 257
哈尼 257
希拉里 257
延续 257
抱怨 257
按揭 257
收益率 257
无视 257
活跃 257
45 256
e@@ 256
会@@ 256
前者 256
劳工 256
博拉 256
围绕 256
企图 255
南海 255
同@@ 255
堪称 255
细胞 255
阿巴斯 255
几周 254
务实 254
动用 254
取得成功 254
外国人 254
所赐 254
社会保障 254
迈向 254
一道 253
争夺 253
二十一 253
分 253
前@@ 253
地说 253
奥地利 253
始于 253
水资源 253
狂热 253
白人 253
面 253
三分之二 252
供应链 252
反抗 252
培养 252
弱势 252
投资银行 252
探讨 252
自由派 252
艰巨 252
作者 251
剧烈 251
十@@ 251
发放 251
撤军 251
老@@ 251
著作 251
车 251
适当 251
问责 251
400 250
en@@ 250
交流 250
先 250
利@@ 250
单方面 250
寿命 250
德国总理 250
抵御 250
抵抗 250
新兴国家 250
第二次 250
萨@@ 250
间接 250
队 250
频繁 250
出生 249
婴儿 249
密切 249
尼@@ 249
报复 249
页岩 249
k@@ 248
依旧 248
卡扎菲 248
场 248
收缩 248
数 248
机 248
秘书长 248
观察家 248
前往 247
手@@ 247
新德里 247
索马里 247
能量 247
伦理 246
便利 246
危害 246
开@@ 246
得出 246
意图 246
理事会 246
相@@ 246
省 246
自由市场 246
言 246
议题 246
难度 246
公共卫生 245
出资 245
到底 245
动摇 245
西欧 245
轻易 245
金钱 245
主题 244
习惯 244
员 244
强有力 244
悲观 244
新一轮 244
来到 244
激发 244
细节 244
这份 244
额 244
28 243
de 243
创建 243
地震 243
平均水平 243
得@@ 243
拿 243
检查 243
电脑 243
继任者 243
诱惑 243
公@@ 242
弥补 242
灵活性 242
竞争对手 242
语 242
身为 242
事故 241
先例 241
免费 241
听到 241
大家 241
希特勒 241
平价 241
强迫 241
托 241
硬 241
祖国 241
私有化 241
罗伯特 241
词 241
J@@ 240
三大 240
东京 240
忘记 240
投机 240
收到 240
正常化 240
软件 240
邀请 240
左派 239
干扰 239
开 239
所有权 239
有害 239
罪 239
解放 239
非正式 239
风@@ 239
风暴 239
写道 238
凯恩斯主义 238
多种 238
建设性 238
当务之急 238
指 238
有权 238
法国人 238
物 238
相比之下 238
肯尼迪 238
言论自由 238
论文 238
鼓吹 238
享有 237
地中海 237
基督教 237
塞浦路斯 237
树立 237
每@@ 237
身体 237
领先 237
75 236
下台 236
兄弟会 236
年初 236
截然不同 236
日子 236
格 236
独特 236
第一步 236
采购 236
驻 236
150 235
V@@ 235
an@@ 235
人均收入 235
但@@ 235
北方 235
华尔街 235
福祉 235
认同 235
马德里 235
1998 234
en 234
ing 234
分离 234
最大化 234
永久 234
级 234
组建 234
通胀率 234
也就是说 233
受过 233
早些时候 233
朗德 233
申请 233
连续 233
选战 233
阶级 233
飞机 233
仔细 232
奥@@ 232
棘手 232
充斥 231
定居点 231
尊严 231
所@@ 231
死刑 231
消极 231
漏洞 231
焦虑 231
父亲 231
萎靡 231
高管 231
亚@@ 230
女 230
库尔德 230
扼杀 230
接下来 230
教师 230
美@@ 230
识别 230
迪 230
高企 230
ar@@ 229
不利于 229
从前 229
制衡 229
反复 229
吃 229
地理 229
坚决 229
必要性 229
根深蒂固 229
等等 229
行事 229
路径 229
过时 229
金@@ 229
不想 228
之春 228
内贾德 228
切实 228
因而 228
大脑 228
恰恰相反 228
据说 228
文件 228
谈论 228
赢家 228
23 227
些 227
你们 227
出版 227
大会 227
年增长率 227
特权 227
用@@ 227
眼中 227
剩下 226
哪 226
商界 226
岛 226
幸福 226
极右翼 226
案件 226
流@@ 226
独立性 226
竭尽全力 226
自信 226
董事会 226
话题 226
雇员 226
The 225
半@@ 225
国际贸易 225
学术 225
核能 225
电网 225
私营部门 225
科 225
联邦政府 225
走出 225
转而 225
门 225
1991 224
之势 224
五个 224
件 224
免受 224
发电 224
惊讶 224
接种 224
有点 224
本@@ 224
模糊 224
生@@ 224
英镑 224
萨尔 224
诞生 224
贷款人 224
阿拉伯人 224
一路 223
兴起 223
反思 223
受@@ 223
各地 223
名字 223
安倍晋三 223
年@@ 223
归咎于 223
战 223
法规 223
遵循 223
65 222
a@@ 222
修复 222
协会 222
吧 222
强力 222
纯粹 222
聪明 222
遗产 222
重振 222
随 222
会晤 221
全@@ 221
南欧 221
古@@ 221
埃塞俄比亚 221
尔@@ 221
巴拉克 221
所作所为 221
无数 221
林 221
法塔赫 221
电子 221
穆尔西 221
解读 221
邦 221
一方 220
几@@ 220
实质 220
死亡率 220
远离 220
高速 220
修订 219
击败 219
对付 219
小国 219
待 219
抱 219
普@@ 219
有趣 219
毁灭 219
一座 218
从根本上 218
借款人 218
出口国 218
对策 218
父母 218
犯下 218
瘫痪 218
缺失 218
诸如 218
两党 217
加深 217
学会 217
小布什 217
排斥 217
摩洛哥 217
攀升 217
效仿 217
是从 217
科@@ 217
综合 217
见 217
达@@ 217
连接 217
铁路 217
1979 216
伯克利 216
充当 216
免疫 216
再度 216
历史性 216
发射 216
夏天 216
打造 216
日元 216
浪潮 216
海军 216
海啸 216
游行 216
种植 216
置于 216
详细 216
转@@ 216
遥远 216
邓小平 216
重 216
银行业 216
4@@ 215
SDG 215
五@@ 215
创业 215
常态 215
政坛 215
瓦@@ 215
耶路撒冷 215
设置 215
追随者 215
通往 215
配置 215
重申 215
限于 215
600 214
A 214
令人震惊 214
卢旺达 214
塔 214
当今世界 214
杀害 214
破裂 214
考察 214
脆弱性 214
认知 214
逃离 214
金融业 214
减弱 213
后@@ 213
基本面 213
奥运会 213
定 213
收购 213
界 213
起义 213
as@@ 212
一支 212
伯南克 212
何时 212
储蓄率 212
对比 212
愚蠢 212
持续增长 212
探索 212
提前 212
敌意 212
核不扩散 212
超级大国 212
u@@ 211
到达 211
勇气 211
富国 211
尽 211
指引 211
指望 211
涌入 211
纳@@ 211
萎缩 211
计价 211
预言 211
2.5 210
o@@ 210
一片 210
东部 210
勒庞 210
最@@ 210
朝鲜半岛 210
本土 210
正@@ 210
计算机 210
r@@ 209
人会 209
传递 209
信 209
俱乐部 209
充分就业 209
医疗保健 209
器 209
文 209
生态 209
赞成 209
进化 209
买 208
亦然 208
扩展 208
皮 208
缩减 208
诉讼 208
首脑 208
5@@ 207
不应 207
不顾 207
为首 207
从@@ 207
会谈 207
兼 207
原教旨主义 207
崩盘 207
更多地 207
生产商 207
疗法 207
票 207
穆沙拉夫 207
触发 207
颇 207
飓风 207
Facebook 206
什么样 206
倡议 206
幻想 206
支柱 206
有益 206
案 206
采取措施 206
v@@ 205
东 205
厌恶 205
哈@@ 205
想起 205
控制权 205
熟悉 205
版 205
继承 205
驱逐 205
1970 204
压迫 204
反对党 204
城市化 204
态势 204
极有 204
艺术 204
足球 204
雄心勃勃 204
周边 203
商人 203
国有 203
实质性 203
建国 203
相结合 203
研究者 203
紧张局势 203
营养不良 203
力度 202
商业银行 202
好事 202
广告 202
待遇 202
掌控 202
推高 202
改造 202
效益 202
罗斯福 202
路线 202
一段 201
便宜 201
外交官 201
天气 201
宣扬 201
对方 201
并非如此 201
极度 201
潮 201
爆炸 201
边缘化 201
运营 201
附近 201
魅力 201
一代人 200
东南亚 200
医保 200
含义 200
布 200
揭示 200
明证 200
未@@ 200
没能 200
治下 200
维@@ 200
药 200
财政部 200
迫切需要 200
ad@@ 199
el@@ 199
中央政府 199
减免 199
就算 199
曼 199
最高法院 199
有史以来 199
本来 199
架构 199
波@@ 199
激增 199
管理者 199
裔 199
达成协议 199
通讯 199
钢铁 199
26 198
ed 198
n 198
中国人民银行 198
叙事 198
房屋 198
新型 198
此举 198
症状 198
耐药性 198
股价 198
迈出 198
随之而来 198
at@@ 197
久 197
优秀 197
作@@ 197
全体 197
军事力量 197
友好 197
古老 197
周期性 197
境内 197
学院 197
小型 197
差 197
布@@ 197
总体而言 197
折磨 197
日内瓦 197
毛泽东 197
短暂 197
税收收入 197
高风险 197
al@@ 196
ar 196
is 196
w@@ 196
一部 196
不可或缺 196
低成本 196
侵蚀 196
冻结 196
南@@ 196
双边关系 196
变@@ 196
多元 196
引用 196
清算 196
辩护 196
重启 196
风格 196
1945 195
上海 195
产物 195
停滞不前 195
叛乱 195
如同 195
所得税 195
无能 195
测量 195
第四 195
费 195
邪恶 195
高出 195
el 194
or@@ 194
​ 194
买入 194
别无选择 194
撒切尔 194
新增 194
气@@ 194
离 194
空@@ 194
职责 194
行@@ 194
顽固 194
历史学家 193
太过 193
定期 193
来@@ 193
生效 193
行列 193
1992 192
k 192
人力资本 192
令人担忧 192
决不能 192
北朝鲜 192
双重 192
名单 192
如果说 192
差别 192
挂钩 192
无人机 192
最具 192
波斯尼亚 192
犯 192
社会福利 192
通信 192
震惊 192
必将 191
皮@@ 191
罕见 191
购买力 191
z@@ 190
一批 190
入@@ 190
关联 190
判决 190
印度人 190
同情 190
商 190
布什总统 190
手机 190
烟草 190
目光 190
英国首相 190
财产 190
东@@ 189
之内 189
令人信服 189
令人瞩目 189
冒 189
吞并 189
声 189
尼克松 189
山@@ 189
恩 189
成分 189
更强 189
更糟 189
死@@ 189
激起 189
空气 189
逮捕 189
随时 189
主导地位 188
关键问题 188
出色 188
北美 188
宝贵 188
当下 188
打开 188
提交 188
期限 188
着眼于 188
累积 188
象征 188
轻松 188
Paul 187
W 187
优惠 187
各大 187
委员 187
子孙后代 187
宏大 187
常见 187
很小 187
很长 187
比尔 187
消耗 187
爱 187
观察者 187
重复 187
齐 187
兹 186
加州 186
坎布里奇 186
复杂性 186
干旱 186
无知 186
更新 186
有意 186
权衡 186
欧洲各国 186
注重 186
等国 186
罗姆尼 186
莫@@ 186
达沃斯 186
阿尔及利亚 186
雇用 186
1995 185
分布 185
别人 185
在此期间 185
子女 185
币 185
座 185
影子 185
恢复力 185
暴行 185
根本无法 185
运输 185
re@@ 184
不变 184
倒台 184
北欧 184
局限于 184
弹性 184
提及 184
来源于 184
民间 184
老龄化 184
议定书 184
较为 184
零售 184
高等教育 184
二@@ 183
储量 183
势头 183
医疗保险 183
博弈 183
周围 183
哈梅内伊 183
意味 183
救援 183
施压 183
既然 183
芬兰 183
辞职 183
选出 183
雷曼 183
d 182
修建 182
借款 182
兰 182
名@@ 182
基@@ 182
塔@@ 182
多大 182
太@@ 182
撤出 182
无关 182
甚 182
血@@ 182
贫困人口 182
近乎 182
部落 182
万亿 181
事物 181
全民公决 181
出人意料 181
大幅度 181
失灵 181
工业革命 181
杀 181
炸弹 181
示威者 181
种子 181
等于 181
虚假 181
行使 181
起@@ 181
跨国公司 181
边际 181
链 181
Y@@ 180
儿子 180
几天 180
千@@ 180
半 180
回合 180
对冲 180
并不一定 180
成绩 180
挣扎 180
正好 180
比如说 180
源于 180
盖茨 180
着手 180
禁令 180
莫过于 180
萨 180
请 180
诺贝尔奖 180
谎言 180
阿 180
+ 179
值 179
出手 179
同一 179
同盟 179
大力 179
该党 179
1994 178
一句 178
一面 178
不仅如此 178
供 178
前途 178
化学武器 178
埃@@ 178
增长速度 178
布雷顿 178
德拉吉 178
意 178
教皇 178
智能 178
沙@@ 178
雷@@ 178
颇为 178
1000 177
一词 177
南方 177
变 177
后续 177
宪章 177
当代 177
打算 177
白@@ 177
真 177
知识分子 177
苦难 177
被@@ 177
迫害 177
金融服务 177
预示 177
F 176
U@@ 176
份子 176
卡尔 176
合 176
在短期内 176
多次 176
头@@ 176
奇迹 176
干 176
忠诚 176
拖延 176
放任 176
明@@ 176
普林斯顿 176
杀戮 176
极端分子 176
比赛 176
油 176
流失 176
流程 176
穆罕默德 176
B 175
CEO 175
一倍 175
公私 175
前沿 175
失误 175
寡头 175
最多 175
杂志 175
模仿 175
永久性 175
虐待 175
转换 175
配额 175
高科技 175
临近 174
举办 174
事态 174
产权 174
侵略 174
化@@ 174
城 174
基 174
工作者 174
形容 174
所有者 174
普 174
根除 174
温度 174
电视台 174
短 174
诺 174
连@@ 174
长远 174
160 173
C 173
ag@@ 173
es@@ 173
l 173
三倍 173
不错 173
中小企业 173
公共政策 173
北非 173
十九世纪 173
口@@ 173
地下 173
实在 173
民族主义者 173
满意 173
疯狂 173
落 173
货币贬值 173
轰炸 173
采纳 173
里@@ 173
高层 173
SDR 172
it@@ 172
代替 172
传染 172
农场 172
凸显 172
出席 172
列为 172
同性恋 172
大于 172
奖励 172
工程师 172
开采 172
指向 172
提@@ 172
竞争性 172
经济繁荣 172
结盟 172
贝@@ 172
除此之外 172
顶层 172
高估 172
体验 171
凝聚力 171
分化 171
及时 171
哈佛大学 171
大肆 171
性@@ 171
收回 171
文@@ 171
旅行 171
日常 171
涵盖 171
自杀 171
D 170
QE 170
不负责任 170
之道 170
侧 170
公共服务 170
各州 170
呼声 170
国民收入 170
国防部长 170
展现 170
无辜 170
更@@ 170
本应 170
没什么 170
瓦 170
管道 170
解除 170
豁免 170
不太 169
世 169
分担 169
卷入 169
品 169
投 169
格林斯潘 169
正面 169
民意调查 169
百@@ 169
网 169
胜出 169
设想 169
降到 169
1.@@ 168
700 168
DNA 168
S 168
一群 168
不止 168
低效 168
住宅 168
免于 168
切断 168
动 168
变为 168
大使 168
必需 168
最低工资 168
柬埔寨 168
此@@ 168
泛 168
火@@ 168
登 168
空气污染 168
英雄 168
范畴 168
论点 168
评价 168
野蛮 168
隔离 168
Robert 167
ch@@ 167
上周 167
世界贸易组织 167
人选 167
众所周知 167
共同利益 167
南亚 167
周年 167
实验室 167
家@@ 167
市长 167
异常 167
强@@ 167
总结 167
成千上万 167
支配 167
放大 167
步伐 167
精确 167
身处 167
E 166
to 166
中学 166
八@@ 166
关键性 166
创立 166
压倒性 166
口 166
哲学 166
堕胎 166
季度 166
庆祝 166
当作 166
拨款 166
提 166
无效 166
气温 166
目睹 166
输家 166
过分 166
难@@ 166
主持 165
公债 165
凭借 165
制造商 165
受益者 165
因@@ 165
在经济上 165
塑造 165
引人注目 165
必不可少 165
慈善 165
敌对 165
演化 165
生产者 165
生涯 165
短短 165
破灭 165
竞赛 165
迫切 165
通@@ 165
风能 165
作家 164
减缓 164
半个世纪 164
大气 164
报 164
民主化 164
清洗 164
猜测 164
种种 164
联合政府 164
衍生品 164
那@@ 164
难道 164
叛军 163
增税 163
家园 163
应付 163
归根结底 163
推特 163
族裔 163
有序 163
梅@@ 163
欺骗 163
河 163
稳步 163
算 163
美国公司 163
职务 163
英国政府 163
谋杀 163
辛格 163
隐含 163
ac@@ 162
京都 162
体@@ 162
元素 162
反腐 162
希腊政府 162
手里 162
朝着 162
注册 162
深@@ 162
由@@ 162
贸易谈判 162
一小部分 161
声誉 161
奠定 161
开来 161
抗 161
推移 161
族 161
更快 161
概率 161
火 161
玻利维亚 161
秘鲁 161
联合国大会 161
要@@ 161
误解 161
趋同 161
较大 161
Z@@ 160
as 160
两人 160
体面 160
倒退 160
六@@ 160
共同体 160
副作用 160
名为 160
基石 160
恐怖组织 160
科尔 160
而后 160
越@@ 160
长达 160
高涨 160
John 159
ti@@ 159
一轮 159
世界杯 159
哲学家 159
增进 159
推向 159
是不是 159
最快 159
机场 159
杀死 159
现行 159
电话 159
绑架 159
自治 159
负面影响 159
阴影 159
面向 159
黑@@ 159
P 158
价 158
单@@ 158
台 158
在@@ 158
多哈 158
大得多 158
始终 158
应有 158
数十亿美元 158
斯里兰卡 158
更长 158
用途 158
种族主义 158
红利 158
自主 158
颇具 158
29 157
Global 157
ol@@ 157
一张 157
不安 157
二 157
六年 157
地图 157
塞@@ 157
外交部长 157
少数派 157
尖锐 157
总@@ 157
日本银行 157
星期 157
海上 157
海平面 157
海湾 157
溢出 157
端 157
耐心 157
耗费 157
舆论 157
转基因 157
迪@@ 157
送 157
里斯本 157
st@@ 156
中止 156
事实证明 156
伊朗核 156
作战 156
储存 156
公路 156
军@@ 156
动@@ 156
发挥作用 156
学@@ 156
平@@ 156
情感 156
房子 156
有所不同 156
格@@ 156
欧 156
活 156
米@@ 156
耗尽 156
荒谬 156
被忽视 156
7@@ 155
M 155
is@@ 155
li@@ 155
世界秩序 155
力@@ 155
卷土重来 155
各@@ 155
呈现 155
大程度 155
奏效 155
局限 155
恶劣 155
执法 155
挑衅 155
故意 155
有待 155
汲取 155
港 155
港口 155
环保 155
艾滋病毒 155
苏@@ 155
范式 155
萨科齐 155
萨默斯 155
视而不见 155
适得其反 155
选区 155
隐藏 155
首@@ 155
250 154
800 154
不乏 154
不用 154
事关 154
保守主义 154
保险公司 154
债券市场 154
先@@ 154
列 154
初级 154
单独 154
可是 154
家人 154
广义 154
恐怕 154
成年人 154
海 154
经典 154
补助 154
许可 154
远比 154
追溯到 154
遗传 154
隐私 154
6@@ 153
一带 153
丘吉尔 153
克鲁格曼 153
勇敢 153
它会 153
审视 153
帝国主义 153
延伸 153
战@@ 153
束缚 153
比利时 153
燃烧 153
独一无二 153
草案 153
记住 153
贝卢斯科尼 153
跨越 153
# 152
令人不安 152
借钱 152
内在 152
同等 152
天然 152
失@@ 152
奉行 152
指定 152
推 152
收@@ 152
曝光 152
本周 152
此时 152
民选 152
溢价 152
牌 152
班 152
罗马尼亚 152
美好 152
自豪 152
黑暗 152
National 151
僵化 151
叫 151
天主教 151
席卷 151
归因于 151
无需 151
暂停 151
更能 151
标签 151
欧@@ 151
治国 151
说服力 151
起点 151
退 151
选 151
am@@ 150
le 150
丧生 150
今日 150
价格上涨 150
克制 150
加纳 150
升息 150
多地 150
大城市 150
奇@@ 150
妻子 150
容克 150
对峙 150
必要条件 150
慕尼黑 150
成百上千 150
提款权 150
数学 150
满 150
热 150
种族灭绝 150
科维奇 150
讨价还价 150
贪婪 150
身 150
阻力 150
面积 150
1993 149
2025 149
em@@ 149
交@@ 149
品牌 149
国大党 149
威慑 149
我@@ 149
扩张性 149
技术创新 149
接 149
无从 149
潮流 149
竞选活动 149
西藏 149
过多 149
首尔 149
会面 148
保@@ 148
债务人 148
半岛 148
咨询 148
基督徒 148
多久 148
奇 148
建制 148
果真如此 148
源泉 148
王国 148
精@@ 148
维 148
说到底 148
诺@@ 148
雇佣 148
: 147
on@@ 147
化学 147
命令 147
团 147
土壤 147
地点 147
失控 147
布朗 147
总部 147
意思 147
浓缩 147
海地 147
缓冲 147
节约 147
赚 147
赞同 147
非洲大陆 147
th@@ 146
不力 146
世界卫生组织 146
主 146
举 146
亦 146
估值 146
创造力 146
受损 146
吉@@ 146
小学 146
广场 146
广大 146
情 146
数年 146
本世纪 146
极限 146
留给 146
神@@ 146
竭力 146
股票市场 146
误导 146
中亚 145
事@@ 145
代理 145
低@@ 145
信奉 145
制止 145
半数 145
复制 145
尽快 145
悬崖 145
想到 145
据估计 145
放@@ 145
洪水 145
真@@ 145
简而言之 145
论证 145
金额 145
饥荒 145
R 144
不断扩大 144
主@@ 144
以巴 144
再也 144
多重 144
尤为 144
层 144
极权 144
毕业生 144
稳健 144
精力 144
纪念 144
缴纳 144
老年人 144
设法 144
之争 143
供应商 143
关键作用 143
剩余 143
协作 143
即便如此 143
可不是 143
境地 143
存量 143
宗派 143
平息 143
微妙 143
接收 143
明 143
毫无意义 143
派遣 143
症 143
私有 143
警惕 143
运动员 143
追踪 143
金融监管 143
1930 142
Party 142
id@@ 142
ur@@ 142
℃ 142
一新 142
上帝 142
亲@@ 142
信息技术 142
做些 142
充分利用 142
入盟 142
准 142
动乱 142
协商 142
大门 142
安抚 142
封闭 142
山 142
惠及 142
拒绝接受 142
撤销 142
撰写 142
整整 142
氛围 142
洛@@ 142
病例 142
直面 142
稀缺 142
被捕 142
起草 142
降 142
1996 141
os@@ 141
一贯 141
不受 141
中欧 141
中间派 141
低碳 141
创造性 141
和谐 141
大卫 141
太多 141
夺走 141
女@@ 141
宽容 141
总裁 141
揭露 141
数字化 141
桑德斯 141
波多黎各 141
津巴布韦 141
简直 141
编辑 141
股本 141
脱 141
解雇 141
警方 141
身@@ 141
阴谋 141
顶尖 141
1960 140
International 140
j@@ 140
上任 140
两岸 140
代理人 140
光 140
勒 140
压低 140
可用 140
回@@ 140
回报率 140
夸大 140
弗里德曼 140
强加 140
或者说 140
捐赠 140
掀起 140
撤离 140
热@@ 140
片 140
确立 140
社会党 140
社会民主党 140
聚集 140
背叛 140
花钱 140
落入 140
血腥 140
评论家 140
超 140
边 140
过高 140
门@@ 140
顶峰 140
鲜有 140
I 139
r 139
‘ 139
一幕 139
一揽子 139
不像 139
九十年代 139
事项 139
产 139
人人 139
其所 139
刑事 139
原@@ 139
命 139
在外 139
境况 139
婚姻 139
安全网 139
就此 139
年内 139
搞 139
有时候 139
林@@ 139
核@@ 139
深陷 139
王朝 139
生育率 139
界限 139
真空 139
西部 139
逃避 139
雄心 139
麦肯锡 139
1967 138
Ch@@ 138
Sh@@ 138
or 138
不已 138
传@@ 138
充满活力 138
光@@ 138
公共品 138
回避 138
圣@@ 138
复@@ 138
帕@@ 138
开端 138
更进一步 138
殖民地 138
混合 138
清理 138
等到 138
筹集 138
经理 138
詹姆斯 138
诚实 138
该@@ 138
雷 138
amp 137
us@@ 137
修正案 137
债务国 137
假定 137
创新性 137
定位 137
工作人员 137
恶性循环 137
战术 137
收获 137
根 137
波 137
生计 137
短视 137
视角 137
迁徙 137
这部分 137
不得 136
于@@ 136
亚努 136
北美自由贸易协定 136
压倒 136
变迁 136
囚犯 136
坚挺 136
弱 136
德国政府 136
接管 136
最小化 136
清除 136
温和派 136
点@@ 136
版本 136
真理 136
算不上 136
羞辱 136
营造 136
议会选举 136
邻居 136
鲁@@ 136
0.5 135
os 135
中国共产党 135
主管 135
交给 135
份 135
军官 135
增速 135
报酬 135
招募 135
既得利益 135
春天 135
杀伤性 135
核电站 135
派系 135
英@@ 135
路@@ 135
轨道 135
远远不够 135
采访 135
铁@@ 135
队伍 135
高得 135
Development 134
om@@ 134
三 134
上演 134
不当 134
不必要 134
不让 134
人力 134
传染性 134
债权国 134
偏离 134
关押 134
劣势 134
匹配 134
原油 134
国内外 134
坏消息 134
头上 134
安全性 134
带有 134
往 134
执行官 134
效力 134
无关紧要 134
村庄 134
每次 134
照顾 134
环境保护 134
病@@ 134
私营 134
稳固 134
股 134
艾@@ 134
视 134
近@@ 134
近来 134
ri@@ 133
图 133
室 133
密集 133
已故 133
归功于 133
指令 133
换 133
放眼 133
权益 133
杰夫 133
梦 133
检验 133
活动家 133
独@@ 133
生物学 133
监禁 133
臭名昭著 133
装@@ 133
迎接 133
造就 133
骚乱 133
la 132
一战 132
不难理解 132
亚太地区 132
代@@ 132
以致 132
划定 132
博@@ 132
墙 132
弗兰克 132
房产 132
抬头 132
推动力 132
有毒 132
沉默 132
源头 132
直觉 132
空 132
算法 132
英语 132
苹果 132
赌注 132
超@@ 132
鲁莽 132
黑人 132
36 131
ap@@ 131
世行 131
主动 131
互换 131
作品 131
借 131
双@@ 131
吉 131
塑料 131
师 131
应@@ 131
开罗 131
微不足道 131
战场 131
托@@ 131
核试验 131
法则 131
牛 131
立法者 131
经受 131
诉求 131
远@@ 131
风 131
价值链 130
公共财政 130
分析师 130
初衷 130
加密 130
包围 130
危及 130
可观 130
告终 130
哈萨克斯坦 130
巨型 130
年均 130
总数 130
拙劣 130
月初 130
有效性 130
毁灭性 130
清@@ 130
生产性 130
真是 130
简化 130
维也纳 130
马里 130
七年 129
偏向 129
八年 129
公里 129
印度尼西亚 129
合@@ 129
基因组 129
多人 129
夸张 129
小心 129
巴塞尔 129
巴尔干 129
弗拉基米尔 129
想想 129
无比 129
显现 129
桥梁 129
糖尿病 129
约束力 129
细菌 129
经济制裁 129
结局 129
花@@ 129
观 129
遭 129
重创 129
33 128
85 128
St@@ 128
et 128
为期 128
侯赛因 128
内需 128
平静 128
强硬派 128
悖论 128
愈演愈烈 128
成效 128
搜集 128
教@@ 128
方便 128
特区 128
相提并论 128
眼前 128
站不住脚 128
能源价格 128
致使 128
致死 128
表 128
轮 128
马车 128
31 127
ra@@ 127
u 127
一小撮 127
东道国 127
丝毫 127
乌干达 127
借此 127
党@@ 127
共 127
剂 127
受困 127
各类 127
外债 127
大相径庭 127
奖 127
对称 127
巴勒斯坦国 127
惊奇 127
所得 127
找出 127
接纳 127
描绘 127
数@@ 127
更少 127
替代品 127
最坏 127
极少 127
植物 127
比特 127
疫情 127
硅谷 127
神经 127
神话 127
科奇 127
纪律 127
能@@ 127
英格兰 127
获得者 127
论调 127
读 127
转 127
软弱 127
迈进 127
颁布 127
鲜明 127
ab@@ 126
ul@@ 126
一笔 126
世卫 126
义 126
再@@ 126
准则 126
凸显出 126
初期 126
单纯 126
发展趋势 126
号召 126
同一个 126
小规模 126
强制性 126
抵达 126
指挥 126
极权主义 126
检测 126
特色 126
电 126
第一@@ 126
能为 126
舞台 126
般的 126
走@@ 126
越发 126
路线图 126
道歉 126
一块 125
不堪 125
主权国家 125
伦 125
关键因素 125
其余 125
军力 125
卫星 125
发生变化 125
叶利钦 125
向前 125
学科 125
实@@ 125
已@@ 125
底 125
弹道导弹 125
归 125
或@@ 125
战略性 125
技巧 125
救 125
明星 125
查@@ 125
步 125
然 125
财政状况 125
这座 125
通 125
通货紧缩 125
重演 125
重重 125
阅读 125
非洲人 125
高额 125
0.@@ 124
at 124
ia 124
一如 124
伯格 124
光是 124
兑 124
关 124
到期 124
制@@ 124
原来 124
固然 124
城镇 124
外汇 124
将近 124
少数民族 124
尼泊尔 124
急于 124
执政党 124
无不 124
无意 124
欧洲理事会 124
理@@ 124
确信 124
第二轮 124
纽黑文 124
肆虐 124
费@@ 124
轨迹 124
近几年 124
违背 124
1982 123
ation 123
一届 123
专业人士 123
两名 123
代 123
冷静 123
创始人 123
创纪录 123
印度洋 123
反驳 123
取@@ 123
场所 123
外流 123
大军 123
工 123
已然 123
张 123
忍受 123
急切 123
戈登 123
战士 123
投行 123
新一代 123
新任 123
方济各 123
昔日 123
格局 123
照 123
理所当然 123
立@@ 123
约翰逊 123
绝非易事 123
般 123
蒙@@ 123
记得 123
这套 123
铀 123
阻挡 123
预料 123
ent 122
一个月 122
下令 122
不好 122
具 122
利益集团 122
可信度 122
右派 122
呈 122
图@@ 122
外交关系 122
富 122
州长 122
总人口 122
打交道 122
日本首相 122
权@@ 122
民兵 122
派别 122
竞争者 122
美国财政部 122
货物 122
赶超 122
门槛 122
陷于 122
ers 121
与否 121
中国@@ 121
临床 121
傲慢 121
别的 121
卖 121
厂 121
合成 121
大批 121
居 121
总和 121
放 121
新西兰 121
正因如此 121
神 121
糖 121
红@@ 121
职能 121
色 121
进攻 121
进来 121
防卫 121
120 120
1950 120
3.5 120
37 120
il@@ 120
上面 120
不敢 120
人民党 120
南斯拉夫 120
反常 120
哈 120
坚信 120
大麻 120
女儿 120
广 120
心态 120
意志 120
抗@@ 120
拓展 120
援引 120
搜索 120
月底 120
殖民 120
满@@ 120
界定 120
空袭 120
脚 120
莫 120
转折点 120
配合 120
et@@ 119
不亚于 119
亚马逊 119
克里 119
冲动 119
创伤 119
制作 119
圈 119
届 119
希@@ 119
微小 119
教派 119
本币 119
检察官 119
欺诈 119
款 119
民主党人 119
汇款 119
清醒 119
确切 119
社团 119
老牌 119
肥胖 119
能源安全 119
西方人 119
轻@@ 119
避税 119
阿里 119
高级官员 119
17@@ 118
44 118
ak@@ 118
三驾 118
不容 118
五大 118
伊拉克人 118
会计 118
传达 118
体育 118
假 118
停火 118
六个 118
兰@@ 118
升温 118
后代 118
场合 118
子@@ 118
宇宙 118
幻觉 118
慢 118
挑起 118
数额 118
既有 118
普遍认为 118
更为重要 118
更深 118
河流 118
照片 118
现实主义 118
监测 118
管 118
系 118
组 118
署 118
聚焦 118
脊髓灰质炎 118
蓝图 118
调和 118
进@@ 118
高水平 118
32 117
34 117
eg@@ 117
七@@ 117
下一代 117
中低收入 117
中美 117
亿@@ 117
出口商 117
初@@ 117
原有 117
告知 117
夫人 117
孤立主义 117
宝座 117
微弱 117
手术 117
托马斯 117
持有人 117
据此 117
改革方案 117
洞见 117
测算 117
清单 117
灾害 117
索 117
级别 117
纲领 117
股份 117
节 117
规避 117
贾@@ 117
赛@@ 117
集会 117
靠拢 117
1973 116
European 116
un@@ 116
万个 116
不论是 116
乌@@ 116
什 116
以为 116
何处 116
停@@ 116
先决条件 116
光明 116
厄瓜多尔 116
原始 116
原材料 116
同行 116
向@@ 116
回顾 116
基准 116
多德 116
大致 116
尴尬 116
市民 116
干@@ 116
报@@ 116
时所 116
极高 116
沙龙 116
浮现 116
电@@ 116
约旦河西岸 116
终止 116
胜任 116
船 116
言辞 116
贸易壁垒 116
雅典 116
42 115
5000 115
au@@ 115
it 115
一股 115
不公 115
不足为奇 115
之处 115
买单 115
六个月 115
减@@ 115
受伤 115
可见 115
善@@ 115
回来 115
国家主权 115
外来 115
大幅提高 115
开明 115
引出 115
引领 115
得主 115
恐吓 115
掠夺 115
正统 115
段 115
热衷于 115
略有 115
研究成果 115
第一位 115
缩短 115
芝加哥 115
蒂 115
表态 115
解散 115
赫 115
近几个月 115
还@@ 115
39 114
95 114
NAFTA 114
m 114
ro@@ 114
一任 114
丰厚 114
之多 114
低水平 114
减小 114
印度政府 114
反击 114
国际化 114
女童 114
弥合 114
德里 114
摩擦 114
旅游 114
无限 114
日本政府 114
渐进 114
物理 114
种类 114
等同于 114
高兴 114
55 113
Mar@@ 113
三种 113
健康状况 113
分割 113
合法化 113
合约 113
小说 113
居高不下 113
得益于 113
恩@@ 113
打败 113
护理 113
政治化 113
施@@ 113
未经 113
机械 113
核国家 113
比喻 113
法德 113
直升机 113
看成 113
索@@ 113
葛兰 113
诊所 113
贿赂 113
车臣 113
返回 113
远高于 113
预防性 113
2019 112
O 112
ou@@ 112
ter 112
不大可能 112
仅限于 112
伊朗人 112
伙伴国 112
农产品 112
名声 112
士 112
大臣 112
家长 112
富@@ 112
希 112
希拉克 112
年时 112
开战 112
异见 112
意在 112
推@@ 112
改@@ 112
星球 112
极化 112
球 112
目 112
看不到 112
签证 112
纽约时报 112
终极 112
经费 112
绝 112
色彩 112
蔑视 112
言@@ 112
贝 112
迈克尔 112
这部 112
阿拉法特 112
零利率 112
非理性 112
高技能 112
David 111
三国 111
上学 111
不良贷款 111
共存 111
军事实力 111
加利福尼亚州 111
势 111
匮乏 111
各项 111
存活 111
实实在在 111
富豪 111
岛屿 111
巨量 111
常任理事 111
平稳 111
引@@ 111
彰显 111
捕捞 111
本次 111
杰@@ 111
登上 111
策划 111
背道而驰 111
调@@ 111
赞扬 111
通货膨胀率 111
通道 111
长久 111
阐述 111
革命性 111
43 110
ad 110
一周 110
不复存在 110
中立 110
付出代价 110
停留 110
关注点 110
冲@@ 110
出去 110
合理性 110
四十年 110
在我看来 110
声@@ 110
大部 110
孟加拉 110
定@@ 110
就业率 110
巴格达 110
市场份额 110
情报局 110
拉美国家 110
收入水平 110
教会 110
明天 110
智力 110
有没有 110
杜@@ 110
极@@ 110
民意 110
没@@ 110
流出 110
看@@ 110
美国@@ 110
营商 110
路上 110
降至 110
音乐 110
T 109
ed@@ 109
h 109
不同于 109
世人 109
乐于 109
产@@ 109
例 109
债权 109
公然 109
加泰罗尼亚 109
化解 109
十多年 109
吸取 109
器官 109
块 109
家庭收入 109
市场准入 109
年里 109
徘徊 109
整@@ 109
方@@ 109
木@@ 109
机@@ 109
海岸 109
物流 109
理 109
生产国 109
罗姆人 109
罚款 109
肉 109
药方 109
蓬勃发展 109
裁定 109
说出 109
输出 109
这条 109
针对性 109
世界观 108
举例 108
五分之一 108
伯@@ 108
假@@ 108
偶尔 108
党内 108
关键在于 108
决裂 108
各不相同 108
名言 108
四 108
国际金融 108
外长 108
威@@ 108
安南 108
扎@@ 108
把持 108
捷克 108
改革派 108
教 108
斯特 108
极具 108
核武 108
欧亚 108
正当 108
第二次世界大战 108
绕过 108
见@@ 108
读者 108
退化 108
TTIP 107
储户 107
共有 107
印 107
去世 107
合并 107
四大 107
展望 107
截至 107
摩尔多瓦 107
朝@@ 107
沉@@ 107
男人 107
疑虑 107
白俄罗斯 107
罪名 107
罪犯 107
老板 107
考量 107
若干 107
苦@@ 107
说辞 107
诺贝尔经济学奖 107
贸易顺差 107
赚取 107
迁移 107
难民营 107
饮食 107
38 106
8@@ 106
下行 106
不善 106
东方 106
为主 106
主意 106
互@@ 106
以内 106
伊斯坦布尔 106
八个 106
公认 106
农@@ 106
准备金 106
别国 106
只@@ 106
可疑 106
司机 106
哈佛 106
国际@@ 106
外国投资 106
多名 106
大为 106
守@@ 106
定向 106
尽@@ 106
局部 106
带@@ 106
帮 106
异@@ 106
思想家 106
投票权 106
捐助 106
据称 106
携带 106
攫取 106
政治体制 106
救济 106
曼德拉 106
激怒 106
现 106
瓦解 106
美洲 106
胡锦涛 106
脱@@ 106
良机 106
艰苦 106
节目 106
装置 106
金本位 106
马歇尔 106
高盛 106
47 105
IT 105
Institute 105
一百万 105
不知 105
不良 105
会令 105
信@@ 105
减记 105
分析家 105
向来 105
密@@ 105
居@@ 105
征服 105
忙于 105
情@@ 105
惊@@ 105
想@@ 105
戈尔巴乔夫 105
扎 105
无处不在 105
晚 105
最小 105
未知 105
构想 105
次级 105
民用 105
法定 105
波兰人 105
深深 105
略 105
看护 105
税收制度 105
节奏 105
薄弱 105
询问 105
贾 105
金正日 105
霍乱 105
MDG 104
man 104
个别 104
中位 104
任由 104
余额 104
动议 104
包 104
包装 104
十分困难 104
大小 104
头脑 104
女人 104
娜 104
宣告 104
度过 104
挑选 104
排 104
政界 104
无非 104
暂时性 104
最强 104
标志性 104
油@@ 104
深 104
相近 104
知名 104
科威特 104
米兰 104
统计数据 104
触及 104
退休年龄 104
顶 104
顶级 104
驱使 104
高峰 104
20@@ 103
9@@ 103
H 103
上去 103
伎俩 103
位居 103
共@@ 103
出任 103
刚 103
别 103
包@@ 103
单 103
反馈 103
否决权 103
增值税 103
增大 103
备受 103
大大增加 103
将@@ 103
库 103
底层 103
截止 103
戴高乐 103
接@@ 103
教科书 103
暴动 103
有机 103
本能 103
步入 103
残忍 103
氏 103
汽油 103
流血 103
淘汰 103
温家宝 103
独裁统治 103
甘地 103
疏远 103
离岸 103
穷 103
紧@@ 103
经@@ 103
继续下去 103
自民党 103
要点 103
词汇 103
跟踪 103
车@@ 103
金融资产 103
黑 103
1914 102
Al@@ 102
g 102
im@@ 102
亲密 102
仅次于 102
债 102
做@@ 102
分支 102
发现自己 102
回忆 102
大笔 102
孟买 102
峰值 102
微@@ 102
微软 102
意大利人 102
感兴趣 102
挫折 102
新书 102
朴槿惠 102
梅德韦 102
此事 102
死去 102
比起 102
生育 102
眼光 102
穿越 102
第三次 102
累计 102
罗斯 102
蔓延到 102
选@@ 102
隐性 102
集体行动 102
非国家 102
0@@ 101
James 101
事先 101
优点 101
切@@ 101
北@@ 101
华@@ 101
印度人民党 101
即@@ 101
原 101
取 101
商业模式 101
回购 101
多于 101
娱乐 101
安置 101
官 101
封锁 101
工@@ 101
库@@ 101
戏剧性 101
扮演着 101
擅长 101
教条 101
数十亿 101
新闻媒体 101
有过 101
机关 101
欠 101
武装冲突 101
现今 101
益处 101
相似之处 101
福音 101
第二@@ 101
货币基金 101
造@@ 101
道@@ 101
金氏 101
长期存在 101
院 101
and@@ 100
ec@@ 100
一度 100
不如说是 100
么 100
亚美尼亚 100
任职 100
伤亡 100
修@@ 100
千万 100
名叫 100
启发 100
在历史上 100
地面 100
增量 100
多项 100
奋斗 100
奖金 100
威 100
宾 100
巧妙 100
建筑业 100
拉动 100
拿到 100
掣肘 100
接入 100
数十万 100
曼@@ 100
根基 100
欧派 100
此人 100
毁掉 100
法西斯主义 100
物理学 100
种族隔离 100
空中 100
约瑟夫 100
绝@@ 100
翻 100
耶伦 100
自然灾害 100
英里 100
见证 100
财阀 100
过往 100
金融中心 100
不及 99
不合理 99
不该 99
世@@ 99
丝绸之路 99
两极分化 99
中断 99
主席国 99
乱 99
他信 99
优质 99
先前 99
剥削 99
反应堆 99
古 99
可行性 99
可言 99
合格 99
周@@ 99
实 99
审核 99
布雷 99
带领 99
总共 99
换言之 99
敌 99
新药 99
无人 99
无动于衷 99
日益严重 99
村 99
演变成 99
犹豫 99
硬着陆 99
维和 99
美国银行 99
翻番 99
肺结核 99
自称 99
行动计划 99
认真对待 99
讲述 99
贫困线 99
赢 99
遗憾 99
酝酿 99
间谍 99
阿卜杜拉 99
韩 99
顺利 99
领@@ 99
1981 98
ir@@ 98
上市 98
不啻 98
九@@ 98
今年夏天 98
共同点 98
分崩离析 98
利比里亚 98
加利福尼亚 98
含量 98
吸烟 98
善意 98
小企业 98
就任 98
总而言之 98
指@@ 98
捕获 98
排@@ 98
携手 98
新鲜 98
旅游业 98
最优 98
某@@ 98
欧洲中央银行 98
沃 98
波士顿 98
洛 98
照@@ 98
牛津 98
猛烈 98
耻辱 98
胡@@ 98
英 98
莱@@ 98
获利 98
设在 98
说话 98
谈 98
象征性 98
赤裸裸 98
那次 98
面@@ 98
马丁 98
高官 98
鸿沟 98
一生 97
三次 97
专@@ 97
之地 97
他@@ 97
值得注意 97
双边贸易 97
吨 97
圣地 97
地区性 97
垮台 97
大有 97
对应 97
局限性 97
巴林 97
常@@ 97
弗@@ 97
报导 97
提起 97
收取 97
新政 97
日常生活 97
最早 97
极低 97
欧洲委员会 97
治愈 97
渺茫 97
留@@ 97
目的地 97
相符 97
福特 97
范例 97
获得成功 97
虚拟 97
说@@ 97
赞助 97
迫在眉睫 97
首位 97
鼓舞 97
1.3 96
? 96
Twitter 96
一夜之间 96
一致性 96
丈夫 96
不惜 96
不惜一切 96
严重威胁 96
中叶 96
主体 96
亨利 96
俄@@ 96
保卫 96
利差 96
前夕 96
勉强 96
印度教 96
同胞 96
噩梦 96
土 96
坐在 96
培育 96
差不多 96
布勒 96
建成 96
德尔 96
抗击 96
摄氏度 96
新生 96
无条件 96
日益增长 96
普尔 96
核电 96
正义党 96
残暴 96
没错 96
直@@ 96
破@@ 96
离@@ 96
秋天 96
管@@ 96
箭 96
绝不会 96
装 96
赫@@ 96
重回 96
预见到 96
马克思 96
高速公路 96
48 95
NCD 95
WTO 95
一是 95
与其说是 95
两项 95
为止 95
仪式 95
冷漠 95
初始 95
印@@ 95
参与率 95
塞 95
学派 95
尽力 95
屈服 95
岌岌可危 95
幕后 95
微观 95
抗药性 95
服从 95
植根于 95
次要 95
点燃 95
生长 95
福岛 95
笔者 95
管理层 95
纳税 95
结婚 95
联网 95
节省 95
西岸 95
请求 95
赋权 95
跌 95
身边 95
轻 95
迎合 95
运气 95
雪上加霜 95
顿 95
飞@@ 95
鱼 95
麦凯恩 95
1.2 94
George 94
ob@@ 94
买家 94
互联 94
从来不 94
会为 94
倒塌 94
偶然 94
免遭 94
写入 94
列@@ 94
到处 94
助推 94
区间 94
医疗卫生 94
单边 94
原则上 94
发言权 94
品质 94
哥斯达黎加 94
国有化 94
在世界上 94
奥斯陆 94
学到 94
幽灵 94
延迟 94
建@@ 94
徒 94
您 94
愉快 94
感谢 94
戈@@ 94
所处 94
换@@ 94
搁置 94
数千 94
断 94
期@@ 94
本书 94
枯竭 94
标题 94
核武库 94
殆尽 94
求@@ 94
沿着 94
爱@@ 94
男女 94
疑问 94
白 94
相关性 94
神圣 94
第五 94
董事 94
视频 94
证 94
越是 94
遗忘 94
&amp; 93
1971 93
ic@@ 93
一回 93
不难 93
专业化 93
两家 93
买@@ 93
他会 93
会以 93
侵害 93
俄国人 93
保住 93
信条 93
公务员 93
内政 93
几百年 93
到@@ 93
加工 93
劳@@ 93
北欧国家 93
博客 93
取而代之 93
呈现出 93
四倍 93
土@@ 93
太大而 93
密集型 93
带给 93
年份 93
彼得 93
感@@ 93
断@@ 93
李@@ 93
架 93
柏林墙 93
沙 93
泛滥 93
澄清 93
灭绝 93
独裁政权 93
立 93
纪念日 93
终身 93
结@@ 93
资本外逃 93
防@@ 93
额度 93
J 92
ev@@ 92
ine 92
us 92
下属 92
世界大战 92
之路 92
交易所 92
以色列政府 92
加息 92
勒@@ 92
卓越 92
卡特 92
卢@@ 92
反美 92
名列 92
国会议员 92
图景 92
堕落 92
委托 92
学位 92
将要 92
层次 92
已知 92
希腊人 92
引向 92
形 92
很@@ 92
戈尔 92
投@@ 92
教学 92
时常 92
易@@ 92
树 92
欧美 92
沿岸 92
活@@ 92
理查德 92
碎片 92
罹患 92
藏 92
血 92
践踏 92
这家 92
这点 92
远程 92
远见 92
铭记 92
降临 92
顾虑 92
验证 92
&#91; 91
um@@ 91
不去 91
世纪末 91
书@@ 91
买卖 91
仅为 91
令人鼓舞 91
伤 91
伪善 91
倡导 91
偿债 91
充其量 91
八十年代 91
出发 91
初步 91
功@@ 91
华 91
土耳其人 91
大体上 91
并@@ 91
当成 91
总收入 91
恶性 91
拉加 91
挫败 91
捍卫者 91
新闻自由 91
深受 91
潘基文 91
激情 91
班@@ 91
眼 91
私@@ 91
紧 91
缩水 91
苦苦 91
西非 91
议案 91
赛 91
这使 91
这句 91
追@@ 91
退@@ 91
银行贷款 91
随机 91
&#93; 90
41 90
7.5 90
az@@ 90
东海 90
中介 90
之手 90
亏损 90
何@@ 90
健全 90
先发制人 90
兵 90
兵@@ 90
军事冲突 90
前瞻性 90
反犹主义 90
困 90
地被 90
坦桑尼亚 90
好比 90
实现目标 90
尤 90
废墟 90
必@@ 90
悲惨 90
抛 90
拉低 90
持续性 90
摩根 90
政体 90
无序 90
旧金山 90
智库 90
暴露出 90
有利可图 90
波动性 90
消费税 90
滋生 90
热烈 90
特拉维夫 90
生殖 90
禁@@ 90
笔 90
管理局 90
纪录 90
罗格 90
谈话 90
谋求 90
这件 90
进口商品 90
阿联酋 90
随处可见 90
鹰派 90
0.1 89
0.7 89
1.6 89
15@@ 89
HIV 89
Re@@ 89
一次性 89
上风 89
临时性 89
借鉴 89
倾斜 89
光靠 89
典范 89
兼并 89
减贫 89
分类 89
划分 89
利益冲突 89
制度性 89
卢拉 89
发育 89
叫做 89
可怜 89
同步 89
困惑 89
在此之前 89
坐 89
垃圾 89
处境 89
失调 89
好转 89
弱势群体 89
感情 89
慢慢 89
成年 89
打着 89
敢于 89
景象 89
杀手 89
枢纽 89
样子 89
欧佩克 89
段时间 89
民@@ 89
混淆 89
班农 89
略微 89
省份 89
算是 89
职业生涯 89
药@@ 89
观众 89
计 89
起着 89
运@@ 89
避开 89
长久以来 89
霍@@ 89
非洲地区 89
首脑会议 89
马杜罗 89
1986 88
Ar@@ 88
ay@@ 88
son 88
上来 88
严重性 88
产业政策 88
优化 88
会上 88
先锋 88
克斯 88
军政府 88
剧变 88
十亿 88
原料 88
原理 88
各种各样 88
同僚 88
囤积 88
国际原子能机构 88
安全部队 88
属 88
崇拜 88
巧合 88
总会 88
恶@@ 88
抑郁症 88
政治危机 88
施罗德 88
普拉斯 88
有所增加 88
核设施 88
法西斯 88
海域 88
滑向 88
理智 88
用作 88
画 88
第三@@ 88
算@@ 88
茨 88
被控 88
解 88
贴 88
赞美 88
较@@ 88
近一半 88
骄傲 88
130 87
900 87
AI 87
Thomas 87
ó 87
一本 87
不起 87
信徒 87
催化剂 87
儿 87
关乎 87
军事政变 87
几位 87
分为 87
列强 87
北 87
升 87
反之 87
君主 87
商@@ 87
复杂化 87
好得多 87
定律 87
客 87
宪法法院 87
对华 87
帕 87
库存 87
弹劾 87
德黑兰 87
总能 87
情愿 87
批判 87
拖@@ 87
挤兑 87
摆在 87
斯诺 87
无助于 87
旧@@ 87
条@@ 87
枪 87
欲 87
治@@ 87
泰勒 87
洗@@ 87
燃煤 87
特性 87
着@@ 87
禁运 87
福@@ 87
穆@@ 87
管辖 87
精神病 87
结成 87
网上 87
群 87
致@@ 87
船只 87
草@@ 87
行径 87
表演 87
见到 87
论据 87
迪拜 87
钞票 87
阈值 87
领取 87
鼓动 87
齐@@ 87
0 86
63 86
In@@ 86
ot@@ 86
si@@ 86
一连串 86
主任 86
五星 86
亲信 86
克格勃 86
全力 86
公共利益 86
十个 86
华沙 86
单边主义 86
卡斯特罗 86
压 86
发酵 86
受访者 86
变量 86
命名 86
坚守 86
基点 86
增@@ 86
尊敬 86
市场化 86
带到 86
年末 86
战役 86
抽@@ 86
放宽 86
杰出 86
松 86
渗透 86
温@@ 86
潜能 86
玉米 86
盛行 86
看着 86
穆勒 86
等@@ 86
篮子 86
维尔 86
维系 86
萨科奇 86
薪水 86
贸易逆差 86
资料 86
起初 86
跟进 86
透露 86
重现 86
锁定 86
降低利率 86
高中 86
高利率 86
齐心协力 86
AKP 85
An@@ 85
io 85
一组 85
丁 85
乘数 85
五 85
仇外 85
伦齐 85
低工资 85
倡导者 85
假新闻 85
全国性 85
军人 85
凌驾于 85
劳动生产率 85
区域性 85
卖@@ 85
召集 85
国企 85
大战 85
夫妇 85
字 85
定居 85
实证 85
小额 85
就职 85
广播 85
延缓 85
快乐 85
戴维 85
拉登 85
挤出 85
明智地 85
板 85
查 85
民主政体 85
消退 85
灌溉 85
登@@ 85
盯住 85
相互依存 85
短@@ 85
简称 85
罗纳德 85
群岛 85
蛋白质 85
赌博 85
辛@@ 85
过早 85
过来 85
追随 85
逃脱 85
重返 85
闹剧 85
防范 85
频率 85
16@@ 84
350 84
99 84
IPCC 84
一只 84
万名 84
不佳 84
九个 84
书籍 84
人性 84
众@@ 84
伦@@ 84
共和 84
其一 84
其后 84
冰川 84
出身 84
加重 84
压抑 84
发言人 84
听取 84
和平谈判 84
坐@@ 84
坐视 84
基辛格 84
处决 84
大坝 84
失业者 84
学家 84
富兰克林 84
对准 84
忘 84
意@@ 84
把握 84
改革者 84
数据库 84
新生儿 84
星 84
是否是 84
服装 84
来临 84
核裁军 84
沙文主义 84
波斯湾 84
游@@ 84
灵魂 84
电动汽车 84
税制 84
第二种 84
粮食安全 84
素 84
职 84
菲 84
被动 84
解决之道 84
论断 84
论者 84
赫鲁晓夫 84
那场 84
饮用水 84
马克里 84
麦@@ 84
1987 83
6.5 83
x 83
两者之间 83
中将 83
丹 83
低位 83
元 83
冷@@ 83
劳动密集型 83
北极 83
史无前例 83
固有 83
塞夫 83
外汇市场 83
夺取 83
客观 83
尼亚 83
局长 83
情报机构 83
或多或少 83
所属 83
持有者 83
政见 83
日趋 83
早@@ 83
晚些时候 83
服用 83
末日 83
波罗的海 83
注资 83
游客 83
热带 83
现场 83
男孩 83
界线 83
百万 83
相去甚远 83
看出 83
砍伐 83
籍 83
纾 83
耗资 83
胜 83
自上而下 83
航空 83
观看 83
记@@ 83
误导性 83
课 83
谬误 83
达尔富尔 83
这样一来 83
重心 83
重蹈 83
金属 83
陷入困境 83
集 83
1929 82
Car@@ 82
Michael 82
NPT 82
Sch@@ 82
ah 82
av@@ 82
ig@@ 82
不快 82
业绩 82
侨民 82
侮辱 82
党员 82
关@@ 82
刚果 82
初选 82
区区 82
卢比 82
卫队 82
参选 82
另一方 82
后面 82
听众 82
四分之三 82
回事 82
回国 82
国籍 82
国际事务 82
多边贸易 82
多达 82
大面积 82
实时 82
年会 82
性行为 82
技术@@ 82
技术性 82
抑或 82
投票率 82
抵挡 82
振兴 82
摇摆 82
新高 82
无情 82
日后 82
暗@@ 82
替罪羊 82
权势 82
极少数 82
每月 82
民 82
泄露 82
流通 82
火箭 82
特质 82
电池 82
皮克提 82
盖 82
眼@@ 82
移交 82
筛查 82
纯属 82
脂肪 82
艺术家 82
艾伦 82
蚊子 82
规律 82
许诺 82
谈到 82
进口关税 82
逃税 82
遍布 82
酒 82
重商主义 82
霍 82
预想 82
食 82
骗局 82
鱼类 82
黯淡 82
齐聚 82
1933 81
2.@@ 81
54 81
IC@@ 81
K 81
L 81
c 81
con@@ 81
不满情绪 81
乌克兰人 81
人体 81
偿还债务 81
全职 81
养@@ 81
北爱尔兰 81
区块 81
卸任 81
另类 81
听@@ 81
四国 81
域 81
基辅 81
处置 81
夫@@ 81
夺回 81
字@@ 81
宗教信仰 81
审议 81
宪政 81
寄希望于 81
小儿麻痹症 81
平 81
开创 81
强奸 81
强度 81
影片 81
快@@ 81
房 81
打消 81
承担责任 81
抉择 81
指挥官 81
摇摇欲坠 81
教义 81
曲线 81
替换 81
核弹 81
比索 81
没人 81
流行病 81
电厂 81
盘 81
社会@@ 81
科学研究 81
第三方 81
网@@ 81
良多 81
荣誉 81
蒙蒂 81
街道 81
覆辙 81
讲@@ 81
诽谤 81
货币化 81
资 81
轻而易举 81
辐射 81
重获 81
随@@ 81
隐瞒 81
霸主 81
食@@ 81
黑客 81
默许 81
46 80
53 80
FDI 80
Th@@ 80
op@@ 80
不道德 80
两难 80
中美洲 80
乌 80
事后 80
代表性 80
伊始 80
保加利亚 80
兑换 80
冰岛 80
几次 80
出路 80
别@@ 80
助 80
危险性 80
向下 80
团结起来 80
固定汇率 80
存 80
宽带 80
急@@ 80
批评家 80
推测 80
放心 80
时至今日 80
服 80
杀@@ 80
毕业 80
沃@@ 80
治 80
沿海 80
浮动 80
激励机制 80
煤 80
现成 80
甘@@ 80
男子 80
眼看 80
祖先 80
稳@@ 80
筹资 80
粒子 80
红线 80
罪恶 80
美日 80
能源需求 80
脚步 80
脸 80
落@@ 80
虫 80
觉醒 80
走势 80
身后 80
辅之以 80
配@@ 80
重中之重 80
长期投资 80
飞 80
49 79
G7 79
ISIS 79
Le 79
ut@@ 79
z 79
不禁 79
两位数 79
乌托邦 79
乳腺癌 79
亿万富翁 79
从不 79
伊朗政府 79
信用卡 79
先是 79
入狱 79
公园 79
刑事法庭 79
南北 79
吞噬 79
回升 79
回收 79
国务院 79
外包 79
大不相同 79
大谈 79
太空 79
少@@ 79
常 79
待@@ 79
心脏病 79
意料 79
戴 79
撤退 79
攻势 79
数万亿美元 79
无法控制 79
普世 79
普遍存在 79
更迭 79
枪支 79
核子 79
消极影响 79
涌现 79
爱国主义 79
牵涉到 79
玩 79
环 79
盖@@ 79
石@@ 79
礼物 79
禁忌 79
紧迫性 79
美元汇率 79
老人 79
自由贸易区 79
藏@@ 79
裂痕 79
解放军 79
进口国 79
进行谈判 79
迟迟 79
铝 79
附带 79
随意 79
集@@ 79
青少年 79
预@@ 79
马斯特里赫特 79
高位 79
62 78
Economic 78
Health 78
ali@@ 78
od@@ 78
se 78
一时 78
七个 78
下调 78
丢掉 78
中所 78
亿吨 78
余地 78
保密 78
倘若 78
偏执 78
全方位 78
养老 78
再融资 78
军备竞赛 78
刚刚开始 78
南中国海 78
占多数 78
可悲 78
含有 78
吸纳 78
唯有 78
天堂 78
威尔逊 78
官僚机构 78
建 78
德拉 78
慢性 78
接替 78
文在寅 78
时才 78
普通人 78
智能手机 78
核反应堆 78
欠缺 78
法兰克福 78
波及 78
泰@@ 78
流亡 78
球员 78
看见 78
第四次 78
肺炎 78
胚胎 78
装备 78
解@@ 78
警示 78
调 78
越过 78
转为 78
输掉 78
逃@@ 78
预先 78
领地 78
鲜明对比 78
1.8 77
1968 77
4.5 77
67 77
World 77
不切实际 77
不可逆转 77
与日俱增 77
争@@ 77
仿效 77
侵入 77
促 77
农 77
十足 77
单个 77
变动 77
后期 77
国界 77
地向 77
坏事 77
外币 77
奥斯曼帝国 77
完 77
屈服于 77
必定 77
投向 77
捐款 77
改良 77
教徒 77
无济于事 77
李克强 77
某种意义 77
核扩散 77
格林 77
毛@@ 77
演说 77
然@@ 77
特使 77
碳税 77
私人资本 77
空白 77
章 77
第@@ 77
第一次世界大战 77
第三种 77
结算 77
缺点 77
罪魁祸首 77
自私 77
若@@ 77
虔诚 77
表@@ 77
跻身 77
轻微 77
这才 77
通用 77
银行行长 77
长期性 77
附加 77
除外 77
顾客 77
驱动力 77
龙@@ 77
1.4 76
57 76
Act 76
ate 76
f 76
ra 76
一人 76
世界舞台 76
两场 76
乌拉圭 76
交通@@ 76
人口数量 76
人工 76
仅靠 76
伤@@ 76
位列 76
关切 76
关门 76
养活 76
凯@@ 76
凯蒂 76
分娩 76
列入 76
利亚 76
力求 76
同理 76
四处 76
圣地亚哥 76
头寸 76
季 76
宁愿 76
实例 76
宣誓 76
尼加拉瓜 76
屈从 76
应急 76
强人 76
心理学 76
忠实 76
怨恨 76
恶意 76
患 76
悲哀 76
惯例 76
想象力 76
手下 76
拥抱 76
按@@ 76
推理 76
政 76
无核化 76
权重 76
校园 76
横@@ 76
欧尔 76
每当 76
气氛 76
求 76
淹没 76
激活 76
玛 76
直至 76
相互依赖 76
筹码 76
算盘 76
自卫 76
自相矛盾 76
节能 76
血液 76
衣 76
败@@ 76
资本家 76
赚钱 76
部族 76
雅 76
雅@@ 76
靠近 76
鸦片 76
1962 75
1988 75
Ad@@ 75
GDP@@ 75
Ma@@ 75
U 75
qu@@ 75
一类 75
三位 75
二世 75
人能 75
代表团 75
低廉 75
信托 75
写照 75
南欧国家 75
卢森堡 75
卫生工作者 75
参考 75
发言 75
叙利亚人 75
商店 75
嘲笑 75
团结一致 75
国家@@ 75
国度 75
地为 75
太阳 75
官僚主义 75
实用主义 75
微 75
怎么办 75
我国 75
扬 75
推断 75
故@@ 75
救@@ 75
教堂 75
斯堪的纳维亚 75
新近 75
替 75
术语 75
核查 75
毋庸置疑 75
添加 75
渔业 75
电信 75
监视 75
矛头 75
科研 75
第一种 75
等级 75
篇 75
精心 75
老布什 75
自主权 75
萎靡不振 75
营销 75
行动者 75
袖手旁观 75
超额 75
达尔文 75
迷你 75
适应性 75
道德风险 75
重新分配 75
重新考虑 75
阳光 75
风险管理 75
默认 75
Council 74
En@@ 74
ent@@ 74
ey 74
re 74
上半年 74
不无道理 74
乱象 74
云 74
人口老龄化 74
人道 74
任@@ 74
会见 74
伯 74
体重 74
供@@ 74
假说 74
八国集团 74
博物馆 74
原先 74
受制于 74
可比 74
吃@@ 74
哈里发 74
坚实 74
坦克 74
壮大 74
外资 74
好莱坞 74
始作俑者 74
安装 74
宣战 74
就@@ 74
席 74
平常 74
平庸 74
并不需要 74
弊端 74
心中 74
抛出 74
拖入 74
招@@ 74
提供援助 74
收支平衡 74
无异于 74
最能 74
死灰复燃 74
残疾 74
毛 74
水域 74
海滩 74
游戏规则 74
目@@ 74
税务 74
线索 74
肉@@ 74
肮脏 74
腐蚀 74
自满 74
艾哈迈迪 74
角 74
评判 74
课税 74
负有 74
起源 74
超国家 74
轮@@ 74
迟早 74
速 74
钓鱼岛 74
闻名 74
0.3 73
2.4 73
OMT 73
一番 73
与会者 73
个@@ 73
中部 73
仍@@ 73
仲裁 73
似的 73
冒犯 73
前后 73
南美 73
取缔 73
和谈 73
四分五裂 73
塞拉利昂 73
多万 73
奴隶 73
家中 73
家里 73
市值 73
市政 73
年收入 73
弱化 73
微乎其微 73
心目 73
总的来说 73
悬而未决 73
抗议者 73
挤压 73
政治经济 73
易 73
本国货币 73
束手无策 73
毁 73
没完没了 73
泄漏 73
消费品 73
牛@@ 73
王储 73
用水 73
神秘 73
积@@ 73
管理@@ 73
联合行动 73
能源供应 73
脱钩 73
自有 73
裁军 73
见解 73
视@@ 73
调节 73
货 73
赞赏 73
赶上 73
输 73
进口品 73
预料到 73
0.2 72
1.7 72
180 72
1975 72
1978 72
1984 72
1985 72
19@@ 72
ex@@ 72
p 72
上将 72
不出 72
严@@ 72
临床试验 72
五十年 72
代际 72
令人振奋 72
倒@@ 72
克罗地亚 72
入主 72
军事化 72
友 72
商业利益 72
多尔 72
多得多 72
够 72
天才 72
天生 72
失效 72
失踪 72
头条 72
尽量 72
并不比 72
度@@ 72
得出结论 72
恰好 72
懂 72
政局 72
斯密 72
斯蒂格利茨 72
无所作为 72
日期 72
旷日持久 72
星@@ 72
杀虫剂 72
核威胁 72
游击队 72
牛肉 72
独自 72
现已 72
瓦尔 72
用以 72
男@@ 72
痛 72
磋商 72
福克斯 72
类别 72
编@@ 72
网络安全 72
网络空间 72
翻@@ 72
脱节 72
自力更生 72
苏 72
薄熙来 72
虚弱 72
视作 72
视野 72
角落 72
警报 72
资不抵债 72
资深 72
蹂躏 72
输送 72
迷失 72
送到 72
金融工具 72
销毁 72
难以置信 72
驻扎 72
10@@ 71
1947 71
1948 71
52 71
58 71
AfD 71
Climate 71
ah@@ 71
ash@@ 71
b 71
il 71
tr@@ 71
三中全会 71
个性 71
乐 71
乐@@ 71
习惯于 71
仿佛 71
保持沉默 71
假装 71
偏远 71
偷@@ 71
公民自由 71
军备 71
农作物 71
列出 71
利基 71
十倍 71
即可 71
听说 71
善 71
坚@@ 71
大手笔 71
套利 71
店 71
康@@ 71
强权 71
总之 71
息 71
患有 71
戈 71
投机者 71
捕捉 71
搞@@ 71
撒谎 71
文学 71
斯坦福 71
斯洛伐克 71
时间表 71
望 71
桥 71
武装力量 71
殖民主义 71
每周 71
沉迷于 71
法令 71
流氓 71
淡化 71
炮制 71
牢记 71
物品 71
物理学家 71
短期内 71
种@@ 71
移动电话 71
系列 71
罢工 71
耶 71
联手 71
联盟党 71
至@@ 71
谢@@ 71
象 71
财长 71
质 71
辩解 71
运送 71
野生动物 71
铺平 71
顺差 71
鱼@@ 71
麦克 71
黄@@ 71
64 70
Joseph 70
Mon@@ 70
ow@@ 70
一百@@ 70
乃是 70
交易成本 70
出资者 70
制度化 70
前线 70
发动战争 70
吹嘘 70
善于 70
埃克森 70
基金组织 70
大获全胜 70
契合 70
姆@@ 70
工资水平 70
已久 70
憎恨 70
户 70
托尼 70
招聘 70
挖掘 70
挥霍 70
数以百万计 70
施加压力 70
比作 70
永@@ 70
油气 70
爱沙尼亚 70
牧师 70
物@@ 70
犹太教 70
狂@@ 70
独有 70
现存 70
破坏力 70
科学界 70
积极参与 70
税基 70
终@@ 70
肆意 70
背@@ 70
胜过 70
致 70
表述 70
购物 70
输入 70
遗@@ 70
避难 70
采取任何 70
针锋相对 70
钱@@ 70
阿拉维 70
零售商 70
驻军 70
鼓吹者 70
1.9 69
140 69
2.6 69
2.8 69
56 69
Bar@@ 69
ard 69
x@@ 69
á 69
― 69
上诉 69
中东国家 69
中国崛起 69
之初 69
之旅 69
争相 69
亚当 69
保持稳定 69
停顿 69
克什米尔 69
克尔 69
公信力 69
兴建 69
出访 69
加紧 69
势力范围 69
医药 69
另有 69
同期 69
坦 69
基本权利 69
墨西哥城 69
备@@ 69
夏@@ 69
大声 69
失 69
小于 69
少量 69
巨@@ 69
巨资 69
差额 69
弄 69
弹 69
当初 69
往常 69
怪异 69
愈加 69
所在地 69
推荐 69
推销 69
提倡 69
摆 69
支@@ 69
收买 69
新世界 69
施 69
最长 69
枚 69
查尔斯 69
正规 69
民主选举 69
流量 69
消亡 69
清真寺 69
生意 69
眼里 69
经济区 69
统计数字 69
继 69
讨好 69
谋@@ 69
貌似 69
贫困率 69
资源配置 69
较弱 69
运 69
金融时报 69
阿尔巴尼亚 69
青@@ 69
马克思主义 69
1974 68
2.2 68
BJP 68
le@@ 68
og@@ 68
ru@@ 68
ts 68
一所 68
不稳定性 68
中旬 68
之大 68
亚洲地区 68
以免 68
修补 68
免税 68
免除 68
公民权 68
共同努力 68
冰@@ 68
分钟 68
剔除 68
勾结 68
匿名 68
呆 68
城@@ 68
塞族 68
大片 68
幕 68
底@@ 68
总体经济 68
执政者 68
抗拒 68
抵押品 68
拉脱维亚 68
招致 68
指南 68
政治学 68
政治学家 68
时会 68
朗 68
样本 68
森@@ 68
步@@ 68
深思熟虑 68
灌输 68
烟@@ 68
环@@ 68
瓦哈比 68
田 68
百 68
积压 68
税负 68
穷@@ 68
穿 68
竟然 68
累进 68
纸@@ 68
继任 68
绩效 68
美丽 68
自然而然 68
蒂勒 68
蒙受损失 68
螺旋 68
裨益 68
警@@ 68
试@@ 68
试想 68
调低 68
贯彻 68
走私 68
越大 68
足 68
轮值 68
闪@@ 68
韧性 68
驳斥 68
高价 68
1972 67
3000 67
Center 67
Con@@ 67
Martin 67
Summers 67
est 67
ity 67
ov@@ 67
一同 67
下半年 67
不至于 67
不遗余力 67
中性 67
之久 67
之战 67
乱@@ 67
了@@ 67
什@@ 67
付 67
使@@ 67
公平竞争 67
内罗毕 67
冒@@ 67
军事基地 67
刻意 67
勘探 67
历史记录 67
取悦 67
变异 67
周 67
哪@@ 67
地产 67
增 67
大体 67
大大降低 67
安慰 67
实际工资 67
小心翼翼 67
尼古拉斯 67
布托 67
息息相关 67
成人 67
所能 67
技术转让 67
拥挤 67
拿破仑 67
数亿 67
数目 67
斗@@ 67
斯蒂格 67
无限期 67
最低水平 67
期权 67
木材 67
歌 67
沃尔玛 67
沙皇 67
激进分子 67
球队 67
甚@@ 67
税法 67
稳 67
突破性 67
窃取 67
第四个 67
简@@ 67
纽约市 67
终将 67
良性 67
莫拉莱 67
蒙受 67
被判 67
贵族 67
赔偿 67
赴 67
跑 67
边@@ 67
过渡期 67
近于零 67
远超 67
追加 67
选择性 67
通向 67
通知 67
酒店 67
金融风险 67
错@@ 67
陈述 67
限额 67
韦@@ 67
顾及 67
预警 67
驾驶 67
2.3 66
2.7 66
Commission 66
N 66
am 66
que 66
tion 66
ty 66
í 66
一大半 66
一手 66
不动产 66
不可思议 66
价@@ 66
借用 66
入学率 66
养 66
几 66
几率 66
力图 66
发电厂 66
国际收支 66
基本@@ 66
堂 66
大革命 66
奢侈品 66
孕育 66
强健 66
怀孕 66
怀疑派 66
恐怖活动 66
恶 66
战线 66
扣除 66
收 66
效忠 66
数据@@ 66
暗中 66
曙光 66
朔伊 66
欲望 66
汉 66
沃伦 66
混@@ 66
滞后 66
盛@@ 66
相邻 66
社会保险 66
离婚 66
空缺 66
第一批 66
粗@@ 66
细分 66
缔造 66
美中 66
美国联邦 66
肉类 66
肿瘤 66
脱贫 66
观察员 66
诚信 66
诱人 66
诺贝尔和平奖 66
轴心 66
较少 66
近邻 66
这两项 66
远大于 66
选手 66
里程碑 66
银@@ 66
错过 66
降@@ 66
险 66
非金融 66
顺从 66
首 66
高回报 66
鲍威尔 66
66 65
all 65
ci@@ 65
ie 65
ir 65
ov 65
上下 65
下面 65
不算 65
业@@ 65
两国之间 65
主办 65
举@@ 65
也好 65
亚历山大 65
优@@ 65
余@@ 65
保健 65
借入 65
僵尸 65
共担 65
关系密切 65
创设 65
别处 65
千 65
单枪匹马 65
卫生设施 65
参@@ 65
可笑 65
命@@ 65
在实践中 65
备忘录 65
大自然 65
太高 65
好战 65
寨 65
小农 65
小得多 65
层出不穷 65
归@@ 65
德斯 65
忧心忡忡 65
战火 65
截然 65
扶贫 65
掩饰 65
提供者 65
撒钱 65
放贷 65
暴政 65
暴涨 65
更广 65
杀人 65
构成威胁 65
果实 65
次贷 65
款项 65
毒 65
水源 65
汉@@ 65
沙漠 65
涌向 65
牺牲品 65
猪 65
玛@@ 65
略高于 65
盎格鲁 65
福 65
程 65
童工 65
第二天 65
粗暴 65
索罗斯 65
经济@@ 65
结构调整 65
美国市场 65
老年 65
而来 65
耐@@ 65
自发 65
草根 65
获 65
虚伪 65
让位 65
转折 65
适度 65
长大 65
阿塞拜疆 65
阿里巴巴 65
限定 65
高薪 65
魔鬼 65
麻省理工学院 65
51 64
59 64
88 64
Ben 64
II 64
Jean 64
Le@@ 64
ODA 64
ic 64
下注 64
不堪重负 64
不振 64
不明智 64
专业知识 64
两周 64
中世纪 64
之源 64
乐观主义 64
乱局 64
亲自 64
人质 64
仍能 64
付费 64
低点 64
使用者 64
修 64
共鸣 64
分解 64
创新者 64
前首相 64
助益 64
十九 64
卡钦斯基 64
原子弹 64
合作者 64
咖啡 64
唱@@ 64
困难重重 64
国际足联 64
土耳其政府 64
圣战者 64
复仇 64
大事 64
大豆 64
天赋 64
室内 64
封@@ 64
尤@@ 64
弹@@ 64
归结为 64
思@@ 64
思路 64
意料之外 64
拖 64
捐助者 64
政@@ 64
政府部门 64
暗杀 64
权限 64
每位 64
每桶 64
沃尔克 64
没收 64
派出 64
流感 64
淡水 64
温床 64
牵头 64
百分比 64
盲目 64
碰撞 64
私人企业 64
税收政策 64
第一轮 64
算计 64
精明 64
纵观 64
细@@ 64
耶@@ 64
肆无忌惮 64
肯 64
航班 64
营 64
蒂@@ 64
认@@ 64
证券化 64
词@@ 64
调动 64
谈判者 64
负@@ 64
跟上 64
跳@@ 64
迷@@ 64
采@@ 64
随心所欲 64
革新 64
页 64
顺序 64
饭店 64
高油价 64
3.3 63
5.5 63
Br@@ 63
ne 63
不可@@ 63
不适 63
东北亚 63
中美关系 63
中起 63
二十@@ 63
五倍 63
人力资源 63
以使 63
低效率 63
体内 63
例证 63
借@@ 63
倾听 63
光是在 63
兴奋 63
凯利 63
势@@ 63
十 63
占有 63
印刷 63
压缩 63
双 63
名誉 63
含@@ 63
坦@@ 63
基尼系数 63
大使馆 63
大米 63
奴役 63
孱弱 63
将令 63
尚@@ 63
届时 63
市盈率 63
布拉格 63
年龄段 63
庄稼 63
引进 63
弱小 63
很强 63
很难说 63
德国联邦 63
心理学家 63
急剧下降 63
总值 63
悲伤 63
惩罚性 63
投给 63
提取 63
摩@@ 63
撤回 63
散 63
散@@ 63
斯基 63
无可避免 63
极易 63
次@@ 63
水电 63
法制 63
法国政府 63
游 63
热门 63
爱因斯坦 63
理论家 63
瑞@@ 63
略@@ 63
硬@@ 63
私营企业 63
科夫斯基 63
箱 63
经济收益 63
经济效益 63
美德 63
老化 63
脸书 63
自由民主党 63
致富 63
草 63
虚@@ 63
融化 63
订立 63
诗人 63
话语权 63
调停 63
谱 63
这片 63
远非 63
述 63
造 63
错觉 63
问及 63
闲置 63
阿尔@@ 63
隐@@ 63
风潮 63
骚扰 63
1.1 62
AMR 62
CDU 62
Partnership 62
ach@@ 62
一员 62
一波 62
下个月 62
东欧国家 62
两国政府 62
严重后果 62
为时过早 62
亮 62
保存 62
兜售 62
内外 62
击 62
初创 62
助手 62
劳力 62
十国集团 62
卓著 62
博 62
卡特尔 62
压@@ 62
厌倦 62
反响 62
反感 62
各自为政 62
合力 62
后尘 62
国土 62
多家 62
天主教徒 62
天真 62
太大 62
夭折 62
夺去 62
奢侈 62
存储 62
守 62
官@@ 62
崇高 62
左倾 62
巴罗 62
带动 62
得势 62
惨败 62
感知 62
愿 62
抓 62
拼命 62
指示 62
摒弃 62
新一届 62
新闻报道 62
有鉴于此 62
树木 62
格拉斯 62
桑@@ 62
正逢 62
毒@@ 62
永恒 62
消费量 62
猖獗 62
王@@ 62
现@@ 62
电子商务 62
登记 62
称@@ 62
税@@ 62
窗口 62
纵容 62
给定 62
罢了 62
肥 62
脑@@ 62
舒适 62
航空公司 62
节@@ 62
西奈半岛 62
警钟 62
认清 62
试点 62
该项 62
语@@ 62
读@@ 62
谈判桌 62
赞誉 62
躲避 62
迟缓 62
难免 62
集权 62
雪@@ 62
靖国神社 62
非但 62
须知 62
马里奥 62
高尚 62
默多克 62
110 61
4000 61
6000 61
73 61
76 61
ESM 61
GCC 61
ay 61
ot 61
一书中 61
一层 61
一致同意 61
一辆 61
世界市场 61
主角 61
乡村 61
些许 61
交 61
众 61
佩@@ 61
修正主义 61
做过 61
几种 61
分水岭 61
创@@ 61
升@@ 61
危地马拉 61
含 61
品种 61
囚禁 61
回落 61
围@@ 61
固定资产 61
堡垒 61
塞内加尔 61
头巾 61
威廉 61
子公司 61
定罪 61
实用 61
小泉 61
巨人 61
常识 61
幸福感 61
底线 61
开出 61
开放市场 61
张@@ 61
强行 61
怀疑论者 61
所知 61
手握 61
扶持 61
探@@ 61
撞 61
收支 61
无家可归 61
暴@@ 61
更为严重 61
有意识 61
权宜之计 61
某人 61
标 61
殴打 61
水面 61
汉密尔顿 61
油田 61
涨 61
清 61
激进主义 61
物价指数 61
犹豫不决 61
猛@@ 61
矿 61
私下 61
突变 61
符号 61
签署国 61
米勒 61
米歇尔 61
约@@ 61
维度 61
群@@ 61
而生 61
联邦调查局 61
背上 61
讨厌 61
论@@ 61
诉 61
诉诸 61
贩毒 61
跨国企业 61
辉煌 61
这能 61
适@@ 61
逆差 61
遇刺 61
里面 61
野@@ 61
错配 61
难以想象 61
领衔 61
首个 61
2.1 60
3.2 60
Fund 60
Pen 60
aw@@ 60
pl@@ 60
上扬 60
不远 60
与其说 60
主人 60
了不起 60
人造 60
仍旧 60
作风 60
侵略性 60
公式 60
关键点 60
其二 60
凝聚 60
切 60
到位 60
劫持 60
同比 60
国际制裁 60
国际清算银行 60
士@@ 60
存@@ 60
审计 60
容 60
尔特 60
屈辱 60
常用 60
年长 60
广受 60
引来 60
彼此之间 60
护士 60
拉大 60
捐助国 60
捷克斯洛伐克 60
摆@@ 60
整顿 60
断言 60
族群 60
旱灾 60
有所改善 60
柯@@ 60
洛杉矶 60
湾 60
演习 60
狂 60
狗 60
独立党 60
现时代 60
瓶颈 60
申根 60
相悖 60
破 60
种姓 60
移 60
空洞 60
经济损失 60
经济模型 60
缺位 60
网络攻击 60
耐药 60
联@@ 60
自利 60
莱因哈特 60
薪 60
蚊帐 60
行不通 60
许下 60
设 60
诅咒 60
诸@@ 60
谢里夫 60
赖以 60
跌@@ 60
迈@@ 60
逼近 60
金融公司 60
难以为继 60
露@@ 60
青睐 60
顺 60
食品安全 60
鸟 60
2500 59
3.6 59
82 59
Sp@@ 59
Uber 59
af@@ 59
eb@@ 59
pro@@ 59
ry 59
ya 59
一幅 59
七 59
三十 59
三项 59
不同寻常 59
东扩 59
东非 59
严苛 59
严酷 59
中东欧 59
久@@ 59
令人@@ 59
佛罗里达州 59
保有 59
偏@@ 59
免@@ 59
兴盛 59
兹@@ 59
再次发生 59
写@@ 59
决意 59
减支 59
刘晓波 59
华盛顿邮报 59
协同 59
发动机 59
发声 59
可靠性 59
合作社 59
名称 59
告@@ 59
喜@@ 59
士气 59
处@@ 59
夏 59
大有裨益 59
害 59
寄望 59
崭新 59
序列 59
开设 59
悠久 59
情报部门 59
惨遭 59
承@@ 59
护@@ 59
拘留 59
持续时间 59
挑战性 59
捷克共和国 59
撒 59
散播 59
新来者 59
无一例外 59
昂山 59
更是如此 59
更难 59
有损于 59
末期 59
核化 59
桑托斯 59
求助 59
泽@@ 59
温 59
漂亮 59
演进 59
父 59
物资 59
生产成本 59
由来已久 59
甲烷 59
症候 59
端倪 59
考@@ 59
节节 59
象征意义 59
败 59
账 59
资金来源 59
辅助 59
辖区 59
近十年 59
防 59
降级 59
高端 59
170 58
77 58
Foundation 58
Mor@@ 58
V 58
all@@ 58
ati@@ 58
iv@@ 58
ton 58
一对 58
一根 58
一百年 58
不丹 58
两国关系 58
两天 58
争辩 58
人则 58
佛@@ 58
侨汇 58
俄罗斯政府 58
保 58
充裕 58
全人类 58
公开市场 58
出生率 58
分量 58
券 58
匆忙 58
卖出 58
受害 58
叫停 58
吸@@ 58
呼吸 58
土著 58
增值 58
增加值 58
声望 58
外部性 58
多位 58
多数派 58
大亨 58
大厦 58
大权 58
奈@@ 58
威尔 58
威权 58
对照 58
尔斯 58
尼古拉 58
尼斯 58
工人阶级 58
带头 58
开辟 58
怒火 58
总有一天 58
想必 58
慢性病 58
戴@@ 58
手脚 58
抽象 58
拉里 58
拜@@ 58
拟议 58
挽回 58
推论 58
收费 58
敏感性 58
是非 58
暴力事件 58
最穷 58
有何 58
有罪 58
核威慑 58
根@@ 58
根本原因 58
橙色 58
活着 58
测 58
浮动汇率 58
火车 58
热爱 58
牢固 58
王 58
电子@@ 58
看不见 58
知情 58
研究院 58
细致 58
维奇 58
网络@@ 58
聆听 58
脚@@ 58
自由党 58
菌 58
萨尔瓦多 58
裁员 58
规格 58
越来越少 58
退休者 58
退回 58
递交 58
酒精 58
金融交易 58
银行资本 58
首任 58
首要任务 58
驯服 58
骇人听闻 58
0.4 57
Ab@@ 57
Bl@@ 57
Richard 57
SPD 57
Security 57
ass@@ 57
ment 57
par@@ 57
ud@@ 57
世界级 57
东正教 57
个州 57
丽@@ 57
之比 57
仍会 57
令其 57
佩雷斯 57
依@@ 57
做生意 57
入境 57
全都 57
内尔 57
冠军 57
列举 57
创下 57
剂量 57
剧 57
加税 57
劳动@@ 57
化肥 57
卡尼 57
卢 57
双管齐下 57
发病率 57
可控 57
向上 57
嗤之以鼻 57
在技术上 57
坚定不移 57
增幅 57
多样 57
大错特错 57
失利 57
安全感 57
宏伟 57
平均收入 57
引爆 57
当权者 57
悲剧性 57
憧憬 57
投诉 57
抗衡 57
挥之不去 57
政治@@ 57
救命 57
料 57
斯德哥尔摩 57
旗帜 57
暴力行为 57
暴君 57
更换 57
更替 57
曾几何时 57
构造 57
格里 57
武装部队 57
民营企业 57
浓度 57
深渊 57
烟 57
煽动性 57
爱国 57
牢牢 57
率先 57
环节 57
珍视 57
生于 57
留 57
盘@@ 57
科学@@ 57
类比 57
素质 57
紧急状态 57
纯 57
联 57
节制 57
苏维埃 57
蛋糕 57
要是 57
贝鲁特 57
货@@ 57
迫不及待 57
逍遥法外 57
重任 57
金融家 57
钻石 57
附加值 57
陆军 57
陈旧 57
香@@ 57
2100 56
72 56
ECB 56
Har@@ 56
ang@@ 56
一线 56
一致意见 56
一边倒 56
一颗 56
不出所料 56
世俗主义 56
举债 56
二次 56
五国 56
产妇 56
人手 56
付款 56
令@@ 56
任意 56
传说 56
伸出 56
低价 56
免不了 56
公共开支 56
养殖 56
农业部门 56
决@@ 56
出租车 56
创出 56
加之 56
反犹 56
名人 56
听证 56
哈耶克 56
困局 56
国际主义 56
地域 56
基斯 56
堡 56
塔伊 56
处罚 56
夏季 56
外衣 56
大头 56
嫌 56
学界 56
安定 56
少于 56
州政府 56
幸存者 56
应得 56
废物 56
度假 56
忠于 56
惨痛 56
战时 56
战略目标 56
手册 56
打印 56
承包商 56
护照 56
拥护 56
指明 56
排挤 56
新鲜事 56
旗号 56
既定 56
早先 56
最先 56
未可知 56
术 56
杂@@ 56
构筑 56
标@@ 56
概括 56
水泥 56
汇@@ 56
洗钱 56
派@@ 56
流域 56
牛津大学 56
状 56
瑞 56
生物@@ 56
留欧 56
癌 56
看重 56
眼睛 56
确@@ 56
秀 56
科恩 56
篇文章 56
经济秩序 56
美国股市 56
联合会 56
胜@@ 56
自我实现 56
良@@ 56
色@@ 56
英国@@ 56
茶 56
莎 56
莱 56
菲@@ 56
表决 56
表象 56
议长 56
财政收入 56
贬低 56
购 56
贯穿 56
跌幅 56
输@@ 56
迁往 56
迅猛 56
这块 56
这样的话 56
这比 56
追逐 56
量@@ 56
钢@@ 56
阿勒颇 56
雨 56
马萨诸塞州 56
驾驭 56
高级别 56
鸡@@ 56
1500 55
68 55
CCS 55
FARC 55
JCPOA 55
Larry 55
Marine 55
New 55
ence 55
ha@@ 55
一向 55
下一场 55
不管怎样 55
与@@ 55
世界@@ 55
个性化 55
乍一看 55
五岁 55
产油国 55
亲属 55
令人满意 55
伴侣 55
供应量 55
八 55
公告 55
兴@@ 55
农地 55
出口导向型 55
分散化 55
分权 55
力气 55
助力 55
十五年 55
卢布 55
及@@ 55
古代 55
史上 55
周末 55
嘴 55
回家 55
外交部 55
大增 55
大马士革 55
奈 55
套@@ 55
奥斯本 55
如下 55
媒体报道 55
宗 55
寻租 55
干细胞 55
干脆 55
志愿者 55
怎么样 55
惨重 55
才华 55
批判性 55
投机性 55
拍卖 55
政治势力 55
方方面面 55
曾@@ 55
最受 55
最差 55
期刊 55
杜绝 55
松@@ 55
松散 55
样 55
歌@@ 55
汽车@@ 55
沃尔福 55
深感 55
环保主义者 55
生活@@ 55
用词 55
真诚 55
确定性 55
种群 55
租金 55
稍@@ 55
空军 55
精神疾病 55
紧急情况 55
纠结 55
约合 55
纯@@ 55
纳粹德国 55
美国会 55
翻一番 55
自大 55
蔬菜 55
计@@ 55
谈@@ 55
负责人 55
赫尔辛基 55
过大 55
远景 55
连通性 55
迷惑 55
遗传学 55
重叠 55
闭@@ 55
限 55
集中营 55
须 55
餐 55
鲨鱼 55
麻疹 55
鼓舞人心 55
1944 54
Group 54
He@@ 54
Mark 54
Me@@ 54
Policy 54
ance 54
end@@ 54
ill@@ 54
一口气 54
不安全感 54
不容忽视 54
不懈 54
业已 54
东德 54
严重破坏 54
中日 54
中是 54
二是 54
互惠 54
但愿 54
住房价格 54
保护措施 54
候选 54
凭 54
刀 54
刊登 54
创办 54
加盟 54
博科 54
反腐败 54
发布会 54
因果关系 54
国民议会 54
国防部 54
地步 54
坚称 54
基因工程 54
墨西哥人 54
大通 54
失业问题 54
套 54
如若 54
定制 54
广阔 54
形@@ 54
徒劳 54
怀旧 54
慈善机构 54
手上 54
抓住机会 54
投资率 54
折@@ 54
抬高 54
担当 54
提炼 54
收拾 54
文化大革命 54
旁 54
无误 54
有效率 54
朝鲜战争 54
李明博 54
极力 54
枪@@ 54
某一 54
格尔 54
正试图 54
残@@ 54
每一项 54
民营 54
汇集 54
池 54
涅 54
深远影响 54
漠不关心 54
热浪 54
狭窄 54
生动 54
生机勃勃 54
生理 54
皇家 54
皇帝 54
相一致 54
相互作用 54
相连 54
知@@ 54
矿产 54
笑 54
米尔顿 54
纸币 54
维和部队 54
缔造者 54
置 54
美国参议院 54
聚会 54
背负 54
胜利者 54
若非 54
记 54
贷 54
资质 54
赶下台 54
远见卓识 54
连贯 54
遴选 54
野 54
针 54
错失 54
降息 54
集合 54
非暴力 54
领导权 54
高调 54
默@@ 54
鼓@@ 54
3.8 53
3D 53
61 53
81 53
86 53
97 53
Financial 53
est@@ 53
ik@@ 53
ä 53
ü 53
一丝 53
一切都是 53
不合时宜 53
与此相反 53
丢失 53
义@@ 53
乌里韦 53
交出 53
人中 53
从那以后 53
伊曼纽尔 53
低得 53
克里姆林 53
出对 53
分成 53
切尼 53
删除 53
制造者 53
占@@ 53
历@@ 53
原谅 53
双赢 53
受众 53
可取 53
味 53
和平共处 53
响 53
圣经 53
复国主义 53
夫斯基 53
安全部门 53
容@@ 53
岛国 53
巴尔 53
年轻一代 53
得益 53
心脏 53
想一想 53
所用 53
扎克 53
扎尔 53
打压 53
扰乱 53
抑郁 53
抛售 53
拉动型 53
挖@@ 53
支点 53
无可 53
曼谷 53
果 53
欣赏 53
毫不犹豫 53
氦 53
水果 53
河@@ 53
浓缩铀 53
涨幅 53
热点 53
热量 53
电子邮件 53
盗窃 53
礼@@ 53
社会化 53
立法机构 53
第三世界 53
简单化 53
累@@ 53
组@@ 53
罪魁 53
美欧 53
翻了一番 53
而战 53
耳@@ 53
能比 53
落到 53
著称 53
血统 53
衍生 53
西雅图 53
解放出来 53
论述 53
话@@ 53
诱使 53
谷 53
起源于 53
跟随 53
车辆 53
过热 53
酸 53
金融@@ 53
问责制 53
防治 53
阿卜杜勒 53
阿尔 53
霍尔 53
非传统 53
非营利 53
食用 53
0.6 52
2.9 52
Al 52
Bernanke 52
Di@@ 52
ICT 52
Initiative 52
ak 52
ana 52
ani 52
ell 52
ow 52
– 52
一书 52
一刀切 52
一点点 52
一间 52
三者 52
上空 52
不停 52
不可否认 52
不均 52
不景气 52
与会 52
丧命 52
中央@@ 52
中来 52
之力 52
交战 52
今年年底 52
从未有过 52
令人吃惊 52
住所 52
依 52
便@@ 52
先生 52
六 52
关塔那摩 52
内陆 52
创造条件 52
助@@ 52
助理 52
勒曼 52
印证 52
发誓 52
史@@ 52
各级 52
商业@@ 52
地理位置 52
处方 52
多余 52
夜 52
大到 52
大都 52
威尼斯 52
完整性 52
市@@ 52
开发商 52
异 52
往@@ 52
忧心 52
怒 52
想方设法 52
据@@ 52
描绘成 52
摧残 52
救世主 52
数千名 52
斯坦 52
施行 52
无国界 52
无权 52
明确指出 52
是@@ 52
显露 52
暴乱 52
月度 52
有赖于 52
服务提供商 52
望@@ 52
条例 52
枪击 52
核战争 52
档案 52
桶 52
棒 52
比不上 52
民主改革 52
流动资金 52
浮出 52
消化 52
深厚 52
渐@@ 52
火灾 52
特里谢 52
球迷 52
真实世界 52
矿业 52
立陶宛 52
笑@@ 52
米洛舍维奇 52
素季 52
繁荣期 52
维克 52
美国最高法院 52
腹泻 52
营@@ 52
蛋 52
计入 52
诺言 52
贸易@@ 52
贸易量 52
起步 52
这一@@ 52
避风港 52
野生 52
阿布 52
除@@ 52
震荡 52
静@@ 52
非正规 52
领土完整 52
马纳 52
高压 52
高潮 52
高点 52
1940 51
78 51
8000 51
Cl@@ 51
MGI 51
ant 51
if@@ 51
ni@@ 51
oc@@ 51
ue 51
一个@@ 51
一厢情愿 51
一台 51
一臂之力 51
三名 51
三方 51
上市公司 51
不住 51
不感兴趣 51
为时尚早 51
丽 51
之类 51
之苦 51
乡@@ 51
事宜 51
五月 51
亲眼目睹 51
人心 51
人来 51
他国 51
付钱 51
令人担心 51
以致于 51
俘虏 51
偏袒 51
储藏 51
元@@ 51
光荣 51
关键时刻 51
军国主义 51
几项 51
切尔诺贝利 51
利率政策 51
别提 51
刺杀 51
办 51
加权 51
劫@@ 51
十字路口 51
午餐 51
卡尔德隆 51
厄运 51
厅 51
反动 51
反叛 51
古典 51
同情心 51
向往 51
国家元首 51
坐等 51
好好 51
季莫申科 51
学费 51
安格拉 51
密切相关 51
对美 51
寻常 51
导@@ 51
尽头 51
层级 51
展现出 51
巴以 51
巴解组织 51
市场竞争 51
幻灭 51
广@@ 51
开放性 51
归属 51
彻底改变 51
征@@ 51
态 51
意想不到 51
成因 51
我会 51
戒@@ 51
执@@ 51
拉宾 51
拖欠 51
措辞 51
政治局 51
数百@@ 51
施密特 51
日本央行 51
显@@ 51
村民 51
树@@ 51
正确性 51
每人 51
波特 51
深深地 51
灯 51
烂摊子 51
牵涉 51
特工 51
痛@@ 51
研究员 51
碳氢化合物 51
私利 51
窘境 51
管理人员 51
米尔 51
线路 51
终点 51
经验丰富 51
结果表明 51
绿党 51
罪@@ 51
美孚 51
肥料 51
胜选 51
自下而上 51
薄 51
证@@ 51
诸国 51
财@@ 51
资金流 51
走到 51
过滤 51
送@@ 51
逃 51
途 51
通吃 51
逝世 51
道义 51
铁 51
铁幕 51
雅克 51
零@@ 51
非凡 51
韦 51
韩@@ 51
顶端 51
颜色 51
马拉维 51
骨@@ 51
1.25 50
1949 50
98 50
Alan 50
Front 50
Peter 50
US 50
ant@@ 50
ell@@ 50
erg@@ 50
ge 50
id 50
一个多 50
一席之地 50
一把 50
三月 50
上调 50
不行 50
两类 50
严重不足 50
个人所得税 50
丹佛 50
之行 50
乏力 50
乘客 50
云@@ 50
交接 50
人口@@ 50
从此 50
以期 50
冬天 50
出国 50
划@@ 50
制订 50
前提条件 50
割裂 50
劝说 50
医改 50
发生冲突 50
各式各样 50
名副其实 50
听证会 50
告 50
回复 50
国际标准 50
墨尔本 50
大学生 50
大跌 50
奇怪的是 50
如出一辙 50
季@@ 50
学术界 50
家乡 50
容纳 50
密切合作 50
对立面 50
尾@@ 50
巴尔干地区 50
巴菲特 50
并存 50
广袤 50
延续下去 50
引渡 50
归还 50
志@@ 50
急迫 50
急速 50
意欲 50
战前 50
所致 50
手法 50
抗争 50
拔@@ 50
数月 50
斗 50
易于 50
月@@ 50
朝鲜人 50
机密 50
李光耀 50
板球 50
标准化 50
梵蒂冈 50
楼 50
此基础 50
每日 50
民主联盟 50
民主运动 50
沿 50
渔民 50
演员 50
炫耀 50
熟知 50
版图 50
猫 50
甚微 50
用尽 50
疲劳 50
碰到 50
移@@ 50
立法机关 50
笼罩 50
筹集资金 50
纠缠 50
纪念碑 50
纳米技术 50
经济援助 50
绝不能 50
绝佳 50
继承人 50
美国共和党 50
自由@@ 50
至上 50
舞弊 50
艾森豪威尔 50
苛刻 50
英美 50
茶党 50
调解 50
谅解 50
走廊 50
这有 50
这要 50
选定 50
采 50
铲除 50
防空 50
阴@@ 50
非关税壁垒 50
面貌 50
飞行 50
餐厅 50
3.4 49
74 49
American 49
El@@ 49
Frank 49
Gu@@ 49
IF@@ 49
X 49
ch 49
ian 49
一季度 49
一门 49
上游 49
下游 49
专长 49
习 49
代名词 49
传导 49
假以时日 49
充满希望 49
克隆 49
公斤 49
六方会谈 49
六月 49
共同化 49
冗长 49
农业@@ 49
决非 49
出发点 49
出面 49
分开 49
分离主义 49
创意 49
判定 49
化身 49
友谊 49
反对票 49
口头 49
古怪 49
句 49
合情合理 49
周边国家 49
哥 49
圣诞节 49
基什 49
大大提高 49
大局 49
大本营 49
妖魔化 49
威茨 49
婚@@ 49
孤独 49
安哥拉 49
定论 49
富于 49
导师 49
少女 49
少数几个 49
尤为重要 49
就职演说 49
库什 49
开发新 49
异议 49
怀@@ 49
怀有 49
患病 49
惠@@ 49
打下 49
投入品 49
抹黑 49
拆@@ 49
摩 49
改变现状 49
改善生活 49
政治权利 49
新年 49
无与伦比 49
无可否认 49
旧有 49
显 49
权力斗争 49
果真 49
横行 49
欢呼 49
母 49
母国 49
民族@@ 49
泽 49
洋@@ 49
海水 49
深层 49
灭亡 49
灾 49
理顺 49
琳 49
画面 49
盟军 49
相关者 49
相匹配 49
相容 49
知晓 49
短时间 49
积极性 49
空气质量 49
竞相 49
组装 49
结果显示 49
缺 49
美韩 49
股票价格 49
萨卡 49
虚构 49
评分 49
评论员 49
试图用 49
负担得起 49
财政危机 49
赤贫 49
越长 49
这令 49
退缩 49
逊 49
邻邦 49
采伐 49
里拉 49
错综复杂 49
问@@ 49
陆地 49
陈词滥调 49
难以实现 49
青年人 49
预知 49
首当其冲 49
鸡 49
0.8 48
1931 48
69 48
7000 48
Am@@ 48
Man@@ 48
PPP 48
Pro@@ 48
com@@ 48
ist@@ 48
ker 48
ter@@ 48
un 48
v 48
上要 48
不如说 48
举步维艰 48
乌克兰政府 48
争斗 48
亚太 48
供水 48
俗@@ 48
保险@@ 48
先驱 48
克里斯 48
入学 48
具体@@ 48
兼职 48
内涵 48
冰盖 48
减 48
击@@ 48
分销 48
前面 48
剧增 48
医 48
医疗法 48
十八 48
博茨瓦纳 48
卡路里 48
反垄断 48
叶 48
叶@@ 48
后悔 48
启蒙 48
品@@ 48
哈特 48
商业化 48
图书馆 48
在意 48
地想 48
埋 48
太久 48
太少 48
失败者 48
奋力 48
学历 48
安全@@ 48
安德鲁 48
实物 48
寄生虫 48
少之又少 48
幼稚 48
康 48
引诱 48
微生物 48
德克萨斯州 48
怀 48
所在国 48
投降 48
拉姆斯菲尔德 48
拉斯 48
拥 48
挺 48
推崇 48
支援 48
收场 48
数百年 48
文字 48
斡旋 48
无休止 48
无可@@ 48
无用 48
既然如此 48
日益加剧 48
暴徒 48
最少 48
有所提高 48
服务@@ 48
朗@@ 48
本文 48
模棱两可 48
汗 48
法律@@ 48
泥潭 48
海量 48
涉嫌 48
涨@@ 48
湖 48
演 48
演@@ 48
现阶段 48
理想主义 48
生产能力 48
疼痛 48
病态 48
直观 48
研制 48
硬件 48
礼貌 48
神奇 48
私募 48
科夫 48
称得上 48
第三条 48
联合声明 48
联邦制 48
聘用 48
脑 48
自杀式 48
苹果公司 48
萨达特 48
街 48
设@@ 48
诚意 48
该法 48
误判 48
质@@ 48
贫民窟 48
贵 48
赦免 48
超低 48
辨别 48
遵从 48
重新启动 48
钟 48
银行业务 48
银行存款 48
问鼎 48
附@@ 48
难以@@ 48
难怪 48
非洲开发银行 48
面包 48
面目 48
音@@ 48
领先地位 48
题 48
饭碗 48
饲养 48
马尔@@ 48
高加索 48
1969 47
450 47
8.5 47
92 47
Krugman 47
NGO 47
ep@@ 47
ili@@ 47
ind@@ 47
tive 47
一整套 47
三角洲 47
下议院 47
不然 47
中央集权 47
乔@@ 47
交易员 47
交易税 47
亿多 47
付@@ 47
伊丽莎白 47
传输 47
佐 47
佛教 47
作业 47
佩 47
侵占 47
倾@@ 47
偏爱 47
充分发挥 47
兆 47
克维尔 47
公民权利 47
公职 47
其余部分 47
内心 47
军费 47
几代人 47
几百万 47
列宁 47
创 47
利夫 47
去@@ 47
县 47
叛乱分子 47
古吉拉特邦 47
向着 47
告别 47
啊 47
国家级 47
垂@@ 47
增多 47
墨西哥湾 47
外表 47
多亏 47
多极化 47
大火 47
太远 47
奥运 47
女权主义 47
实际收入 47
家庭成员 47
寄@@ 47
对外贸易 47
小孩 47
就让 47
岁月 47
延@@ 47
开创性 47
引力 47
弗朗索瓦 47
影像 47
微型 47
德斯坦 47
心里 47
怀抱 47
性格 47
意大利政府 47
戏 47
执掌 47
扫清 47
抛开 47
抵触 47
拒 47
挑战者 47
改写 47
敌视 47
散布 47
斗士 47
无法解释 47
无能为力 47
时尚 47
普遍性 47
暗淡 47
有形 47
朝向 47
本意 47
本该 47
来得 47
极为重要 47
校@@ 47
格格不入 47
民间团体 47
汇聚 47
没人会 47
派对 47
漠视 47
潜艇 47
濒临 47
灵感 47
玩弄 47
环境@@ 47
疑@@ 47
瘟疫 47
百分之@@ 47
硬币 47
祖@@ 47
章程 47
策 47
管辖权 47
糖@@ 47
纳米比亚 47
经济指标 47
给@@ 47
维持现状 47
综合性 47
缩@@ 47
罗兴亚人 47
美国式 47
美金 47
老师 47
能以 47
脱颖而出 47
自给自足 47
自负 47
至此 47
色情 47
艾 47
英法 47
著 47
衡量标准 47
规@@ 47
警觉 47
诊 47
较之 47
辩 47
达赖喇嘛 47
远不止 47
银行@@ 47
阳性 47
院校 47
霍梅尼 47
非常低 47
预定 47
颓势 47
首选 47
香烟 47
马琳 47
3.7 46
CDS 46
FOMC 46
Investment 46
MENA 46
Union 46
United 46
co 46
ib@@ 46
les 46
our@@ 46
ub@@ 46
uc@@ 46
ug@@ 46
und@@ 46
一时期 46
一艘 46
下达 46
东亚地区 46
两院 46
为数 46
之情 46
交谈 46
人口比例 46
什维利 46
令人遗憾 46
众议员 46
伪 46
伯尼 46
位@@ 46
余下 46
信任度 46
公立学校 46
六十年 46
农药 46
几近 46
别说 46
前辈 46
劳伦斯 46
劳动收入 46
勾勒 46
协调一致 46
历史@@ 46
厘清 46
参拜 46
可卡因 46
可预测性 46
同性 46
国民大会 46
国际舞台 46
坎@@ 46
埋@@ 46
增加收入 46
复原 46
大额 46
太平洋地区 46
宽@@ 46
密度 46
密特朗 46
尸体 46
尾 46
尾声 46
局外人 46
屋 46
属性 46
布达佩斯 46
希尔 46
征 46
得知 46
忽略不计 46
怎样才能 46
怒@@ 46
思 46
情境 46
扎伊 46
拜登 46
挺身而出 46
收成 46
放到 46
教室 46
敢 46
斯洛文尼亚 46
新疆 46
旗下 46
无形 46
有太多 46
格斯 46
欢欣鼓舞 46
欧安组织 46
欲@@ 46
毒性 46
民主@@ 46
汉堡 46
汉森 46
污点 46
没法 46
泛美 46
波斯 46
泰米尔 46
活跃分子 46
流传 46
潮@@ 46
特纳 46
独立国家 46
王室 46
现实情况 46
用到 46
痕迹 46
监察 46
直截了当 46
看好 46
看清 46
矿@@ 46
破产法 46
礼 46
稀少 46
第三国 46
第六 46
红 46
纽带 46
缺@@ 46
考试 46
联储 46
胃口 46
腰包 46
臃肿 46
自治权 46
菲利普 46
菲尔 46
蒙蔽 46
誓言 46
认证 46
许@@ 46
诋毁 46
话语 46
诱惑力 46
谷物 46
贵@@ 46
走进 46
赶 46
跳 46
载 46
这段 46
迪克 46
退步 46
逆@@ 46
部@@ 46
都@@ 46
问问 46
阵痛 46
阿布哈兹 46
陌生人 46
隔@@ 46
集结 46
雕像 46
零排放 46
音 46
领 46
餐馆 46
马其顿 46
马哈茂德 46
骨 46
1900 45
Kh@@ 45
PiS 45
ary 45
eh@@ 45
ens@@ 45
ph@@ 45
一大批 45
一无所知 45
上层 45
下定决心 45
不成比例 45
丹尼尔 45
乐意 45
互不 45
五分 45
五角大楼 45
仰仗 45
价格下降 45
任何一方 45
伊斯兰堡 45
保护环境 45
停火协议 45
充@@ 45
先知 45
写作 45
军演 45
冲销 45
出口商品 45
出自 45
前身 45
剧@@ 45
功 45
医疗系统 45
单身 45
去除 45
发展@@ 45
发端 45
受控 45
受灾 45
圣保罗 45
圣彼得堡 45
在位 45
地区冲突 45
场景 45
坏账 45
大佬 45
如是说 45
宁 45
定性 45
小镇 45
尼日尔 45
展@@ 45
工作组 45
巴拿马 45
年期 45
并用 45
开办 45
开脱 45
开销 45
当地人 45
影@@ 45
恒@@ 45
惊喜 45
惯性 45
懂得 45
战略伙伴 45
战败 45
抵扣 45
拉美地区 45
换成 45
排队 45
接壤 45
撒@@ 45
撕毁 45
效用 45
教导 45
数万 45
数千亿美元 45
文本 45
文盲 45
斯塔 45
方兴未艾 45
无风险 45
时不时 45
最低点 45
服务提供者 45
未曾 45
核弹头 45
核聚变 45
欧洲法院 45
歧视性 45
民主人士 45
民主派 45
港@@ 45
灵 45
牲畜 45
特有 45
狂欢 45
献@@ 45
王子 45
现金流 45
生物医学 45
甩卖 45
甲@@ 45
皇@@ 45
社会科学 45
空前 45
第二年 45
管治 45
纽@@ 45
维生素 45
缔约国 45
美分 45
美国国务院 45
耶鲁大学 45
联军 45
肤浅 45
艺术品 45
苦 45
荒@@ 45
莫桑比克 45
莱恩 45
莱特 45
萨德 45
西尔 45
见效 45
詹 45
许可证 45
评@@ 45
贩卖 45
贫富差距 45
走强 45
趋于 45
足迹 45
身亡 45
达尔 45
过量 45
还远 45
迟早会 45
逼@@ 45
邻近 45
重拾 45
重蹈覆辙 45
金斯 45
钻井 45
铜 45
长足 45
阵@@ 45
降雨 45
集中精力 45
雪 45
马尔代夫 45
马拉 45
3.@@ 44
750 44
Donald 44
Kenneth 44
Q@@ 44
Social 44
ill 44
ing@@ 44
ke 44
ner 44
res@@ 44
um 44
ure 44
一副 44
上个世纪 44
不时 44
不清 44
与众不同 44
两百万 44
中为 44
中印 44
之声 44
事例 44
仗 44
代孕 44
代议制 44
以邻为壑 44
伊斯兰共和国 44
公决 44
共同之处 44
列岛 44
利弊 44
刻 44
劳动法 44
勾@@ 44
区别对待 44
升至 44
单靠 44
卡车 44
即时 44
发电量 44
取得胜利 44
取暖 44
叛@@ 44
古兰经 44
另一边 44
司法部 44
同伴 44
后退 44
听从 44
周刊 44
咄咄逼人 44
哈塔米 44
回流 44
国家队 44
国旗 44
圈子 44
在职 44
城市居民 44
基准利率 44
大行其道 44
天安门广场 44
太低 44
奉@@ 44
奴隶制 44
如能 44
宁可 44
安娜 44
客@@ 44
左@@ 44
巨 44
己 44
市场@@ 44
年化 44
弄@@ 44
弗朗西斯 44
当天 44
性骚扰 44
悲@@ 44
惟其 44
战事 44
所作 44
抱负 44
抹 44
押 44
拉姆 44
拿不出 44
控 44
操@@ 44
收效甚微 44
放开 44
教育@@ 44
斯特恩 44
既@@ 44
晚上 44
普什图 44
服@@ 44
核力量 44
横跨 44
正是如此 44
正确方向 44
正轨 44
此项 44
死胡同 44
每隔 44
求助于 44
洲 44
潜@@ 44
煽动者 44
父辈 44
犯罪行为 44
皇室 44
相形见绌 44
眼球 44
着重于 44
石 44
研究@@ 44
社会学家 44
禁 44
离任 44
移植 44
穆特 44
管用 44
精诚合作 44
经济周期 44
维基 44
绿色革命 44
背负着 44
腿 44
萌芽 44
蒙 44
蓝@@ 44
虎@@ 44
行为准则 44
行之有效 44
西伯利亚 44
诸如此类 44
越南战争 44
辈 44
辍学 44
这篇 44
遣返 44
避孕 44
重大进展 44
重重的 44
钞 44
铺平道路 44
销 44
隐蔽 44
雷杰普 44
非盟 44
面对面 44
预防措施 44
麦加 44
0.9 43
1932 43
2.0 43
6.7 43
At@@ 43
Bank 43
EC@@ 43
Friedman 43
Gordon 43
Research 43
age 43
com 43
一则 43
一刻 43
一月 43
一级 43
不谈 43
东亚国家 43
东欧地区 43
中情局 43
习俗 43
争吵 43
亚洲各国 43
亚洲开发银行 43
人格 43
亿美金 43
今时 43
伊拉克政府 43
伤及 43
信誓旦旦 43
做会 43
像@@ 43
免疫系统 43
内政部长 43
冰 43
刚@@ 43
到访 43
前来 43
加尔 43
动武 43
北大西洋 43
十年间 43
半个 43
半年 43
南极 43
卫生@@ 43
参观 43
发掘 43
受到限制 43
可再生 43
告诫 43
和平解决 43
哀叹 43
哈里 43
商业活动 43
固执 43
国际法庭 43
坏@@ 43
境外 43
备 43
外交事务 43
外人 43
大洲 43
天空 43
女子 43
始@@ 43
媒介 43
对外部 43
尤科斯 43
尼赫鲁 43
年纪 43
弄清楚 43
式微 43
弗 43
归于 43
必定会 43
忍@@ 43
忙 43
怀着 43
恰逢 43
战斗机 43
扩@@ 43
挑@@ 43
损伤 43
摄入 43
撼动 43
攻@@ 43
政治局势 43
文献 43
料@@ 43
斯坦福大学 43
施以 43
旁@@ 43
曲 43
曼彻斯特 43
有钱 43
机会主义 43
材 43
极端化 43
果@@ 43
架@@ 43
某位 43
样板 43
梦@@ 43
模拟 43
次数 43
比前 43
民事 43
民意测验 43
民粹 43
浮@@ 43
消@@ 43
温暖 43
牙@@ 43
瑟 43
生命危险 43
田@@ 43
病原体 43
看齐 43
真心 43
着实 43
知 43
石油市场 43
碳化 43
社 43
神经@@ 43
离职 43
离谱 43
科学技术 43
科菲 43
穆兄会 43
穿着 43
童婚 43
第一季度 43
第一年 43
签字 43
管理机构 43
粮食产量 43
红色 43
置之不理 43
老生常谈 43
耗时 43
自然@@ 43
自然选择 43
自豪感 43
自贸 43
良性循环 43
若干年 43
莱斯 43
衣@@ 43
被占领土 43
袭 43
裁量 43
要不是 43
要说 43
计划生育 43
该州 43
调节税 43
财政纪律 43
账单 43
贸易额 43
费舍尔 43
赶@@ 43
路德 43
软@@ 43
迄今 43
还款 43
还给 43
迷恋 43
遥不可及 43
阐明 43
阿亚图 43
阿姆斯特丹 43
集中化 43
需@@ 43
震@@ 43
露 43
非常简单 43
颁发 43
鲍里斯 43
鸽派 43
麦 43
1956 42
1977 42
2022 42
2035 42
4.3 42
79 42
91 42
G8 42
III 42
enti@@ 42
ol 42
ti 42
ç 42
七十年 42
万年 42
不明 42
不结盟运动 42
丑陋 42
东北部 42
两起 42
为生 42
之高 42
乘@@ 42
交往 42
人生 42
亿英镑 42
仇视 42
伏@@ 42
会员 42
但会 42
供电 42
信息@@ 42
全面禁止 42
公寓 42
兰德 42
兼顾 42
出卖 42
刀@@ 42
副@@ 42
勃 42
勇@@ 42
十分之一 42
参照 42
可不 42
台@@ 42
合乎 42
合规 42
哈维尔 42
哥@@ 42
喘息 42
喷@@ 42
国与国 42
大打折扣 42
天下 42
好坏 42
好斗 42
子弹 42
它@@ 42
安保 42
定居者 42
尖端 42
局@@ 42
岛上 42
已成 42
巴塞罗那 42
巴尔干半岛 42
市中心 42
带入 42
常说 42
干净 42
平等性 42
床 42
往来 42
思想@@ 42
怨 42
总干事 42
息@@ 42
所起 42
执照 42
批 42
投资人 42
抛@@ 42
抢@@ 42
抵免 42
拉马 42
推波助澜 42
撞@@ 42
支 42
改革开放 42
放慢 42
政府首脑 42
数不清 42
数十@@ 42
新闻@@ 42
春季 42
景 42
更佳 42
有所作为 42
期待已久 42
本世纪末 42
某项 42
栖息地 42
校 42
毁坏 42
渐行 42
漂@@ 42
火上浇油 42
烧@@ 42
熟练 42
犯有 42
献金 42
率@@ 42
环境影响 42
瓦鲁法 42
疏离 42
病症 42
直接参与 42
研讨会 42
秉承 42
称呼 42
第十@@ 42
类@@ 42
粉丝 42
繁琐 42
纳粹主义 42
纸 42
经济总量 42
经验教训 42
维持下去 42
置@@ 42
考 42
职业培训 42
联合国儿童基金会 42
肥沃 42
育儿 42
自行 42
菲尔德 42
萨利赫 42
被告 42
裁@@ 42
设计师 42
诱导 42
谈判代表 42
谣言 42
贝尔 42
购@@ 42
资@@ 42
软化 42
辛 42
达卡 42
违法 42
逃往 42
逆 42
逐出 42
通行 42
遗留问题 42
邮件 42
鄙视 42
金融城 42
钢 42
长期趋势 42
隆 42
面纱 42
顺@@ 42
领海 42
鲁棒 42
黎巴嫩真主党 42
黑色 42
默德 42
&gt; 41
&lt; 41
1938 41
1953 41
1961 41
230 41
ACA 41
Bernie 41
CBO 41
Cor@@ 41
De@@ 41
Growth 41
Mas@@ 41
Nor@@ 41
Stability 41
Tr@@ 41
UN@@ 41
anc@@ 41
ations 41
ce 41
comm@@ 41
dis@@ 41
im 41
ta 41
一千@@ 41
一枚 41
万灵丹 41
上网 41
不见 41
个人@@ 41
临界点 41
乍 41
九年 41
亚的斯亚贝巴 41
体会 41
体育@@ 41
倍感 41
全额 41
公顷 41
准入 41
出资人 41
划算 41
创始 41
判处 41
劳 41
医学院 41
十大 41
卡梅隆 41
印巴 41
参与度 41
口中 41
可耻 41
号召力 41
吃惊 41
吹@@ 41
哥伦比亚大学 41
哥伦比亚革命武装力量 41
唱 41
国民党 41
国际象棋 41
地狱 41
地铁 41
场@@ 41
壳牌 41
太小 41
奥尔默特 41
妄想 41
实际汇率 41
密 41
导 41
小麦 41
尖阁 41
就范 41
岸 41
巴希尔 41
布宜诺斯艾利斯 41
庆幸 41
庭 41
延期 41
弊大于利 41
彻头彻尾 41
得当 41
性别歧视 41
憎恶 41
成败 41
把戏 41
护 41
拆除 41
拉拢 41
挤@@ 41
捆绑 41
据点 41
插手 41
摸@@ 41
撕裂 41
改观 41
政治犯 41
政治经济学 41
政界人士 41
无须 41
景@@ 41
有余 41
有失 41
有幸 41
有近 41
本届 41
朱@@ 41
板上钉钉 41
构架 41
查理 41
核心作用 41
植入 41
注射 41
洁净 41
津贴 41
济@@ 41
渡过 41
激@@ 41
烧 41
煤电 41
特例 41
用品 41
画@@ 41
皆 41
直言不讳 41
相差 41
看一看 41
着力 41
稍微 41
突发 41
第二季度 41
纽约州 41
终 41
绝对多数 41
罗德里克 41
羊 41
职场 41
股@@ 41
自尊 41
舍@@ 41
船@@ 41
芯片 41
英尺 41
蒙羞 41
西亚 41
试 41
课以 41
课堂 41
邮@@ 41
重生 41
金融界 41
销售额 41
间@@ 41
陈@@ 41
降低成本 41
降幅 41
除去 41
零售业 41
零碳 41
零部件 41
面值 41
馆 41
马尼拉 41
黑帮 41
2040 40
83 40
93 40
Alliance 40
BBC 40
Gre@@ 40
Movement 40
Per@@ 40
Trade 40
Trans@@ 40
ber@@ 40
ek 40
ez 40
ies 40
j 40
of@@ 40
ur 40
è 40
一地 40
一大步 40
一封 40
一日 40
不上 40
不小 40
不屑一顾 40
乃 40
之时 40
之梦 40
之策 40
二级 40
交易者 40
人有 40
仅@@ 40
以牙还牙 40
伊核 40
优于 40
伤口 40
低调 40
何在 40
信赖 40
借债 40
倾销 40
儒家 40
克林顿政府 40
共同市场 40
其时 40
准确性 40
几家 40
出局 40
分红 40
列车 40
功劳 40
劲 40
南奥塞梯 40
卫生保健 40
即刻 40
双重标准 40
发作 40
发送 40
同类 40
周年纪念 40
唯恐 40
商定 40
喜爱 40
囊括 40
基调 40
增添 40
多出 40
多极 40
大力支持 40
大师 40
夺@@ 40
契机 40
孤@@ 40
定为 40
导演 40
射 40
尼克 40
履新 40
工薪阶层 40
市场机制 40
平行 40
幸存 40
广岛 40
废止 40
得分 40
态@@ 40
悄然 40
惧怕 40
惨@@ 40
扣 40
折合 40
担@@ 40
拍摄 40
拱手 40
拿@@ 40
捷径 40
接手 40
控制@@ 40
推到 40
携带者 40
摩苏尔 40
改 40
放下 40
敞口 40
文官 40
无害 40
无稽之谈 40
早前 40
昏@@ 40
普罗 40
曲@@ 40
曼努埃尔 40
木 40
柔性 40
桑 40
梅纳德 40
欢@@ 40
正以 40
正像 40
歪曲 40
污染物 40
沃尔夫 40
沿海地区 40
洛夫 40
浓厚 40
海洋法 40
深思 40
渐进式 40
渐远 40
滥@@ 40
灵@@ 40
炮 40
熊 40
犯人 40
猛增 40
由谁来 40
电动车 40
留住 40
相媲美 40
相适应 40
省@@ 40
碰@@ 40
祈祷 40
秘诀 40
租@@ 40
税后 40
突显出 40
第三季度 40
等量齐观 40
米哈伊尔 40
粉碎 40
繁@@ 40
缠身 40
缴税 40
罚 40
美伊 40
聚@@ 40
腾 40
自卫队 40
议价 40
诸 40
谋 40
谋生 40
贝尔斯 40
责 40
贸易条件 40
资源@@ 40
载体 40
过低 40
进化论 40
逊尼 40
递减 40
通勤 40
逼 40
遗留 40
遮@@ 40
配 40
配备 40
里约热内卢 40
铁腕 40
镜头 40
阿布扎比 40
陈光诚 40
险@@ 40
难以获得 40
难民潮 40
难逃 40
雄厚 40
露面 40
非银行 40
顿巴斯 40
饮料 40
鲍@@ 40
麻@@ 40
鼠 40
1946 39
1951 39
1957 39
87 39
Agreement 39
Charles 39
Education 39
Em@@ 39
Ex@@ 39
Ger@@ 39
Sanders 39
able 39
amb@@ 39
ement 39
ina 39
ks 39
los 39
one 39
一例 39
一党 39
一愿景 39
一流 39
七十年代 39
七国集团 39
上次 39
不得而知 39
不相容 39
不诚实 39
不高 39
丝@@ 39
严密 39
中华人民共和国 39
中所起 39
之火 39
之谜 39
乌兹别克斯坦 39
乌斯 39
二十五年 39
亏@@ 39
五年计划 39
人文 39
人民银行 39
仇 39
介绍 39
仓 39
优雅 39
传言 39
低劣 39
侵袭 39
保持警惕 39
信息时代 39
兀鹫 39
克林 39
公共交通 39
六大 39
兴旺 39
内幕 39
再次出现 39
军事手段 39
冲 39
冲突地区 39
冲绳 39
净@@ 39
出乎意料 39
出口量 39
分工 39
分支机构 39
判 39
加勒比 39
卡尔德 39
厚 39
厚@@ 39
可惜 39
台风 39
史蒂芬 39
右倾 39
司法独立 39
后盾 39
后裔 39
君主制 39
启示 39
启蒙运动 39
唐@@ 39
回忆录 39
因特网 39
国家主义 39
国家银行 39
国有银行 39
地质 39
塔克 39
壮观 39
太晚 39
好几个 39
完@@ 39
实际行动 39
审讯 39
害@@ 39
宽泛 39
巨变 39
巴伐利亚 39
幕僚 39
幸免 39
幼@@ 39
弃 39
当政 39
得逞 39
忏悔 39
急转直下 39
总支出 39
恶魔 39
房利美 39
房贷 39
打下基础 39
承担风险 39
抚养 39
掠夺性 39
握有 39
收容 39
政策方针 39
新奥尔良 39
新建 39
新闻业 39
无穷无尽 39
明晰 39
昨天 39
智 39
更何况 39
替代性 39
杜鲁门 39
杰 39
柴油 39
格言 39
止@@ 39
残余 39
民权 39
氢 39
水库 39
汀 39
沙拉 39
法郎 39
注 39
流言 39
海关 39
海牙 39
漏 39
濒危 39
热潮 39
热衷 39
特里 39
玷污 39
甚于 39
生机 39
生根 39
电台 39
电报 39
病菌 39
真能 39
碳@@ 39
票数 39
窃听 39
紧缺 39
纷争 39
统@@ 39
绥靖 39
综合症 39
缘 39
美国众议院 39
老百姓 39
肯@@ 39
肯尼斯 39
胎儿 39
胸@@ 39
自然环境 39
自然界 39
荷兰人 39
获@@ 39
补 39
西奈 39
观@@ 39
谁知 39
质问 39
赛克斯 39
超市 39
越久 39
越高 39
路易斯 39
过后 39
连锁 39
遍及 39
部件 39
酒@@ 39
里奥 39
镜 39
问责性 39
阳@@ 39
阴谋论 39
隔绝 39
难堪 39
面孔 39
顾 39
预兆 39
题为 39
风力 39
黑手党 39
0.0@@ 38
270 38
8.@@ 38
AAA 38
Af@@ 38
CPI 38
Mat@@ 38
Mc@@ 38
Pl@@ 38
Ros@@ 38
au 38
der 38
ef@@ 38
ly 38
ons 38
per@@ 38
ran@@ 38
ting 38
ver@@ 38
三人 38
三条 38
三角 38
三重 38
不值一提 38
不妨 38
为所欲为 38
乏味 38
乘坐 38
书面 38
二十多年 38
人人平等 38
以求 38
会否 38
保护@@ 38
俾斯麦 38
健@@ 38
先后 38
全球战略 38
公共资源 38
其父 38
军事援助 38
冠@@ 38
凡@@ 38
出新 38
分界线 38
利润率 38
刺@@ 38
前列 38
医@@ 38
十八世纪 38
卡恩 38
古希腊 38
另一@@ 38
同化 38
吸取教训 38
唤醒 38
商讨 38
国际刑警组织 38
图谋 38
圈@@ 38
圣 38
地址 38
地要 38
基督教民主联盟 38
多极世界 38
多种多样 38
天安门 38
天性 38
失序 38
奖学金 38
奥斯@@ 38
女生 38
威力 38
孕妇 38
安心 38
宾@@ 38
尘埃落定 38
居然 38
嵌入 38
工业国 38
差@@ 38
市场需求 38
帐户 38
帮@@ 38
平均值 38
并于 38
庇隆 38
异教徒 38
归属感 38
快要 38
急 38
性价比 38
恶果 38
想像 38
房间 38
所受 38
打出 38
扫@@ 38
找@@ 38
把@@ 38
投资额 38
折 38
报复性 38
抱@@ 38
拉古 38
拉合尔 38
拍@@ 38
招 38
拥护者 38
捐@@ 38
捕鱼 38
掌 38
排外 38
排序 38
接班人 38
接过 38
摇摆不定 38
撤@@ 38
操控 38
故 38
斯托克 38
施展 38
普林斯顿大学 38
有朝一日 38
杯 38
杰里米 38
某国 38
核能力 38
棉花 38
楼@@ 38
欧后 38
武断 38
毫无用处 38
江 38
沉重打击 38
波兰政府 38
洪灾 38
派驻 38
流派 38
添@@ 38
湿地 38
灰@@ 38
熊市 38
电气化 38
电池板 38
电站 38
登陆 38
皮科 38
矿物 38
社@@ 38
祖父 38
祖玛 38
科技进步 38
科特迪瓦 38
科米 38
稀释 38
稍 38
第一任 38
美印 38
羞耻 38
翼 38
老挝 38
老鼠 38
胆@@ 38
脱碳 38
自救 38
艘 38
节点 38
英联邦 38
荡 38
萨赫勒 38
蒙上 38
薪资 38
补@@ 38
补救 38
袭击者 38
规管 38
警醒 38
训练有素 38
议 38
议席 38
证券交易 38
诠释 38
诱发 38
谈不上 38
象@@ 38
责任感 38
走过 38
超凡 38
趋向 38
踏上 38
身着 38
转化成 38
转变成 38
软性 38
进度 38
违@@ 38
连同 38
逼迫 38
那段 38
郊区 38
里德 38
重工业 38
镇 38
长寿 38
问题所在 38
防线 38
露出 38
非常复杂 38
靠@@ 38
骗 38
190 37
1936 37
1963 37
30@@ 37
4.@@ 37
71 37
Agency 37
CSU 37
Dodd 37
Fre@@ 37
Gr@@ 37
IBM 37
Jeremy 37
Mario 37
Par@@ 37
Pr@@ 37
Stephen 37
ess@@ 37
ri 37
si 37
sky 37
up@@ 37
一去不返 37
一派 37
三世 37
上半叶 37
不光 37
不曾 37
不经意 37
不难想象 37
专制主义 37
两条 37
个人主义 37
中方 37
中长期 37
丰裕 37
举个 37
乔 37
乙醇 37
二月 37
人大 37
人民@@ 37
代码 37
仪 37
价格@@ 37
价格水平 37
任职期间 37
休假 37
传 37
伪装 37
低级 37
佛山 37
佩林 37
使人 37
依存 37
依照 37
假期 37
假消息 37
充实 37
公民投票 37
兴奋剂 37
兼@@ 37
军舰 37
军费开支 37
几内亚 37
几十@@ 37
出兵 37
切实可行 37
刑 37
利马 37
刻@@ 37
副产品 37
加码 37
务 37
动向 37
努 37
包袱 37
化疗 37
单元 37
单单 37
南辕北辙 37
卡拉 37
卢卡申科 37
历届 37
友善 37
双边协议 37
口袋 37
只得 37
各异 37
同志 37
名词 37
味道 37
响亮 37
商务 37
喀布尔 37
嘲讽 37
回想 37
国在 37
图斯 37
土崩瓦解 37
在家 37
地表 37
堪 37
塞尔 37
境 37
增兵 37
大惊小怪 37
太迟 37
失落 37
奖赏 37
姊妹 37
姗姗来迟 37
威望 37
学说 37
安卡拉 37
宝@@ 37
容许 37
小岛 37
尤先科 37
屋主 37
工人党 37
布拉@@ 37
平方公里 37
并不认为 37
并购 37
幼儿 37
庆贺 37
庇护所 37
序幕 37
应运而生 37
延后 37
强制执行 37
归来 37
影 37
总书记 37
恨 37
恶行 37
想当然 37
慈善家 37
戏剧 37
所持 37
扎根 37
投射 37
投票箱 37
拉开 37
换来 37
接到 37
搜索引擎 37
教益 37
敲响 37
文职 37
断层 37
新教 37
无望 37
无核 37
明日黄花 37
更有甚者 37
最高层 37
有个 37
来源国 37
案@@ 37
欧文 37
毛里求斯 37
水准 37
永久化 37
泥@@ 37
漫画 37
激化 37
热心 37
燃起 37
版权 37
牵@@ 37
牵制 37
由此可见 37
男 37
疲弱 37
百姓 37
百年 37
监督者 37
相对来说 37
确诊 37
私下里 37
租 37
童 37
笔@@ 37
签名 37
粉饰 37
素@@ 37
索契 37
紧紧 37
纳瓦尔 37
纳赛尔 37
纺织品 37
组织者 37
维克托 37
美俄 37
联合体 37
育 37
胁迫 37
脱盟 37
自恋 37
航@@ 37
芝加哥大学 37
花旗集团 37
英文 37
营养@@ 37
虽 37
行政长官 37
裙带 37
西撒哈拉 37
觉@@ 37
让给 37
说来 37
诺基亚 37
财力 37
贫困家庭 37
跟着 37
辆 37
辞去 37
这起 37
进出口 37
透过 37
速@@ 37
遭@@ 37
避难所 37
都柏林 37
酷刑 37
销售@@ 37
长度 37
闹 37
附属 37
陌生 37
难以预测 37
非洲联盟 37
革命@@ 37
骗子 37
高地 37
黑猩猩 37
默 37
1958 36
1983 36
220 36
4.6 36
96 36
AIG 36
Change 36
Ed@@ 36
Goals 36
IP@@ 36
NA@@ 36
Pacific 36
Project 36
Sustainable 36
Wat@@ 36
William 36
X@@ 36
ann@@ 36
ew@@ 36
ion 36
ise 36
ist 36
oh@@ 36
oll@@ 36
ta@@ 36
万亿日元 36
下限 36
不同之处 36
不明朗 36
不起作用 36
专属 36
世界性 36
两点 36
个人电脑 36
中小型 36
九月 36
二十 36
井@@ 36
人身 36
今@@ 36
任上 36
任性 36
传闻 36
依赖性 36
修宪 36
克里斯蒂娜 36
全年 36
八月 36
公报 36
公海 36
其核 36
内向 36
决不 36
况 36
净值 36
凯末尔 36
凶@@ 36
分数 36
分析表明 36
前瞻 36
加倍 36
努钦 36
劳尔 36
势在必行 36
十一月 36
卫@@ 36
厂商 36
反作用 36
反倒 36
反省 36
受人 36
可见一斑 36
同道 36
哪种 36
唯@@ 36
喀拉拉邦 36
嘴@@ 36
园 36
国营 36
国际性 36
圆 36
坑 36
埃里克 36
塔吉克斯坦 36
塔纳 36
多方面 36
失当 36
奖@@ 36
委 36
安全局 36
宗教@@ 36
宗派主义 36
审@@ 36
已达 36
平壤 36
并发症 36
广泛支持 36
库尔德斯坦 36
开会 36
录像 36
形态 36
彩票 36
心存 36
必 36
急性 36
恩怨 36
恩斯 36
所言 36
打断 36
打赢 36
投票者 36
投资@@ 36
拒之门外 36
挂 36
损@@ 36
摇@@ 36
擦@@ 36
支离破碎 36
效 36
敬仰 36
数百名 36
新晋 36
无奈 36
无穷 36
明目张胆 36
更近 36
李 36
校长 36
核技术 36
永不 36
沙里夫 36
没人能 36
洲际 36
海湾合作委员会 36
液化 36
深知 36
深重 36
混为一谈 36
潘@@ 36
热钱 36
煤@@ 36
牛市 36
率领 36
瓦尔斯 36
电能 36
留出 36
疗效 36
病患 36
的黎波里 36
益 36
相左 36
瞄准 36
礁 36
示威游行 36
社会主义者 36
神学 36
神权 36
福利制度 36
稳定下来 36
穆加贝 36
空军基地 36
笑话 36
笨拙 36
第三支 36
第四@@ 36
筛选 36
精神@@ 36
紧急状况 36
紧随其后 36
练 36
经济过热 36
老兵 36
聚 36
股份公司 36
自行车 36
航行 36
良心 36
荒唐 36
葬礼 36
蒙特利尔 36
藐视 36
虎 36
蚕食 36
行为人 36
解密 36
认同感 36
访 36
证词 36
该书 36
该市 36
该行 36
诺贝尔 36
象棋 36
贝克尔 36
财务@@ 36
贫富 36
赫尔 36
走得 36
起因 36
跨@@ 36
过少 36
运河 36
还债 36
这番话 36
连锁反应 36
选举人 36
途中 36
里斯 36
重新@@ 36
量子 36
链条 36
阿曼 36
难免会 36
雄@@ 36
非盈利 36
革命者 36
顽疾 36
飞地 36
饲料 36
驻@@ 36
高峰期 36
鬼 36
黎明 36
1939 35
1964 35
1965 35
Capital 35
Committee 35
Convention 35
FSB 35
HPV 35
MBS 35
Milton 35
Treaty 35
art 35
ency 35
ers@@ 35
ler 35
ro 35
sh@@ 35
te@@ 35
一千万 35
一处 35
一己 35
一视同仁 35
一败涂地 35
下一阶段 35
下周 35
世界人权宣言 35
丝 35
丢 35
两件事 35
中亚国家 35
丹尼 35
为时已晚 35
主观 35
乳@@ 35
互信 35
人行 35
人马 35
伊尔 35
休@@ 35
传奇 35
住@@ 35
体制改革 35
你@@ 35
使用暴力 35
使用量 35
保持一致 35
偿付能力 35
傀儡 35
光彩 35
全力支持 35
内部事务 35
再生 35
军事演习 35
准@@ 35
减产 35
几十个 35
分裂主义 35
制药业 35
前期 35
加州大学 35
十月 35
协@@ 35
博士 35
卡门 35
反其道而行之 35
取胜 35
受限制 35
另@@ 35
合作项目 35
否决票 35
周永康 35
命题 35
哈雷 35
哦 35
唤起 35
商学院 35
喊 35
图片 35
地下水 35
坐拥 35
堆 35
外部环境 35
大崩盘 35
大街 35
大都市 35
委内瑞拉人 35
子虚乌有 35
存有 35
学习@@ 35
安理会常任理事国 35
家常便饭 35
尼尔 35
屈@@ 35
屏障 35
展 35
巴切 35
帐 35
弱者 35
弹药 35
微笑 35
心安理得 35
心理@@ 35
念 35
怀疑论 35
总成本 35
悲观主义 35
战机 35
扩充 35
扪心自问 35
批@@ 35
抢 35
拉丁 35
拍 35
拥有者 35
持平 35
换句话 35
接收国 35
效@@ 35
敏锐 35
教练 35
新思维 35
方略 35
旅@@ 35
旅行者 35
时说 35
易事 35
显现出来 35
景气 35
智商 35
曾任 35
未雨绸缪 35
末@@ 35
杜 35
杰弗里 35
极强 35
检讨 35
横扫 35
止 35
正当性 35
比其 35
毕@@ 35
民心 35
水坝 35
汇报 35
江@@ 35
汹涌 35
汽车业 35
洛克 35
流产 35
满意度 35
滥用权力 35
烙印 35
热带雨林 35
燃@@ 35
生命线 35
由前 35
电力供应 35
疑惑 35
直 35
直指 35
相辅相成 35
磁@@ 35
称赞 35
税款 35
窥 35
第五@@ 35
等候 35
筹@@ 35
米切尔 35
繁殖 35
继承者 35
缺席 35
美式 35
羡慕 35
考虑一下 35
耕地 35
耳 35
耳熟能详 35
职员 35
聘请 35
肌肉 35
能令 35
能源技术 35
脸@@ 35
舍 35
舒@@ 35
芬 35
花掉 35
获胜者 35
蒸发 35
蓄意 35
虚张声势 35
衣服 35
表现出色 35
西班牙人 35
要务 35
要数 35
规模较 35
解决不了 35
许多年 35
调查结果 35
贫困地区 35
赤@@ 35
跑@@ 35
踢 35
软着陆 35
载@@ 35
较量 35
过快 35
追寻 35
适宜 35
道义上 35
配给 35
金敬姬 35
铺@@ 35
链@@ 35
销售税 35
锻炼 35
闻 35
际 35
陈水扁 35
隆@@ 35
随即 35
雅尔 35
集中度 35
震慑 35
额@@ 35
饿死 35
首批 35
1941 34
4.2 34
4.8 34
89 34
Bu@@ 34
Cas@@ 34
ES@@ 34
Fl@@ 34
Piketty 34
Plan 34
SC@@ 34
We@@ 34
arg@@ 34
ari 34
ee 34
eli@@ 34
ens 34
iPhone 34
ical 34
ut 34
一举 34
一大堆 34
一如既往 34
一年一度 34
一票 34
不可分割 34
不符 34
不能允许 34
不言自明 34
专栏作家 34
东耶路撒冷 34
两地 34
之子 34
之死 34
乔纳森 34
书中 34
买房 34
产值 34
仅凭 34
仓促 34
付诸实施 34
令人咋舌 34
偏远地区 34
充分认识 34
克莱@@ 34
克鲁@@ 34
公 34
公关 34
其新 34
兼而有之 34
再也不能 34
军售 34
军阀 34
决定权 34
冷 34
减半 34
出钱 34
出错 34
分配@@ 34
创造者 34
判@@ 34
利斯 34
刺 34
刻不容缓 34
前行 34
务@@ 34
努尔 34
勤@@ 34
千百万 34
千禧 34
华尔街日报 34
卜 34
卡特里娜 34
原子 34
原定 34
双胞胎 34
反向 34
受限 34
口风 34
另一端 34
同侪 34
吕@@ 34
周边地区 34
哈尔 34
哈里里 34
商榷 34
喜 34
喝 34
四月 34
国际劳工组织 34
图像 34
地用 34
埃及政府 34
基层 34
墙@@ 34
复发 34
大棒 34
大涨 34
失策 34
奋起 34
奎@@ 34
女王 34
妻 34
安然 34
宝 34
宣传攻势 34
宫@@ 34
容量 34
宽 34
尔德 34
尼古丁 34
尼察 34
尽早 34
屠宰 34
崇尚 34
巨大损失 34
平均寿命 34
广为 34
康复 34
异乎寻常 34
弥漫 34
归类 34
德意志银行 34
心理健康 34
恋@@ 34
惯用 34
战略家 34
所得税率 34
所犯 34
所要 34
打仗 34
扣减 34
扬@@ 34
抹杀 34
拨@@ 34
拼@@ 34
损失惨重 34
接任 34
接待 34
掩护 34
提振@@ 34
播放 34
攸关 34
放射性 34
政治性 34
教士 34
数千万 34
数百人 34
斯科特 34
无助 34
无懈可击 34
无政府 34
无聊 34
明朗 34
更改 34
最富 34
有损 34
有的是 34
期货 34
束@@ 34
林肯 34
案子 34
检@@ 34
欢呼雀跃 34
步履蹒跚 34
母婴 34
毒气 34
毫不@@ 34
注@@ 34
洪森 34
测@@ 34
浩劫 34
浪漫 34
海岸线 34
海盗 34
消费水平 34
涉足 34
炎热 34
烈@@ 34
熊彼特 34
爱国者 34
物体 34
犬儒主义 34
球@@ 34
甩 34
痢疾 34
的@@ 34
相处 34
石油@@ 34
破败 34
破除 34
科学院 34
秘密警察 34
稿 34
穆 34
穿@@ 34
等价 34
筹备 34
精彩 34
纪录片 34
经济基础 34
经理人 34
美方 34
翻译 34
老派 34
耸人听闻 34
联赛 34
肖@@ 34
能效 34
艾哈迈德 34
莫斯 34
菲永 34
萨拉 34
虑 34
融 34
行政命令 34
西德 34
解冻 34
触@@ 34
触目惊心 34
警 34
计划经济 34
诉@@ 34
诚@@ 34
诟病 34
象牙 34
败北 34
贪污 34
赖@@ 34
赞成票 34
起飞 34
足@@ 34
轻视 34
较差 34
逃亡 34
那位 34
采集 34
重写 34
重负 34
金价 34
金色 34
锡安 34
防火墙 34
阵地 34
雄 34
雄辩 34
集群 34
震撼 34
频发 34
驳回 34
麦克@@ 34
黄热病 34
黑市 34
默罕 34
09 33
17.@@ 33
1920 33
1976 33
4.4 33
5.@@ 33
7.@@ 33
AS 33
Ban@@ 33
EFSF 33
Forum 33
Or@@ 33
Panel 33
Pet@@ 33
Reinhart 33
Report 33
Res@@ 33
Rights 33
SEC 33
TFP 33
Un@@ 33
Volcker 33
YouTube 33
alism 33
ampnbsp 33
ev 33
for@@ 33
oli@@ 33
ord@@ 33
se@@ 33
te 33
uk@@ 33
一味 33
下半叶 33
下次 33
不易 33
不知情 33
东北 33
东盟国家 33
中东问题 33
中说 33
习@@ 33
争议性 33
二等 33
互补 33
交换条件 33
产品@@ 33
今年年初 33
伯特 33
佛罗里达 33
佩戴 33
俄语 33
保护主义者 33
保证金 33
保费 33
借款者 33
债@@ 33
光景 33
公平性 33
共产主义者 33
关税同盟 33
兼容 33
册 33
减低 33
减去 33
几小时 33
凯南 33
刑讯 33
列日涅夫 33
刘@@ 33
创业精神 33
利库德集团 33
利雅得 33
加里 33
努@@ 33
化合物 33
化学@@ 33
医学@@ 33
十二月 33
南亚地区 33
卵子 33
历任 33
历经 33
厉害 33
参与方 33
参数 33
反差 33
反日 33
发病 33
受助 33
受雇 33
另一回事 33
司空见惯 33
否 33
回头 33
困@@ 33
地面部队 33
均@@ 33
埋葬 33
城市规划 33
墨@@ 33
声名狼藉 33
多数票 33
大受 33
大英帝国 33
大象 33
大道 33
奥威尔 33
奥尔班 33
姆林宫 33
孤儿 33
宁@@ 33
完全正确 33
宗旨 33
定于 33
定量 33
宫颈癌 33
封 33
封存 33
射@@ 33
尊 33
居于 33
展期 33
布兰 33
布尔 33
师@@ 33
带走 33
广告商 33
府 33
康德 33
廷 33
开发@@ 33
开火 33
引人瞩目 33
弗林 33
彩@@ 33
很久以前 33
很多年 33
得过且过 33
微观经济 33
心知肚明 33
志 33
快得多 33
性命 33
恐怖份子 33
悲观派 33
愤慨 33
扎实 33
打入 33
执委会 33
挨饿 33
探底 33
推定 33
措手不及 33
提早 33
放过 33
敞开 33
敢@@ 33
数以千计 33
数据分析 33
新教徒 33
无足轻重 33
既成事实 33
最深 33
有悖于 33
本着 33
杆菌 33
构思 33
桑迪 33
毒害 33
毫不掩饰 33
毫无@@ 33
气质 33
水利 33
沃森 33
沉溺于 33
法语 33
洛佩斯 33
洪都拉斯 33
海峡 33
液压 33
滴@@ 33
火星 33
火箭弹 33
燃油 33
爆炸案 33
爬 33
爱德华 33
玩@@ 33
玩世不恭 33
班加西 33
理会 33
畏惧 33
监管部门 33
相互竞争 33
相似性 33
研究生 33
碰巧 33
社会科学家 33
神经元 33
移除 33
站稳脚跟 33
端@@ 33
米特 33
精通 33
糟 33
紧密联系 33
纽伦堡 33
线@@ 33
维奥 33
美妙 33
联合国@@ 33
联合国教科文组织 33
自由放任 33
自称为 33
舰 33
舰队 33
节日 33
荣@@ 33
菜 33
虚幻 33
融@@ 33
行为@@ 33
补救措施 33
西蒙 33
规 33
解答 33
解脱 33
警官 33
计算机@@ 33
认真思考 33
讯息 33
识字率 33
诸多方面 33
诺华 33
谈及 33
谓 33
谜题 33
贝克 33
负债累累 33
负值 33
财年 33
资本密集型 33
赖 33
赖斯 33
赞助者 33
越境 33
追赶 33
适龄 33
透支 33
部长级 33
醉@@ 33
采取有效 33
金字塔 33
金本位制 33
错误@@ 33
锚 33
长于 33
阿齐兹 33
陷入僵局 33
隔夜 33
难以避免 33
顶@@ 33
颠覆性 33
高度集中 33
麦德林 33
1300 32
1800 32
240 32
6.8 32
84 32
Association 32
Authority 32
CO@@ 32
Conference 32
Daniel 32
GNP 32
Johnson 32
Justice 32
P5 32
PKK 32
Peace 32
University 32
ative 32
ern@@ 32
ert 32
int@@ 32
iz@@ 32
ois 32
ok@@ 32
ont 32
res 32
一架 32
一模一样 32
一环 32
一职 32
万能 32
三十多年 32
三天 32
三点 32
上班 32
不可不 32
不定 32
不成 32
与非 32
世代 32
两届 32
两极 32
两样 32
两派 32
丰@@ 32
临@@ 32
主导作用 32
井 32
交叉 32
交易@@ 32
以防 32
休闲 32
伦理学 32
余波 32
作证 32
佩尔 32
供应国 32
俄罗斯联邦 32
俗 32
保全 32
假如 32
催@@ 32
儿@@ 32
全美 32
共产 32
兴 32
兹事体大 32
农场主 32
农民工 32
冬奥会 32
几分 32
几千 32
几百@@ 32
击落 32
分道扬镳 32
刑@@ 32
创业者 32
制服 32
剑 32
办@@ 32
医护人员 32
单极 32
卖家 32
南极洲 32
博弈论 32
却会 32
卷@@ 32
参谋长 32
友好关系 32
友邦 32
双双 32
反复无常 32
发放贷款 32
受够了 32
另一家 32
可达 32
司法部长 32
各有 32
启用 32
员@@ 32
喜马拉雅山 32
四名 32
四次 32
回击 32
圆@@ 32
堆积 32
填@@ 32
夏威夷 32
外交大臣 32
多一点 32
多亿美元 32
大加 32
大旗 32
好奇心 32
字母 32
审理 32
家庭暴力 32
寒@@ 32
寿终正寝 32
层@@ 32
屋顶 32
山区 32
工作@@ 32
差劲 32
巴厘岛 32
巴里 32
布鲁金斯 32
帮凶 32
幅 32
幌子 32
平均@@ 32
年长者 32
年限 32
并会 32
并非易事 32
废 32
弗里@@ 32
徒@@ 32
心灵 32
心血管 32
志愿 32
忘却 32
忧@@ 32
总体@@ 32
患上 32
所称 32
执着 32
扩张主义 32
投了 32
投资决策 32
折扣 32
折旧 32
按计划 32
挖 32
捐献 32
据信 32
掌管 32
控制力 32
握 32
揭开 32
撤资 32
政治舞台 32
数周 32
数次 32
断然 32
新低 32
施加影响 32
旅程 32
时限 32
春 32
普斯 32
暴增 32
未知数 32
杀人犯 32
极小 32
标记 32
核心@@ 32
核打击 32
死后 32
毁于一旦 32
汇 32
泛@@ 32
海湾战争 32
涂@@ 32
渔@@ 32
渔船 32
源源不断 32
滩 32
灯塔 32
灰色 32
烟消云散 32
爆 32
爆炸性 32
爱戴 32
父母亲 32
片@@ 32
牛奶 32
牢 32
狐疑 32
狱中 32
猛 32
生态@@ 32
用语 32
畅销书 32
畸高 32
疾@@ 32
痛恨 32
痴迷 32
瘤 32
癌细胞 32
相称 32
眉@@ 32
真菌 32
睡 32
石化 32
石油资源 32
祸 32
禁飞区 32
秘书 32
空调 32
空谈 32
突显 32
童@@ 32
第一份 32
签 32
紧迫感 32
约翰内斯堡 32
终生 32
经常性 32
经营者 32
缘@@ 32
缩写 32
罢免 32
老路 32
而今 32
联合@@ 32
联络 32
能源@@ 32
自此以后 32
航 32
节俭 32
苏黎世 32
英亩 32
范@@ 32
菲德尔 32
衰败 32
西班牙政府 32
覆盖面 32
角力 32
访华 32
识别区 32
说道 32
调控 32
财 32
贷给 32
资本金 32
走低 32
走高 32
轻率 32
输给 32
边境线 32
迅速行动 32
过渡性 32
这本 32
连续性 32
避险 32
邻@@ 32
里尔 32
重燃 32
锡 32
门户 32
闹@@ 32
陈 32
院@@ 32
随时随地 32
雾 32
静悄悄 32
非常明显 32
风电 32
首屈一指 32
首轮 32
高举 32
高超 32
高龄 32
鸟类 32
齐头并进 32
AR@@ 31
Andrew 31
Carmen 31
Cons@@ 31
ECT 31
IM@@ 31
Ind@@ 31
JP 31
Jo@@ 31
Millennium 31
Ph@@ 31
Sal@@ 31
Sha@@ 31
Stiglitz 31
ada 31
are 31
di@@ 31
ero 31
erv@@ 31
ma 31
pre@@ 31
q@@ 31
ric@@ 31
stein 31
tor 31
yn@@ 31
万吨 31
三百万 31
上校 31
上议院 31
下才 31
不下 31
不出意外 31
不太@@ 31
不尽相同 31
专政 31
东南部 31
两代 31
两方 31
争执 31
互助 31
京@@ 31
亲欧 31
代言人 31
仿@@ 31
企业主 31
伊万 31
佛 31
俄军 31
保护区 31
修辞 31
候选者 31
假象 31
偏颇 31
先天 31
克劳德 31
共事 31
具体情况 31
典@@ 31
冰山一角 31
决 31
列宁主义 31
创新型 31
利特 31
刹车 31
前方 31
力争 31
勒索 31
十二 31
卓@@ 31
危@@ 31
卷 31
双手 31
发行量 31
取向 31
受审 31
变本加厉 31
叫嚣 31
司法制度 31
各界 31
合著 31
合谋 31
吉尔吉斯斯坦 31
吓@@ 31
告急 31
和普京 31
喜马拉雅 31
嘉@@ 31
固@@ 31
大胜 31
奇特 31
奴 31
委任 31
嫌疑人 31
字眼 31
存续 31
孟@@ 31
学术@@ 31
学术研究 31
宗@@ 31
定时炸弹 31
审 31
宣布独立 31
室外 31
家长式 31
宿主 31
寒 31
察觉 31
小丑 31
小步 31
尼格 31
居尔 31
巧 31
巴特 31
币值 31
带回 31
干什么 31
干部 31
平板 31
底部 31
建筑@@ 31
开拓 31
弥@@ 31
彦 31
彼@@ 31
德国马克 31
必要措施 31
必需品 31
思潮 31
思索 31
恰@@ 31
我要 31
抗体 31
抵抗力 31
拉斯维加斯 31
拥@@ 31
拨 31
拳@@ 31
持@@ 31
捐赠者 31
提高效率 31
摊牌 31
播出 31
收敛 31
政府军 31
敬 31
文化@@ 31
新著 31
施舍 31
无可争议 31
无尽 31
暴露无遗 31
更富 31
权贵 31
来袭 31
板块 31
极其重要 31
极富 31
极难 31
标榜 31
桥@@ 31
梅琳 31
次大陆 31
歇斯底里 31
武@@ 31
每一 31
民主主义 31
沦落 31
派兵 31
流放 31
浑@@ 31
浪 31
浮 31
海底 31
涉@@ 31
深切 31
温斯顿 31
滞胀 31
灭 31
炎 31
熟 31
牙 31
牙齿 31
犯罪分子 31
犯错 31
独立战争 31
玛利亚 31
现代人 31
现代史 31
玻利瓦尔 31
珊瑚礁 31
生物学家 31
用处 31
申@@ 31
疑 31
疲于 31
病情 31
白白浪费 31
白色 31
目光短浅 31
相较 31
神圣不可 31
禀赋 31
离不开 31
私 31
租赁 31
称作 31
穿过 31
竭尽所能 31
第七 31
第二条 31
精准 31
线性 31
细 31
经济体制 31
经济学界 31
绝无 31
绿@@ 31
缔结 31
编写 31
美国进口 31
职业@@ 31
联大 31
背离 31
胡佛 31
英国议会 31
落下 31
蕴含 31
行将 31
行程 31
衰老 31
装作 31
计票 31
订单 31
讨@@ 31
识@@ 31
请愿 31
课题 31
豁免权 31
责怪 31
赎回 31
赎金 31
跃@@ 31
身影 31
转让 31
辜负 31
辩@@ 31
进口商 31
违规 31
迹 31
造福 31
遵照 31
避@@ 31
那天 31
里程碑式 31
重压 31
重开 31
重担 31
针灸 31
钻@@ 31
阴暗 31
阵 31
阿以 31
阿基诺 31
阿富汗人 31
阿拉伯地区 31
降温 31
集中@@ 31
非西方 31
非贸易 31
频道 31
餐@@ 31
饥@@ 31
饱 31
马蒂斯 31
1200 30
330 30
550 30
BS 30
Bur@@ 30
Corporation 30
Democratic 30
ESG 30
FDIC 30
Fran@@ 30
Greenspan 30
Lawrence 30
Mos@@ 30
Program 30
REDD 30
Sa@@ 30
Ste@@ 30
Syriza 30
Trans 30
ack 30
aj@@ 30
ard@@ 30
em 30
eur@@ 30
gen@@ 30
mar@@ 30
no 30
ore 30
ors 30
over@@ 30
wor@@ 30
www 30
° 30
à 30
ö 30
一劳永逸 30
一帮 30
万多 30
下届 30
不消说 30
专栏 30
世界主义 30
世纪之交 30
世袭 30
业主 30
东风 30
两大阵营 30
中风 30
为数不多 30
之士 30
之差 30
之物 30
争 30
二季度 30
交织 30
亲身 30
人员伤亡 30
人种 30
仇@@ 30
从长远看 30
休 30
伪造 30
低谷 30
佐@@ 30
供需 30
便于 30
做事 30
公共事务 30
公司债券 30
共同@@ 30
关头 30
军火 30
决策机构 30
凭@@ 30
出口品 30
出口额 30
创新能力 30
利他主义 30
利用率 30
制造品 30
副手 30
加勒比地区 30
动植物 30
动辄 30
勃@@ 30
十分复杂 30
千里 30
博尔顿 30
占用 30
占领区 30
卡斯 30
厌@@ 30
反制 30
反面 30
发泄 30
受阻 30
口头上 30
合作性 30
吞没 30
周小川 30
回去 30
回忆起 30
国库 30
国际联盟 30
图表 30
圣诞 30
地是 30
坎 30
坦率地 30
基数 30
多国 30
多方 30
大海 30
奔@@ 30
妊娠 30
姆贝基 30
实验性 30
审批 30
宣判 30
小觑 30
就职典礼 30
尽显 30
展望未来 30
巡@@ 30
工业生产 30
巨富 30
巴勒斯坦民族权力机构 30
席尔瓦 30
庆典 30
废@@ 30
开枪 30
弱@@ 30
当做 30
当即 30
德意志 30
心思 30
怕 30
总资产 30
悉尼 30
悔@@ 30
情报@@ 30
才@@ 30
持续上升 30
振@@ 30
损坏 30
授@@ 30
掉@@ 30
控股 30
推动者 30
援手 30
摇身一变 30
撬动 30
播@@ 30
改革家 30
放出 30
敬@@ 30
数以亿计 30
整 30
斯雷 30
新奇 30
旅 30
无意识 30
无益 30
日报 30
时间推移 30
暖@@ 30
暴力行动 30
更有意义 30
最高点 30
期货市场 30
本地人 30
来之不易 30
染上 30
核实 30
核燃料 30
榜首 30
榨取 30
模@@ 30
欠发达 30
殖民统治 30
母公司 30
毛拉 30
水涨船高 30
水量 30
洋 30
海洋生物 30
消弭 30
渐渐 30
渗透到 30
湄公河 30
源@@ 30
激动人心 30
版@@ 30
牧@@ 30
现身 30
瑞典人 30
甜@@ 30
生命力 30
生成 30
留存 30
疯 30
盛会 30
直白 30
相对而言 30
瞩目 30
短信 30
社会效益 30
社会规范 30
积极支持 30
移居 30
稍稍 30
立足 30
端的 30
第一手 30
筹划 30
算得 30
算术 30
粉@@ 30
系@@ 30
纵@@ 30
经济史 30
结 30
维克多 30
缄默 30
编制 30
美国国防部 30
美英 30
耶夫 30
联合国粮农组织 30
肝@@ 30
自我@@ 30
臭氧层 30
舒服 30
艾肯 30
荣 30
荣耀 30
莉 30
莫迪@@ 30
菅直 30
萨克斯 30
蓝领 30
袋 30
裁量权 30
裙带关系 30
解救 30
评论者 30
误读 30
谢尔盖 30
货币主义 30
贱民 30
贴@@ 30
费尔 30
赌场 30
赖以生存 30
走弱 30
赶出 30
起伏 30
趋向于 30
足额 30
身陷 30
软禁 30
轰@@ 30
近在眼前 30
这为 30
进出 30
进去 30
逆转录 30
遇 30
遍 30
避免出现 30
醒 30
里克 30
重整 30
重新加入 30
野心勃勃 30
锚定 30
锡@@ 30
镇@@ 30
长崎 30
阴云 30
阿拉伯联盟 30
限@@ 30
限制性 30
险恶 30
难民署 30
非军事 30
非同寻常 30
非常容易 30
顿@@ 30
领空 30
颇@@ 30
风险投资 30
驾@@ 30
高加索地区 30
高墙 30
高血压 30
鲸 30
麻风病 30
&apos; 29
0.25 29
2021 29
4.1 29
4.7 29
5.8 29
Action 29
Bill 29
Char@@ 29
Clinton 29
Co@@ 29
Ham@@ 29
Im@@ 29
La 29
Li@@ 29
Lu@@ 29
Mechanism 29
Min@@ 29
PE@@ 29
Pi@@ 29
Qu@@ 29
Rogoff 29
Wolfgang 29
_ 29
ang 29
ins 29
iti@@ 29
ond 29
org 29
oth@@ 29
that 29
ve 29
一体 29
一分钱 29
一心 29
一无是处 29
一课 29
一蹶不振 29
三家 29
不为人知 29
不在乎 29
不肯 29
不靠 29
东道主 29
个人信息 29
个人消费 29
中位数 29
九牛一毛 29
习以为常 29
二者 29
五十 29
五名 29
交易量 29
亮@@ 29
仁慈 29
令人费解 29
众筹 29
伪@@ 29
作对 29
作弊 29
例@@ 29
保护伞 29
偏差 29
公立 29
再生资源 29
再者 29
冯 29
几无 29
凶手 29
出乎 29
出价 29
划 29
制品 29
刻板 29
前不久 29
加倍努力 29
助产士 29
勿庸置疑 29
北冰洋 29
北非地区 29
区@@ 29
十二五 29
十分相似 29
十周年 29
博士学位 29
卡德罗夫 29
印钞 29
压倒一切 29
又@@ 29
双向 29
反型 29
反射 29
反民主 29
受援国 29
变数 29
只好 29
史蒂夫 29
四季度 29
四种 29
团伙 29
围墙 29
国民@@ 29
地上 29
型@@ 29
垫底 29
培 29
堪忧 29
增长势头 29
墨索里尼 29
处死 29
备选 29
复活 29
多变 29
多条 29
大声疾呼 29
夹@@ 29
奉献 29
奥斯曼 29
学前教育 29
宗教自由 29
实际意义 29
宽恕 29
密集度 29
察@@ 29
寥寥无几 29
尸@@ 29
尾部 29
巧@@ 29
巨大成功 29
巨星 29
布基纳法索 29
布鲁@@ 29
带薪 29
废水 29
弊 29
归为 29
当地政府 29
录 29
往事 29
往日 29
徒劳地 29
怨@@ 29
怨气 29
总有 29
总统制 29
恭@@ 29
恰如其分 29
意料之中 29
感染者 29
愤 29
慢@@ 29
战略意义 29
户@@ 29
房@@ 29
扔 29
托宾税 29
扫地 29
扶助 29
投票站 29
指导方针 29
捏造 29
损 29
排名第 29
提问 29
摆布 29
撑腰 29
播 29
攻击性 29
攻讦 29
断绝 29
无党派 29
无家可归者 29
日本@@ 29
时光 29
易卜拉欣 29
智识 29
朱镕基 29
村@@ 29
杜罗 29
染指 29
查德 29
标语 29
栋 29
格拉 29
榜 29
欣喜 29
欧洲共同 29
欺凌 29
每况愈下 29
民兵组织 29
汤@@ 29
汽车行业 29
沃尔@@ 29
油井 29
测序 29
涵义 29
淋@@ 29
淡@@ 29
深圳 29
深处 29
游刃有余 29
滚@@ 29
潘多拉 29
激素 29
点对点 29
犯@@ 29
犯罪率 29
独力 29
瓶 29
田东 29
电脑@@ 29
略低于 29
番 29
畸形 29
的确如此 29
盆地 29
盐 29
监@@ 29
眼睁睁 29
着迷 29
码 29
硬性 29
磅 29
示好 29
示范 29
祖马 29
票@@ 29
第一条 29
答 29
精神病学 29
红色高棉 29
细微 29
终究 29
经常帐户 29
经济带 29
绘制 29
美中关系 29
美墨 29
翻倍 29
耗竭 29
肇事者 29
肤色 29
肾脏 29
胆敢 29
胡斯尼 29
自以为是 29
自封 29
自由选择 29
自觉 29
草率 29
荷@@ 29
莉@@ 29
获奖 29
蛋白 29
衰弱 29
裂@@ 29
西奥 29
西欧国家 29
要职 29
要花 29
覆盖率 29
视之为 29
让渡 29
议院 29
诗 29
诺夫 29
负数 29
财产权 29
财政支出 29
责@@ 29
资金不足 29
足球队 29
跟@@ 29
踌躇满志 29
较长 29
输出国 29
返@@ 29
这批 29
这时 29
进一步提高 29
进口产品 29
违法行为 29
迫于 29
迷 29
选举权 29
选举法 29
逊于 29
透@@ 29
逐年 29
通力合作 29
道德@@ 29
遗漏 29
配偶 29
重构 29
钚 29
铅 29
银 29
长期债务 29
闲@@ 29
隐患 29
难以承受 29
雅虎 29
需求量 29
青年@@ 29
非人 29
领先者 29
饰@@ 29
首肯 29
鬼@@ 29
魔法 29
黄 29
齐奥塞斯库 29
08 28
193 28
3.1 28
320 28
5.6 28
6.4 28
Africa 28
America 28
Ber@@ 28
Bi@@ 28
Bo@@ 28
Claude 28
Europe 28
IP 28
Jim 28
Mac@@ 28
TA 28
TC 28
Trump 28
ally 28
amp@@ 28
cl@@ 28
ean 28
eng@@ 28
enn@@ 28
hi@@ 28
ich 28
ini 28
oo@@ 28
oy@@ 28
pe@@ 28
za 28
一击 28
三军 28
三周 28
上届 28
下会 28
下旬 28
不动 28
不胜枚举 28
与世隔绝 28
两座 28
两端 28
中亚地区 28
中国台湾 28
中非共和国 28
为人所知 28
之三 28
之位 28
乐趣 28
九 28
买下 28
互相@@ 28
亲密关系 28
人事 28
什叶 28
介于 28
付诸 28
令人窒息 28
价格指数 28
仿制 28
企业@@ 28
会因 28
伟大领袖 28
传媒 28
但用 28
位数 28
低头 28
体育运动 28
体量 28
作何 28
保险业 28
信中 28
借来 28
借给 28
免 28
全局 28
公共@@ 28
公开信 28
六十年代 28
兰特 28
共同行动 28
关上 28
其为 28
军事优势 28
冰箱 28
冲浪 28
决赛 28
减慢 28
几十亿美元 28
出力 28
出逃 28
刑法 28
刚性 28
创新力 28
前几次 28
十三 28
华为 28
卡利 28
卫生系统 28
卫生部 28
历时 28
去向 28
反之亦然 28
反转 28
另辟蹊径 28
可可 28
合理化 28
名著 28
启@@ 28
周旋 28
喝@@ 28
四川 28
因子 28
团@@ 28
土地@@ 28
土库曼斯坦 28
在场 28
地中海地区 28
地以 28
坚强 28
坚持不懈 28
坦白说 28
培@@ 28
基础性 28
堵 28
境遇 28
多伦多 28
多层次 28
多边合作 28
大举 28
大吃一惊 28
大同 28
大楼 28
大气层 28
大错 28
天花 28
太子党 28
头发 28
奶@@ 28
好意 28
如火如荼 28
妈妈 28
妓女 28
妥善 28
娃 28
媲美 28
季节 28
安静 28
完工 28
家属 28
宿命 28
察 28
小说家 28
展览 28
属@@ 28
屡见不鲜 28
州@@ 28
差强人意 28
巴基斯坦政府 28
市场导向 28
帽 28
年率 28
庄严 28
应声 28
开头 28
开玩笑 28
形形色色 28
得不偿失 28
忠诚度 28
情节 28
惨剧 28
成瘾 28
投保 28
抵 28
抹@@ 28
拿下 28
指派 28
挣 28
捉襟见肘 28
控制线 28
插@@ 28
握手 28
揭发 28
搬@@ 28
撕@@ 28
敌@@ 28
救灾 28
数百万美元 28
文凭 28
斯拉夫 28
无人驾驶 28
无法自拔 28
早晨 28
普通@@ 28
暗示着 28
最终目标 28
最高峰 28
有意思 28
有理 28
期盼 28
本党 28
束 28
欧洲经济共同体 28
正视 28
母乳喂养 28
每吨 28
毫不含糊 28
氮 28
污@@ 28
污染者 28
沉浸 28
法国@@ 28
洪@@ 28
浅 28
济 28
消费市场 28
渡@@ 28
渲染 28
漏洞百出 28
漩涡 28
漫@@ 28
澳@@ 28
炉 28
烂@@ 28
烹饪 28
爆破 28
特人 28
状@@ 28
独生子女 28
班加罗尔 28
甚广 28
生产@@ 28
电视节目 28
看守 28
睿智 28
磨@@ 28
示@@ 28
社保 28
票仓 28
福尔 28
秘书处 28
称不上 28
笃定 28
第一届 28
精心设计 28
索尔仁 28
紧急措施 28
纳尔逊 28
纷@@ 28
纽波特 28
网页 28
罗兴亚 28
罗马帝国 28
羁押 28
美国士兵 28
美的 28
肝脏 28
胎 28
胡萝卜 28
脉 28
腐败现象 28
腾讯 28
自杀性 28
至高无上 28
舌@@ 28
舞 28
航空母舰 28
获知 28
落幕 28
葛 28
蓬勃 28
蔡 28
蛊惑 28
行政部门 28
规划者 28
触动 28
计划署 28
计算@@ 28
议事日程 28
讯 28
诗@@ 28
详尽 28
诱因 28
负增长 28
负责管理 28
购买者 28
贯@@ 28
赌 28
赠款 28
赢@@ 28
走入 28
赵紫阳 28
赶不上 28
趁@@ 28
超乎 28
越少 28
跟不上 28
轩然大波 28
辩称 28
运往 28
这代人 28
追溯 28
送给 28
透 28
遵守规则 28
邪@@ 28
都市 28
重量 28
销量 28
长期@@ 28
门类 28
防护 28
阻@@ 28
难过 28
非正统 28
非经济 28
面子 28
鞋 28
频@@ 28
马尔 28
驱@@ 28
骑@@ 28
高效率 28
高温 28
麦迪逊 28
黄金时代 28
鼓 28
1919 27
1966 27
2060 27
5.7 27
650 27
9.5 27
94 27
Col@@ 27
EC 27
Economy 27
Human 27
ISP 27
Jac@@ 27
Law 27
Mo@@ 27
Mur@@ 27
NTC 27
Rus@@ 27
Ryan 27
Sol@@ 27
Star 27
Wil@@ 27
Wor@@ 27
ace 27
ai 27
ala 27
bin 27
by 27
des 27
ea 27
he@@ 27
ko 27
ley 27
man@@ 27
ous 27
pp@@ 27
zi 27
一侧 27
一团糟 27
一期 27
不大 27
不寒而栗 27
不间断 27
专员 27
专家组 27
两百年 27
严谨 27
中国银行 27
中年 27
中西部 27
举止 27
之心 27
之春@@ 27
乍得 27
亚人 27
亟需 27
亲戚 27
亲爱 27
人命 27
人死于 27
人际 27
仁@@ 27
仅存 27
从那时起 27
众人 27
优待 27
优越 27
低薪 27
低速 27
何去何从 27
余 27
值此 27
僧侣 27
充分考虑 27
光伏 27
公元前 27
公职人员 27
六百万 27
其间 27
内政部 27
再有 27
再造 27
冗余 27
军事@@ 27
冷却 27
冷淡 27
几代 27
凶险 27
分发 27
分摊 27
划清界限 27
利好 27
前所未见 27
剥离 27
割@@ 27
加勒比海 27
劣@@ 27
势必 27
厄立特里亚 27
原住民 27
双相 27
双轨 27
反倾销 27
受约束 27
变局 27
变更 27
口气 27
古拉格 27
叫@@ 27
可恶 27
右 27
司 27
各派 27
合众国 27
合作方 27
同谋 27
吸毒 27
吸食 27
哈利波 27
售 27
喘 27
围困 27
国中 27
国境 27
国门 27
地主 27
地处 27
坐下 27
坦率 27
基督教社会联盟 27
堆积如山 27
增至 27
处方药 27
多长时间 27
夜@@ 27
夜晚 27
大桥 27
大潮 27
大赦 27
天主教会 27
奉 27
奔 27
奥尔特加 27
女婿 27
威尔士 27
婚 27
嫉妒 27
存货 27
学业 27
安德烈 27
宗教团体 27
实地 27
实际操作 27
客人 27
寥寥 27
小报 27
小行星 27
就位 27
就读 27
崇拜者 27
工业部门 27
工艺 27
布尔什维克 27
布莱@@ 27
希德 27
年头 27
幸灾乐祸 27
广为人知 27
应为 27
应税 27
延误 27
建筑物 27
引人入胜 27
弗莱 27
德罗 27
怀念 27
怪@@ 27
情商 27
惩戒 27
愤世嫉俗 27
愿@@ 27
战乱 27
户口 27
所幸 27
所愿 27
打动 27
打包 27
抽取 27
拉夫桑贾尼 27
拉尼 27
拟定 27
持久性 27
挑衅性 27
挥舞 27
排行榜 27
推特上 27
提拔 27
政策措施 27
数个 27
文艺复兴 27
断然拒绝 27
新闻界 27
旁观者 27
无罪 27
无限量 27
日前 27
日增 27
昂 27
昆@@ 27
昔 27
显眼 27
晋升 27
晚@@ 27
更差 27
曼哈顿 27
最最 27
最重 27
月间 27
服务器 27
本地化 27
机会成本 27
机能 27
格勒 27
格雷 27
检视 27
概@@ 27
模糊不清 27
欺骗性 27
正向 27
死于 27
残疾人 27
母@@ 27
每种 27
毒枭 27
毗邻 27
毫无道理 27
法拉奇 27
波恩 27
洛斯 27
海洛因 27
消散 27
消费国 27
液 27
游行示威 27
滋长 27
滑落 27
激进派 27
火焰 27
炼@@ 27
焦头烂额 27
父@@ 27
特曼 27
独岛 27
猜 27
玛格丽特 27
理事 27
瓦罗 27
疯子 27
益@@ 27
相伴 27
相冲突 27
矫正 27
破坏者 27
砸 27
禁毒 27
科学知识 27
秒 27
稀@@ 27
稳定器 27
究其原因 27
突@@ 27
立宪 27
第一项 27
第三项 27
第二项 27
简报 27
箭@@ 27
粗略 27
系数 27
约定 27
经济成就 27
缩 27
网络战 27
罗索 27
罚金 27
翻版 27
老式 27
者@@ 27
耕种 27
股息 27
背弃 27
脱身 27
腐败问题 27
腹@@ 27
腾飞 27
自欺欺人 27
致病 27
般地 27
苏哈托 27
行政@@ 27
要少 27
角逐 27
记载 27
译 27
试射 27
误@@ 27
说教 27
豪华 27
贝尔格莱德 27
货运 27
资金投入 27
跳出 27
踪影 27
轰炸机 27
过激 27
近似 27
避 27
那套 27
醒悟 27
里斯坦 27
针@@ 27
锅 27
防御性 27
阿什顿 27
阿德 27
阿拉伯半岛 27
降水 27
隔 27
难得 27
韩国政府 27
预测者 27
预警系统 27
领教 27
颗 27
颗粒物 27
飞行员 27
马来 27
高危 27
高技术 27
鲸鱼 27
黑天鹅 27
黑海 27
07 26
125 26
1952 26
1954 26
210 26
360 26
370 26
4.9 26
6.@@ 26
7.8 26
850 26
911 26
Ac@@ 26
Be@@ 26
Ben@@ 26
Boris 26
Carney 26
FDP 26
First 26
Fran 26
Gavi 26
Gi@@ 26
House 26
Ol@@ 26
Poli@@ 26
QE3 26
Sc@@ 26
Sup@@ 26
air 26
ale 26
ama 26
eration 26
ff@@ 26
ish@@ 26
iss@@ 26
ki 26
per 26
ris@@ 26
一世 26
一两年 26
一事 26
一半左右 26
一成不变 26
一眼 26
丁@@ 26
三季度 26
上行 26
不合 26
与生俱来 26
专属经济区 26
严格执行 26
严格控制 26
之国 26
互利 26
亚里士多德 26
交由 26
产业@@ 26
产业界 26
人类基因 26
今年初 26
从政 26
令人厌恶 26
传教士 26
伯利恒 26
似@@ 26
保护者 26
倒下 26
候 26
停战 26
僵硬 26
克雅 26
公益 26
关键所在 26
军用 26
农户 26
农田 26
准军事 26
利比亚人 26
前车之鉴 26
加以解决 26
勤 26
化学物质 26
十岁 26
卖掉 26
历史教训 26
原告 26
反覆 26
发展势头 26
受挫 26
另一面 26
召唤 26
合乎逻辑 26
合共 26
吉尔@@ 26
后院 26
含糊 26
呼 26
呼@@ 26
和平@@ 26
咬@@ 26
喜剧演员 26
国家开发银行 26
国库券 26
国情咨文 26
国民经济 26
地会 26
地方性 26
坎坷 26
基因@@ 26
基建 26
基本法 26
基督 26
基督教徒 26
堂@@ 26
塔尔 26
增加一倍 26
墨 26
处处 26
复合 26
大法官 26
太快 26
奶 26
妄@@ 26
姐妹 26
孕产妇 26
孙 26
官司 26
宫 26
家族企业 26
对华贸易 26
小幅 26
尖@@ 26
尼琴 26
岁入 26
工时 26
己@@ 26
布莱恩 26
希霍夫 26
帕特尔 26
年复一年 26
年春 26
废弃 26
弃权 26
弗吉尼亚州 26
弥漫着 26
当量 26
征用 26
得来 26
德米特里 26
恢复@@ 26
惨淡 26
成见 26
战略武器 26
手表 26
打倒 26
打电话 26
扯皮 26
扶@@ 26
技@@ 26
抑制剂 26
抓@@ 26
投资规模 26
投身 26
披 26
披@@ 26
披上 26
拉卡 26
拉尔 26
拉马拉 26
拨付 26
持股 26
探究 26
控@@ 26
推入 26
推卸 26
推手 26
揭@@ 26
揽 26
搁浅 26
搭@@ 26
摸 26
支票 26
收税 26
收窄 26
故乡 26
文莱 26
斯蒂芬 26
新人 26
无所不在 26
无法无天 26
暴 26
李嘉图 26
核电厂 26
模范 26
欣欣向荣 26
正站 26
残留 26
汇总 26
沉闷 26
沼泽 26
泄密 26
波哥大 26
泽纳维 26
流行@@ 26
流行病学 26
浅@@ 26
深信 26
湖@@ 26
滋@@ 26
滑@@ 26
潘 26
炭 26
烂 26
熊@@ 26
熟练@@ 26
爆炸事件 26
牵扯 26
特别法庭 26
特立独行 26
狡猾 26
献身 26
玻璃 26
珍妮特 26
珍贵 26
理想化 26
瑞恩 26
生命周期 26
疏忽 26
疯@@ 26
症结 26
皮诺切特 26
盐@@ 26
盒 26
相互影响 26
睡@@ 26
碍@@ 26
碳排 26
示 26
社会群体 26
神职人员 26
禁区 26
积分 26
积聚 26
稀缺资源 26
稳定局势 26
穆萨维 26
突袭 26
立竿见影 26
站@@ 26
竞技场 26
累累 26
繁衍 26
纪 26
纳什 26
经济部长 26
绑 26
绳 26
缓@@ 26
缝@@ 26
罗默 26
置若罔闻 26
置身事外 26
美好@@ 26
胆 26
背 26
能耗 26
腐化 26
自此 26
自治区 26
自诩 26
舒尔茨 26
舒曼 26
舞@@ 26
良方 26
苏格兰人 26
营养素 26
落败 26
蓄@@ 26
蓬佩奥 26
薪金 26
被誉为 26
裂缝 26
解职 26
论战 26
设计者 26
诱@@ 26
谈成 26
谜 26
贾帕克萨 26
资产阶级 26
赌局 26
赞 26
起始 26
越战 26
趸 26
身高 26
转到 26
辞@@ 26
辨@@ 26
过活 26
迎@@ 26
进军 26
违宪 26
迪顿 26
追究 26
逐@@ 26
递@@ 26
通报 26
遥遥领先 26
郎 26
重估 26
重油 26
金主 26
金融风暴 26
钢铁业 26
钱包 26
铜@@ 26
销@@ 26
闭门 26
陆@@ 26
陆上 26
难点 26
难觅 26
雅加达 26
雏形 26
静 26
面额 26
韦伯 26
顾名思义 26
预估 26
题@@ 26
马哈蒂尔 26
骂 26
骤@@ 26
高产 26
高层次 26
魏玛 26
鲜血 26
黄油 26
龄 26
3.9 25
5.1 25
5.2 25
6.3 25
7.7 25
8.3 25
9000 25
Board 25
Bre@@ 25
CD@@ 25
CIA 25
Cooperation 25
Corbyn 25
Emmanuel 25
Five 25
General 25
IS@@ 25
Is@@ 25
Islamic 25
Jeffrey 25
Kar@@ 25
King 25
La@@ 25
League 25
ME@@ 25
Mod@@ 25
Mohammad 25
Mus@@ 25
NASA 25
Ob@@ 25
Office 25
PA 25
PAS 25
PI@@ 25
PP 25
Protection 25
R2P 25
Ra@@ 25
Rep@@ 25
SC 25
Sand@@ 25
Service 25
Sw@@ 25
Wal@@ 25
ability 25
ans 25
ase 25
di 25
ef 25
ex 25
ial 25
ings 25
lan 25
me 25
ood@@ 25
oz@@ 25
pr@@ 25
state 25
tif@@ 25
ual 25
ures 25
von 25
w 25
å 25
一国两制 25
一意孤行 25
一杯 25
一蹴而就 25
一遍 25
七月 25
万一 25
万亿元 25
上街 25
下列 25
不容乐观 25
不容置疑 25
不相上下 25
世界末日 25
两份 25
两国间 25
严 25
严厉批评 25
中间人 25
之低 25
之机 25
乎 25
乙@@ 25
亮点 25
人口普查 25
人才流失 25
介@@ 25
代表权 25
令人惊叹 25
以较 25
任何迹象 25
任地 25
伊朗伊斯兰共和国 25
伸@@ 25
佛罗伦萨 25
作恶 25
使命感 25
供求 25
依托 25
侯选人 25
便捷 25
保尔森 25
保障@@ 25
倒数 25
候@@ 25
偏执狂 25
偏隘 25
催生出 25
克莱蒙 25
全权 25
公开场合 25
六倍 25
关系紧张 25
兵力 25
内乱 25
决策权 25
净资产 25
几分钟 25
凯撒 25
出名 25
出版物 25
出血 25
刊物 25
利维坦 25
制成品 25
制高点 25
前端 25
办事处 25
功能性 25
动手 25
北溪 25
医治 25
医疗机构 25
印记 25
反华 25
反正 25
发展壮大 25
发源地 25
发电站 25
变体 25
史密斯 25
号称 25
吊@@ 25
吞@@ 25
听任 25
哪位 25
唯 25
四射 25
围 25
固化 25
国父 25
圣雄甘地 25
坐落 25
块@@ 25
垄断@@ 25
埋下 25
城镇化 25
堪培拉 25
堵住 25
处理@@ 25
多管齐下 25
大受欢迎 25
大地 25
失业工人 25
头版 25
头版头条 25
头衔 25
夸夸其谈 25
奖项 25
好几年 25
好奇 25
好日子 25
妇女@@ 25
委@@ 25
委婉 25
娅 25
实事求是 25
客观@@ 25
宣传@@ 25
密不可分 25
对内 25
对错 25
寻@@ 25
封禁 25
尊重人权 25
尘@@ 25
就行了 25
尼罗河 25
屏蔽 25
崩塌 25
巴拉圭 25
巴西人 25
市政府 25
布兰@@ 25
帷幕 25
常委 25
帽子 25
年青 25
幸运地 25
度量 25
廷@@ 25
建模 25
开发署 25
开城 25
开除 25
异口同声 25
式@@ 25
弗兰@@ 25
弗雷 25
强加于 25
当事人 25
录得 25
彩 25
征兆 25
德克萨斯 25
德法 25
德语 25
怀疑者 25
性取向 25
怪 25
恋 25
恐惧症 25
恪守 25
悬@@ 25
悲观者 25
愈 25
战斗人员 25
战略@@ 25
戛然而止 25
所欠 25
打响 25
承载 25
抗抑郁 25
抗菌素 25
担负 25
拉特 25
拘禁 25
招来 25
拜访 25
持久和平 25
挤 25
捷 25
掏钱 25
排外主义 25
掠 25
推举 25
提供商 25
搜寻 25
摄@@ 25
撒克逊 25
操作性 25
操作系统 25
攀@@ 25
政治局面 25
救赎 25
教学@@ 25
教材 25
数不胜数 25
数千@@ 25
敲定 25
斩首 25
斯科 25
新闻标题 25
旅客 25
旗 25
无情地 25
无所不能 25
无政府主义 25
无私 25
日新月异 25
日本公司 25
早教 25
时髦 25
明斯克 25
昭示 25
智@@ 25
暧昧 25
曲折 25
有远见 25
期望值 25
机械@@ 25
机械化 25
条文 25
枯荣 25
柴@@ 25
格雷厄姆 25
次优 25
歌手 25
正中 25
比方 25
比较@@ 25
毫@@ 25
民族党 25
沃尔特 25
油砂 25
沿用 25
法国社会党 25
波利 25
活生生 25
流逝 25
消费@@ 25
渎职 25
渡边 25
渴求 25
溃败 25
火力 25
炮@@ 25
点击 25
烟民 25
烦恼 25
焚烧 25
熟练工人 25
爵士 25
牌@@ 25
特尔 25
特种部队 25
犹@@ 25
犹太复国 25
猎@@ 25
猛然 25
玛丽 25
玩具 25
现实主义者 25
生产方式 25
生日 25
生气 25
由此看来 25
男女@@ 25
留意 25
皆@@ 25
皮涅拉 25
盖洛普 25
直线 25
相向 25
相等 25
真心实意 25
破碎 25
碎 25
碰 25
福山 25
离奇 25
科斯 25
税额 25
穆拉 25
穆迪 25
突发事件 25
窃@@ 25
竖起 25
童年 25
符合@@ 25
第一天 25
策略性 25
管控 25
粮 25
系于 25
系统地 25
素养 25
紧随 25
纺织业 25
经济大国 25
经济波动 25
给与 25
统计学 25
续@@ 25
美国大使馆 25
美好未来 25
老虎 25
胜者 25
胡塞 25
脊@@ 25
脏@@ 25
脱轨 25
膜 25
自私自利 25
自营 25
船上 25
艰辛 25
花旗银行 25
英勇 25
茶@@ 25
莎@@ 25
获准 25
菲派 25
蒂斯 25
蒙混过关 25
蕴藏 25
补充性 25
表格 25
裁判 25
西北 25
覆盖范围 25
视线 25
角@@ 25
让@@ 25
记忆犹新 25
记账 25
评议 25
试问 25
该地 25
语调 25
说成 25
谈判桌上 25
豪@@ 25
负债率 25
财政负担 25
货币汇率 25
购买量 25
贴近 25
赔款 25
赛事 25
赞比亚 25
跌至 25
踩 25
轮流 25
软件@@ 25
边上 25
达乌德 25
迁 25
迈 25
迈尔 25
运营商 25
近代 25
近年 25
这三大 25
这倒 25
这支 25
进口量 25
连贯性 25
适应力 25
逆向 25
逐一 25
道德观 25
邪恶轴心 25
配套 25
酒吧 25
酸@@ 25
采蝇 25
重新制定 25
重新配置 25
钥匙 25
错乱 25
闲暇 25
阿列克谢 25
阿尔茨海默 25
阿鲁纳 25
附庸 25
雨水 25
雾@@ 25
非洲之角 25
音乐会 25
顺理成章 25
领会 25
频频 25
风波 25
饮水 25
饼 25
首付 25
鬼城 25
魁北克 25
黄金价格 25
龙头 25
12@@ 24
169 24
1700 24
1937 24
AN@@ 24
Alex@@ 24
Ali 24
CRA 24
EE@@ 24
Free 24
Gen@@ 24
Intergovernmental 24
Janet 24
Kn@@ 24
MD@@ 24
Mad@@ 24
Mag@@ 24
Manuel 24
Medicare 24
Mil@@ 24
ND@@ 24
PISA 24
Pre@@ 24
RI 24
Review 24
SA@@ 24
SCAF 24
Val@@ 24
ain 24
ampgt 24
amplt 24
ano 24
ath 24
de@@ 24
ett 24
fer@@ 24
ice 24
igh@@ 24
ities 24
ka 24
mann 24
ory 24
pos@@ 24
q 24
red@@ 24
sch@@ 24
ubli@@ 24
ud 24
一下子 24
一再强调 24
一桶 24
一目了然 24
一般而言 24
万桶 24
上瘾 24
不失为 24
不妙 24
不断@@ 24
不稳 24
不良资产 24
专利申请 24
专用 24
世贸 24
丘 24
东帝汶 24
东西方 24
两国@@ 24
两面 24
丧@@ 24
个人利益 24
中以 24
丹@@ 24
主持人 24
举足轻重 24
之光 24
之选 24
于事无补 24
五百万 24
亚特兰大 24
享@@ 24
人际关系 24
仍远 24
从业者 24
从小 24
代之以 24
令人发指 24
企@@ 24
似曾相识 24
位处 24
作出反应 24
供应者 24
保护局 24
保持@@ 24
倒霉 24
傲 24
充分@@ 24
充满信心 24
兆头 24
先兆 24
先行 24
光环 24
光辉 24
光鲜 24
克曼 24
克里斯托弗 24
免职 24
公共安全 24
关爱 24
典礼 24
冲击波 24
凭空 24
凯斯 24
出租 24
分校 24
划拨 24
利亚@@ 24
剧本 24
剪@@ 24
副行长 24
动荡不安 24
包裹 24
北方邦 24
十七世纪 24
十分@@ 24
卖淫 24
南沙群岛 24
卡尔@@ 24
卢卡斯 24
印钞机 24
厄尔尼诺 24
历 24
历史悠久 24
原状 24
发明者 24
发生@@ 24
发芽 24
发表声明 24
口诛笔伐 24
只用 24
只能靠 24
可兑换 24
可知 24
各路 24
合资 24
吉姆 24
吉米 24
名列前茅 24
后天 24
味@@ 24
和约 24
唾手可得 24
噪音 24
四周 24
四天 24
国际竞争 24
地去 24
地盘 24
坚固 24
堆@@ 24
墓@@ 24
增支 24
壁 24
处以 24
外交@@ 24
够@@ 24
大大减少 24
大家庭 24
天使 24
夫妻 24
失职 24
头条新闻 24
奥林匹克 24
女权主义者 24
妈 24
妙 24
娱乐@@ 24
季节性 24
安东尼奥 24
安全形势 24
家庭@@ 24
对大 24
导火索 24
尊@@ 24
小事 24
小心谨慎 24
就业人数 24
就是说 24
屡@@ 24
岸@@ 24
巡逻 24
工业园 24
已近 24
巴方 24
巴西政府 24
干涸 24
庆 24
床@@ 24
底特律 24
开发者 24
开工 24
开放政策 24
开车 24
异端 24
异类 24
引起争议 24
当真 24
微调 24
德拉克马 24
志向 24
忘掉 24
总产量 24
恐怖行动 24
惰性 24
愚弄 24
感冒 24
成形 24
成泽 24
戒烟 24
房地 24
手腕 24
批发 24
承受能力 24
抱歉 24
拉拉 24
拉曼 24
拓宽 24
拘押 24
拿来 24
拿走 24
捕@@ 24
掘@@ 24
接踵而至 24
控股公司 24
控诉 24
推文 24
提示 24
搭 24
撰文 24
政治立场 24
整治 24
文化差异 24
斯堪 24
新能源 24
族人 24
无人@@ 24
无缝 24
明智之举 24
明知 24
明确规定 24
最底层 24
最高值 24
有过之而无不及 24
朊病毒 24
杂交 24
权威性 24
条路 24
杰克 24
杰克森 24
极右 24
极尽 24
柳叶刀 24
标明 24
核危机 24
核心内容 24
核算 24
根治 24
梳理 24
检查@@ 24
楷模 24
欠@@ 24
正直 24
残局 24
氏病 24
民间组织 24
求职者 24
汤 24
沾沾自喜 24
泥淖 24
洞 24
海军基地 24
涌 24
混 24
清迈 24
滑入 24
滞涨 24
灾@@ 24
煤矿 24
照明 24
爆@@ 24
爆炸式 24
爪牙 24
牧民 24
特斯拉 24
牺牲者 24
犀牛 24
独善其身 24
独家 24
猛虎 24
猜想 24
玩火 24
环境标准 24
现值 24
理学 24
琐碎 24
生物制药 24
用药 24
申请者 24
电视@@ 24
畏@@ 24
病夫 24
白领 24
盟 24
相互之间 24
相互指责 24
相继 24
省级 24
着眼点 24
睡眠 24
磷虾 24
祸@@ 24
科巴 24
积极主动 24
稀松 24
税种 24
空想 24
窄 24
窥@@ 24
符合中国 24
第八 24
第四季度 24
策@@ 24
筹措 24
精密 24
约旦河 24
约束性 24
纳伦 24
纸面 24
线粒体 24
终极目标 24
经济运行 24
经由 24
经纪人 24
维基百科 24
绵@@ 24
网民 24
罗亚尔 24
罗夫 24
罗斯@@ 24
美国法院 24
美苏 24
老一辈 24
老大 24
老龄 24
耻 24
职工 24
联想 24
肥@@ 24
胡 24
臣 24
自来水 24
良知 24
苏格拉底 24
苗头 24
英拉 24
莫不 24
营业 24
萨克逊 24
萨哈 24
萨拉热窝 24
葬送 24
蒸汽机 24
蛊惑人心 24
蜜月 24
表情 24
西斯 24
西方化 24
要害 24
规划署 24
触底 24
言下之意 24
言简意赅 24
议论 24
语言@@ 24
说谎 24
请@@ 24
课@@ 24
谢 24
貌 24
贝塔 24
负有责任 24
财政@@ 24
账目 24
购入 24
购房者 24
赫尔穆特 24
赶走 24
跨过 24
身体健康 24
身穿 24
躲@@ 24
转嫁给 24
辛苦 24
这边 24
进驻 24
远期 24
迥异 24
递增 24
途经 24
逮捕令 24
遏止 24
遣@@ 24
邦联 24
采矿 24
里夫 24
钢铁@@ 24
阿赫玛 24
降格 24
陷 24
隐喻 24
难上加难 24
难以捉摸 24
集体@@ 24
雨果 24
零散 24
青蒿素 24
项@@ 24
马耳他 24
驱散 24
魔咒 24
鲜为人知 24
鸭 24
麦当劳 24
! 23
.5 23
1955 23
6.2 23
6.6 23
6.9 23
7.6 23
AC 23
Ak@@ 23
Alexander 23
BP 23
Barry 23
Business 23
CA 23
CA@@ 23
CP 23
Com@@ 23
DDT 23
Dep@@ 23
Dom@@ 23
EM@@ 23
Er@@ 23
FA 23
GNI 23
Great 23
Green 23
Henry 23
Hol@@ 23
INDC 23
Jacques 23
Kell@@ 23
Kur@@ 23
Network 23
PR@@ 23
Public 23
RE@@ 23
Ro@@ 23
SA 23
SDP 23
SS@@ 23
Sam@@ 23
Sil@@ 23
State 23
Tri@@ 23
Viktor 23
ach 23
act 23
ado 23
alist 23
ba@@ 23
berg 23
bert 23
da 23
eed 23
ey@@ 23
fa@@ 23
ger 23
har@@ 23
ire 23
kin 23
ood 23
ound 23
ps 23
ris 23
ul 23
一小 23
一招 23
一月份 23
一桩 23
一点@@ 23
一身 23
不为 23
不便 23
不前 23
不可逾越 23
不向 23
不得@@ 23
不祥 23
不能容忍 23
两股 23
中产 23
于是乎 23
互相矛盾 23
亚利桑那州 23
亚美尼亚人 23
亟待 23
享 23
人口老化 23
人性化 23
人想 23
人民民主党 23
人间 23
亿多美元 23
任者 23
企业界 23
伏 23
众说纷纭 23
优先@@ 23
优渥 23
传出 23
伦敦@@ 23
但他却 23
但埃 23
低端 23
佬 23
使馆 23
侧重于 23
侵@@ 23
保守党政府 23
保护性 23
信守 23
信用风险 23
倍@@ 23
值@@ 23
假想 23
偏低 23
停下来 23
储 23
催化 23
儒教 23
先于 23
先行者 23
光芒 23
全套 23
全盘 23
全面战争 23
公用事业 23
具@@ 23
再三 23
冠 23
冲破 23
凶残 23
击溃 23
切割 23
判断力 23
利得税 23
别墅 23
剥@@ 23
办事 23
办公 23
勋爵 23
勒姆 23
募集 23
化工 23
十六 23
华丽 23
卡内基 23
卡拉奇 23
卫生部长 23
印美 23
卵 23
历程 23
原产地 23
原型 23
原油价格 23
原罪 23
厨房 23
参半 23
发展前景 23
受难 23
口味 23
各位 23
同性恋者 23
吝啬 23
听命于 23
吸毒者 23
呼唤 23
哀@@ 23
哈桑 23
哥伦比亚人 23
商业机会 23
喀@@ 23
喊@@ 23
喜剧 23
喝彩 23
四方 23
四百万 23
回扣 23
回调 23
国力 23
在乎 23
地平线 23
地雷 23
坎昆 23
坟墓 23
垫 23
堵@@ 23
塞浦路斯人 23
壳 23
外科手术 23
外贸 23
外逃 23
多米尼克 23
大众@@ 23
大跃进 23
夺得 23
奥斯卡 23
奥萨马 23
好运 23
妙@@ 23
姑@@ 23
孔 23
字面 23
存入 23
孙@@ 23
守护者 23
安在 23
宜@@ 23
宝莱坞 23
家务 23
对以 23
对抗性 23
对朝 23
对话者 23
小团体 23
小小的 23
尝@@ 23
尼亚@@ 23
尽如人意 23
尽量减少 23
岛@@ 23
巅峰 23
工程学 23
巨大变化 23
巴赫 23
布里 23
平坦 23
平等权利 23
年度预算 23
并不知道 23
广度 23
庄园 23
建树 23
建设@@ 23
开国元勋 23
弃@@ 23
弄巧成拙 23
弗利 23
弗朗哥 23
弗雷德 23
强于 23
强盗 23
强者 23
当回事 23
当是 23
彭斯 23
很能 23
德利 23
德曼 23
心怀 23
心怀不满 23
心情 23
怪圈 23
总司令 23
恫吓 23
想见 23
感激 23
成本上升 23
战区 23
截@@ 23
戴维斯 23
房地产业 23
所指 23
所涉 23
打分 23
打折 23
扣@@ 23
执行者 23
扩张政策 23
扫描 23
技术支持 23
抵抗运动 23
押注 23
拆分 23
拳 23
按时 23
挥霍无度 23
捐献者 23
排量 23
提法 23
援助国 23
摩尔 23
摩根士丹利 23
操之过急 23
放在首位 23
敬畏 23
数据保护 23
数百 23
敲@@ 23
斯宾塞 23
新一波 23
新颖 23
无一@@ 23
无以为继 23
无可厚非 23
无所@@ 23
无法@@ 23
既得利益者 23
日产 23
日本式 23
晚期 23
普罗迪 23
暖 23
更多人 23
月球 23
有名 23
未有 23
本性 23
机动 23
杭州 23
极左 23
枪击案 23
柏拉图 23
标普 23
标的 23
桎梏 23
桩 23
棒@@ 23
欺@@ 23
歌颂 23
此刻 23
此案 23
武装人员 23
毫无根据 23
气候@@ 23
氯@@ 23
水污染 23
汇回 23
治安 23
法国总理 23
波尔 23
泰姬陵 23
洞察 23
津@@ 23
浪费时间 23
海湾地区 23
溶@@ 23
激动 23
灵丹妙药 23
炸毁 23
烧毁 23
照样 23
特雷斯 23
狭义 23
珍珠港 23
甘 23
甚嚣尘上 23
生存@@ 23
生病 23
用场 23
用量 23
申请专利 23
电影@@ 23
电视机 23
疏@@ 23
盈利性 23
监督机构 23
盯 23
相关联 23
相扑 23
着眼 23
知之甚少 23
短命 23
确 23
示弱 23
礼仪 23
社会关系 23
社会秩序 23
祝贺 23
福萨 23
种族歧视 23
科学依据 23
科技@@ 23
秒钟 23
稀土 23
突击 23
窒息 23
笃信 23
第一波 23
第三轮 23
筹款 23
简短 23
紊乱 23
纪@@ 23
纳斯 23
纽约@@ 23
纽约大学 23
细胞@@ 23
绊脚石 23
经济负担 23
绑定 23
统领 23
维利 23
维希 23
绿 23
绿灯 23
缠@@ 23
缴 23
罔顾 23
美国司法部 23
美好生活 23
而动 23
耗@@ 23
肉食 23
肩负着 23
能源业 23
脑膜炎 23
脾气 23
腾挪 23
自我意识 23
自由落体 23
自行其是 23
致歉 23
致死率 23
花园 23
花言巧语 23
苦涩 23
获释 23
菲律宾人 23
萨斯 23
蒙特 23
藏身 23
蜂拥 23
衣钵 23
西半球 23
见于 23
觉 23
解放阵线 23
计量 23
订@@ 23
证券市场 23
识 23
词语 23
诗歌 23
诡异 23
详细@@ 23
诺德 23
谋取 23
谦卑 23
谨@@ 23
财务状况 23
贫 23
贫乏 23
贫困@@ 23
贫苦 23
购物中心 23
走狗 23
赶紧 23
趋紧 23
跌去 23
跌落 23
踏@@ 23
轨 23
转机 23
辞 23
返还 23
这帮 23
进攻性 23
连接起来 23
迟 23
送入 23
送往 23
那维亚 23
酶 23
里亚 23
里萨 23
重大事件 23
重量级 23
重金 23
钟摆 23
镜像 23
问到 23
阶级斗争 23
阻 23
阿拉伯语 23
降价 23
院长 23
隔离墙 23
集权主义 23
雷斯 23
震动 23
非法行为 23
领事馆 23
领头羊 23
频 23
颠倒 23
风头 23
风险性 23
飞速发展 23
食品@@ 23
饮@@ 23
饱@@ 23
首届 23
首领 23
驾车 23
骚动 23
高企@@ 23
高到 23
高度@@ 23
高明 23
高附加值 23
魂 23
魔@@ 23
齐聚一堂 23
0000 22
14@@ 22
Abd@@ 22
Ass@@ 22
CB@@ 22
CE@@ 22
Care 22
Century 22
DS 22
Dis@@ 22
Edward 22
Energy 22
Ev@@ 22
For@@ 22
Foreign 22
Freedom 22
Gary 22
Ha@@ 22
Her@@ 22
High 22
Hillary 22
IR@@ 22
Ir@@ 22
Ne@@ 22
Nuclear 22
Pri@@ 22
Ram@@ 22
Rom@@ 22
Sch 22
Science 22
Se@@ 22
Sn@@ 22
Steven 22
Stud@@ 22
Target 22
Tur@@ 22
UPA 22
Wh@@ 22
Yellen 22
ality 22
ari@@ 22
ast 22
bl@@ 22
cess 22
den 22
ents 22
era 22
ess 22
gr@@ 22
ich@@ 22
ick 22
ics 22
ip@@ 22
land 22
mon@@ 22
old 22
ora 22
port 22
ram 22
ski 22
tic@@ 22
uble 22
一两个 22
一出 22
一大部分 22
一头 22
一胎 22
一般地说 22
一般来说 22
七大 22
三思 22
上规模 22
下午 22
不予 22
不堪一击 22
不菲 22
不通 22
不顾一切 22
世俗化 22
个人化 22
中心@@ 22
中等教育 22
主因 22
主导型 22
之快 22
书记 22
二次大战 22
互补性 22
五六十年代 22
五十万 22
井喷 22
亡@@ 22
亦步亦趋 22
亨@@ 22
亨廷顿 22
人以 22
人口构成 22
人格@@ 22
仁 22
付给 22
代谢 22
令人兴奋 22
令人困惑 22
任何理由 22
任内 22
伍@@ 22
优步 22
优良 22
传给 22
伦敦经济学院 22
住房@@ 22
佐科维 22
佳@@ 22
供职 22
保险商 22
债主 22
偏 22
停 22
停电 22
偶像 22
偷走 22
偿 22
储@@ 22
僵持 22
入侵者 22
公共场合 22
关贸总协定 22
关进 22
关键词 22
具体地说 22
内斯 22
内生 22
再犯 22
冬季 22
决策层 22
冷酷 22
准备金率 22
凝@@ 22
几十万 22
凡 22
出产 22
分治 22
刊 22
刑期 22
刚果民主共和国 22
创业家 22
创造财富 22
初中 22
利益者 22
前进方向 22
加在一起 22
化学品 22
北半球 22
北海 22
十分明确 22
半球 22
卓有成效 22
南方共同市场 22
卫 22
卫生界 22
印度@@ 22
即将来临 22
厂房 22
历次 22
压得 22
厘米 22
发出声音 22
受到冲击 22
叙述 22
叛逆 22
口服 22
只顾 22
司令 22
司法部门 22
吃掉 22
吃紧 22
各式 22
合伙人 22
合计 22
后门 22
哺乳动物 22
唾弃 22
善良 22
国际能源机构 22
地看 22
坏处 22
垂直 22
城乡 22
城市@@ 22
基础教育 22
复兴党 22
外交家 22
大不@@ 22
大失所望 22
大学@@ 22
大幅度提高 22
大湾 22
大获 22
夷为平地 22
夹 22
奥夫 22
安全措施 22
安吉拉 22
完毕 22
密歇根 22
少得 22
尖 22
尚有 22
居伦 22
希曼 22
帮忙 22
常设 22
干系 22
平和 22
平权 22
平滑 22
并驾齐驱 22
庄@@ 22
库尔 22
庭@@ 22
庭审 22
开展业务 22
开幕 22
弊病 22
弱国 22
当权 22
彼得森 22
彼时 22
径 22
得罪 22
循@@ 22
心声 22
念@@ 22
性关系 22
性生活 22
恐@@ 22
恢复过来 22
恰尔邦 22
恶棍 22
悄悄 22
悟 22
愈@@ 22
意指 22
愤@@ 22
成型 22
成本低 22
成本增加 22
成群结队 22
战犯 22
戴维营 22
所学 22
所获 22
才干 22
托管 22
扯 22
抓捕 22
押@@ 22
拉各斯 22
拔 22
拖垮 22
招牌 22
拦截 22
捞 22
掩@@ 22
描写 22
搜@@ 22
搜查 22
搬 22
搭便车 22
搭建 22
收拾残局 22
政要 22
故障 22
敌方 22
教育领域 22
文化遗产 22
斑@@ 22
斥 22
斯坦@@ 22
斯特@@ 22
斯特伐 22
斯特劳斯 22
新旧 22
新疗法 22
方都 22
无差别 22
无所不包 22
无所不用其极 22
无法忍受 22
无耻 22
无薪 22
时有 22
晚餐 22
普选 22
普遍现象 22
景观 22
有多@@ 22
朝圣者 22
末尾 22
本年度 22
杀人@@ 22
材@@ 22
杜特 22
杜马 22
杯水车薪 22
极致 22
校友 22
核大国 22
横财 22
此时此刻 22
殊@@ 22
民族团结 22
民族自决 22
民进党 22
水稻 22
沃尔夫冈 22
法学院 22
泰 22
活体 22
浏览 22
浪@@ 22
深受其害 22
混杂 22
渐 22
游泳 22
滑 22
潜伏 22
烟雾 22
烦@@ 22
煎熬 22
照护 22
爱尔兰人 22
牵连 22
特拉 22
特梅尔 22
特雷莎 22
猜疑 22
玩家 22
生命体 22
生物体 22
甲 22
电力公司 22
电量 22
疹 22
瘾 22
白沙瓦 22
皮埃尔 22
盎司 22
盛 22
石头 22
石油工业 22
砖@@ 22
确有 22
社论 22
祭@@ 22
祭出 22
私人机构 22
私密 22
税金 22
突如其来 22
站得住脚 22
站点 22
第一线 22
第二位 22
等同 22
答应 22
粗俗 22
精简 22
系统@@ 22
紧急@@ 22
累 22
繁文缛节 22
繁重 22
经济委员会 22
经济社会 22
绝缘 22
缩影 22
缺乏经验 22
缺水 22
罗姆 22
罗恩 22
美元兑 22
美国联邦储备委员会 22
老练 22
而应 22
而成 22
耗 22
联动 22
联合利华 22
联想起 22
胶@@ 22
能源消耗 22
腐朽 22
自然科学 22
自给 22
自贸区 22
致残 22
致裂法 22
苦果 22
莱茵 22
获得胜利 22
萨尔维尼 22
萨特 22
蒙代尔 22
蓝色 22
蓝领工人 22
藩篱 22
血红蛋白 22
表达@@ 22
表露无遗 22
衰退期 22
被迫辞职 22
西北大学 22
西姆 22
解放运动 22
詹@@ 22
计数 22
计算能力 22
诀窍 22
试探 22
该案 22
语气 22
误入歧途 22
说不定 22
谁@@ 22
谚语 22
豪赌 22
负面效应 22
责难 22
贫血 22
赎罪 22
赞叹 22
起效 22
超高 22
越来越低 22
跃升 22
身居 22
转入 22
转播 22
较强 22
输血 22
达尔文主义 22
迅@@ 22
过错 22
迈勒 22
迪尔@@ 22
退税 22
送上 22
选中 22
道琼斯 22
遗址 22
遗留下来 22
遭殃 22
那年 22
重债国 22
金日成 22
金枪鱼 22
钓鱼 22
钟爱 22
钢材 22
钻 22
铁丝网 22
铎 22
链接 22
锋@@ 22
锐减 22
长官 22
长征 22
问题重重 22
闻名于世 22
阅 22
阿兰 22
阿盟 22
阿赫 22
陆续 22
隐形 22
隶属于 22
雄心壮志 22
雨@@ 22
雷德 22
雷达 22
非市场 22
顶点 22
顽强 22
颂扬 22
颜面 22
飘@@ 22
马约 22
马英九 22
高等法院 22
黯然失色 22
12.5 21
1917 21
23andMe 21
260 21
7.4 21
AD 21
Ahm@@ 21
As@@ 21
BRCA2 21
Brown 21
CF@@ 21
CRISPR 21
Cal@@ 21
Cap@@ 21
Draghi 21
Fr@@ 21
GAVI 21
Gl@@ 21
IDA 21
IEA 21
IT@@ 21
LGBT 21
MFF 21
Mal@@ 21
Med@@ 21
Medic@@ 21
Michel 21
Mohamed 21
My@@ 21
Osborne 21
Reddit 21
STEM 21
Si@@ 21
Tax 21
Tom 21
Y 21
You@@ 21
ali 21
ap 21
ata 21
can 21
ear@@ 21
elle 21
ern 21
eth@@ 21
hat 21
ism 21
ong 21
oor 21
ou 21
ould 21
our 21
tin@@ 21
tions 21
tweet 21
vi@@ 21
æ 21
一帆风顺 21
一旁 21
一步步 21
一端 21
一纸空文 21
一般化 21
一长串 21
一页 21
三支 21
三星 21
三类 21
三边 21
上旬 21
上述情况 21
下场 21
下层 21
下结论 21
不具 21
不可动摇 21
不知所措 21
不称职 21
不约而同 21
世界之最 21
世界领先 21
两度 21
两性 21
严惩 21
严重错误 21
中东战争 21
中央委员会 21
中心化 21
主旨 21
乐施会 21
书写 21
书名 21
亏 21
互相冲突 21
五家 21
亡 21
交付 21
交通事故 21
交通运输 21
亲手 21
人工@@ 21
人类文明 21
以比 21
伊凡 21
会员国 21
传授 21
传统媒体 21
伯克利分校 21
住院 21
佩里 21
使出 21
侥幸 21
侧面 21
俄亥俄州 21
俄勒冈州 21
俄罗斯@@ 21
信件 21
信心危机 21
值得一提的是 21
偏右 21
做饭 21
元凶 21
党首 21
全力以赴 21
公司@@ 21
公司股票 21
共进 21
典 21
冷藏 21
冷酷无情 21
减债 21
凑@@ 21
几千年 21
几点 21
划时代 21
利兹 21
到期日 21
制衣 21
刷 21
加尔@@ 21
努力实现 21
匹兹堡 21
十二@@ 21
十几岁 21
十字军 21
千亿美元 21
升迁 21
半导体 21
单凭 21
卢斯科尼 21
却@@ 21
压垮 21
反犹太 21
发人深省 21
发行人 21
受害人 21
变换 21
变革性 21
叛国 21
叛徒 21
只消 21
可信性 21
可逆 21
号码 21
各政党 21
各邦 21
合在一起 21
名存实亡 21
后遗症 21
吵@@ 21
吸收能力 21
咆哮 21
和平时期 21
咖啡@@ 21
哀悼 21
哈格 21
哮喘 21
售价 21
回潮 21
围攻 21
国防@@ 21
国际奥委会 21
国际法院 21
土豆 21
坍塌 21
坏人 21
坦白 21
坦诚 21
基本要素 21
堤 21
增加出口 21
壮@@ 21
备用 21
复 21
多亿 21
多岁 21
多米诺骨牌 21
夥伴 21
大幅度降低 21
大灾难 21
天平 21
天皇 21
太长 21
头号 21
夸大其词 21
奥班 21
好评 21
如此一来 21
姓名 21
媒 21
嫌疑犯 21
存亡 21
季奇 21
安乐死 21
安妮 21
安德森 21
安慰剂 21
完全相同 21
宏@@ 21
官邸 21
定下 21
宣示 21
家政 21
容易接受 21
对华关系 21
对华政策 21
封面 21
小学生 21
少有 21
尔森 21
山姆 21
工业@@ 21
工具箱 21
巧克力 21
布拉特 21
年级 21
幸@@ 21
幻 21
幻@@ 21
幻象 21
幽@@ 21
幽默 21
应是 21
廉@@ 21
建构 21
开去 21
开张 21
强烈抗议 21
当属 21
彭@@ 21
律@@ 21
得利 21
德鲁兹 21
必然结果 21
忍 21
怒不可遏 21
性别差异 21
恶毒 21
慎重 21
戈兰高地 21
战斗@@ 21
截止期 21
所欲 21
所见 21
所述 21
手工 21
手机@@ 21
扑热息痛 21
扫除 21
扬言 21
投票表决 21
报价 21
抵@@ 21
担负起 21
担起 21
拉夫罗夫 21
拉开@@ 21
拉德 21
拥堵 21
拧@@ 21
拼 21
挥@@ 21
据报 21
掌@@ 21
掏空 21
探寻 21
接受者 21
推上 21
搅@@ 21
搞清楚 21
支持性 21
政治形势 21
敏@@ 21
敏感度 21
敏锐地 21
教育者 21
数以 21
数值 21
数千年 21
斯克 21
斯塔@@ 21
新意 21
新陈代谢 21
方才 21
施政 21
旁边 21
旋@@ 21
无可置疑 21
无数次 21
无穷的 21
早晚 21
易得 21
春@@ 21
显现出 21
普通百姓 21
晴雨表 21
更慢 21
曾一度 21
替代者 21
最前沿 21
有所@@ 21
有益于 21
望而却步 21
朝圣 21
未获 21
本拉登 21
本轮 21
本金 21
朱 21
杞人忧天 21
板@@ 21
柴 21
根本就是 21
格雷@@ 21
梅德 21
检 21
检察长 21
槽 21
橄榄枝 21
欠发达国家 21
欣慰 21
欧洲联盟 21
款@@ 21
正值 21
毒贩 21
比比皆是 21
民权运动 21
民生 21
水下 21
沉 21
沙特政府 21
流血事件 21
海报 21
海路 21
涌现出 21
深恶痛绝 21
混凝土 21
渔场 21
滑稽 21
火热 21
炒作 21
点头 21
焕然一新 21
照看 21
爆出 21
爆发式 21
牟利 21
特许 21
狭小 21
环境因素 21
环绕 21
现实生活 21
瓦夫 21
甘愿 21
甚远 21
生命@@ 21
生死 21
甩@@ 21
电价 21
电话@@ 21
留任 21
皈依 21
盛宴 21
直接对话 21
盾 21
真实性 21
知觉 21
知识经济 21
石油业 21
硫 21
碾@@ 21
祖母 21
禁锢 21
离心机 21
离散 21
秋@@ 21
科罗拉多州 21
积 21
称号 21
称道 21
税项 21
稳定@@ 21
稳步增长 21
突进 21
窗 21
竞标 21
竭 21
第一阶段 21
第二阶段 21
笼 21
笼子 21
筑墙 21
粉 21
索洛 21
紧接着 21
繁忙 21
红十字会 21
纤维 21
经常出现 21
经济特区 21
统计学家 21
维亚 21
维护和平 21
编码 21
编程 21
网络化 21
翻新 21
耀武扬威 21
而出 21
而行 21
联署 21
联邦@@ 21
肺癌 21
胡安 21
脉@@ 21
脑海中 21
腐@@ 21
膳食 21
自助 21
致命性 21
芬@@ 21
花大 21
茁壮成长 21
荣光 21
莫衷一是 21
莫里斯 21
莱西 21
菜@@ 21
萨缪尔 21
萨缪尔森 21
落空 21
董事长 21
葬 21
蒙古 21
蒙德 21
虚 21
补足 21
衰竭 21
被困 21
被称作 21
裕仁 21
裸@@ 21
西太平洋 21
要紧 21
誉 21
誉@@ 21
计划@@ 21
证人 21
该片 21
调整计划 21
谢瓦尔德纳泽 21
谷@@ 21
谷底 21
贡 21
贡献者 21
财经 21
贪@@ 21
贫@@ 21
贬@@ 21
费希尔 21
赐 21
赫尔@@ 21
起色 21
超导 21
超然 21
足球场 21
距今 21
身患 21
躺 21
轮廓 21
较慢 21
输电 21
边境地区 21
过境 21
过重 21
这两点 21
远不如 21
连通 21
逢@@ 21
逾 21
遮羞布 21
那一刻 21
那儿 21
酗酒 21
酷@@ 21
重合 21
重大贡献 21
重温 21
铁杆 21
铺 21
镀金 21
问世 21
问道 21
阅@@ 21
队长 21
阳 21
阿尔巴尼亚人 21
阿拉斯加 21
阿登纳 21
隧道 21
霍尔丹 21
霍布斯 21
静态 21
非官方 21
顺应 21
顽@@ 21
顾@@ 21
颇受欢迎 21
饭 21
饮酒 21
马基雅 21
马戏团 21
鲍勃 21
鸡蛋 21
190@@ 20
1918 20
280 20
40@@ 20
AMLO 20
Airbnb 20
BM@@ 20
BR@@ 20
BRCA1 20
China 20
Copenhagen 20
Dani 20
Defense 20
Economics 20
El 20
FC 20
FDA 20
Far@@ 20
Gazprom 20
Ge@@ 20
Gh@@ 20
HC 20
IC 20
Jackson 20
Jared 20
Liv@@ 20
May@@ 20
Medicaid 20
Mer@@ 20
Organization 20
Pay@@ 20
Pesa 20
RBI 20
ST@@ 20
Sec@@ 20
Society 20
Vladimir 20
Women 20
amm@@ 20
ards 20
ave 20
ect@@ 20
ena 20
ha 20
http 20
ik 20
ish 20
lo 20
ne@@ 20
ns 20
om 20
out 20
red 20
sa 20
sion 20
st 20
tin 20
tiv@@ 20
una 20
ust@@ 20
ven@@ 20
yan 20
一些则 20
一分为二 20
一切照旧 20
一吨 20
一案 20
一般性 20
一辈子 20
一阵 20
上合 20
不一而足 20
不可同日而语 20
不带 20
不折不扣 20
不断涌现 20
不端 20
不能@@ 20
不见@@ 20
不论如何 20
不起眼 20
世界大国 20
丛林 20
丢@@ 20
两支 20
个人收入 20
中仅 20
中介机构 20
中投 20
中毒 20
为名 20
为数众多 20
为重 20
主动性 20
之举 20
之友 20
乏善可陈 20
乐团 20
争取时间 20
事与愿违 20
事是 20
二号 20
互惠互利 20
亚伯拉罕 20
交到 20
交易系统 20
交通工具 20
产假 20
亲人 20
人权记录 20
从容 20
企 20
优异 20
伙 20
传到 20
传感器 20
传承 20
伴 20
低落 20
佐利克 20
何塞 20
何方 20
供养 20
供奉 20
依法 20
依附 20
侦@@ 20
便利性 20
俄罗斯族 20
信仰者 20
信服 20
停下 20
光明@@ 20
克里@@ 20
党执政 20
全球股市 20
公之于众 20
公开化 20
关注度 20
具体来说 20
再现 20
冒险主义 20
写下 20
冬 20
决策程序 20
几何 20
几名 20
出口@@ 20
分布式 20
分行 20
分辨 20
分隔 20
则否 20
利库德 20
利息收入 20
别无二致 20
制成 20
前列腺癌 20
力学 20
功效 20
加西亚 20
劣等 20
势不可挡 20
区内 20
十六世纪 20
升职 20
卡洛斯 20
卢梭 20
危急 20
厕所 20
原子@@ 20
原子能 20
去年同期 20
反覆无常 20
反革命 20
发射@@ 20
发展潜力 20
取得联系 20
受其 20
口径 20
召回 20
可供 20
可变 20
可喜 20
台湾人 20
右@@ 20
号@@ 20
各行各业 20
同一天 20
同学 20
同情者 20
君@@ 20
吸 20
吻合 20
哈瓦那 20
唉 20
商议 20
喜好 20
喧嚣 20
嘲弄 20
四家 20
回响 20
回旋余地 20
国债券 20
国土面积 20
国家计划 20
圣城 20
在所难免 20
地方@@ 20
地球@@ 20
坛 20
坠毁 20
坠落 20
坡 20
基加利 20
基本原理 20
基线 20
塞西 20
声浪 20
大戏 20
大户 20
大猩猩 20
大肆宣传 20
大跌眼镜 20
天翻地覆 20
太阳@@ 20
头痛 20
夺权 20
奖牌 20
奥尔@@ 20
奴@@ 20
奶制品 20
奸 20
好友 20
如此等等 20
姑且 20
威信 20
威慑力 20
孔@@ 20
存款人 20
孙子 20
学龄儿童 20
完全符合 20
实惠 20
宠@@ 20
宾夕法尼亚州 20
寡头政治 20
对前 20
寺 20
将领 20
小巫见大巫 20
尔夫 20
尽人皆知 20
工业园区 20
工程@@ 20
巨大进步 20
巴尔@@ 20
巴德 20
巴斯克 20
帐篷 20
帕金森病 20
帖子 20
常规武器 20
平均年龄 20
平时 20
广播@@ 20
广泛应用 20
座@@ 20
庸@@ 20
引 20
强硬态度 20
当口 20
德国@@ 20
德国队 20
德维尔 20
志同道合 20
忘@@ 20
性暴力 20
性能 20
恐慌性 20
悬 20
惶@@ 20
惹@@ 20
愈发 20
愚@@ 20
慈善事业 20
戏@@ 20
战术性 20
所写 20
手无寸铁 20
扑朔迷离 20
扑灭 20
扣押 20
投下 20
投票决定 20
抢劫 20
抢夺 20
抢眼 20
拘捕 20
挂@@ 20
指摘 20
挪用 20
振奋 20
提速 20
搞错 20
搭档 20
撒哈拉沙漠 20
改为 20
效能 20
敏 20
敞开大门 20
敬而远之 20
数以万计 20
数学家 20
文档 20
斩@@ 20
断裂 20
新娘 20
新闻网 20
族@@ 20
无关痛痒 20
无功而返 20
无孔不入 20
无脑 20
时薪 20
昭然若揭 20
显例 20
暗含 20
暴力犯罪 20
曾多次 20
未免 20
未知领域 20
本杰明 20
本雅明 20
杂 20
来访 20
果敢 20
染色体 20
样@@ 20
根植 20
梅尔 20
欧亚大陆 20
歇 20
歌曲 20
步枪 20
武器化 20
比亚 20
毛骨悚然 20
毫无关系 20
氟 20
江泽民 20
池@@ 20
沿@@ 20
泄@@ 20
法兰西共和国 20
法律义务 20
泡 20
泰尔 20
流亡@@ 20
浴@@ 20
海外投资 20
消费主义 20
消防@@ 20
涉及面 20
涨价 20
淡 20
深海 20
渗入 20
游离 20
湖泊 20
漏@@ 20
演出 20
灰飞烟灭 20
炸 20
炸@@ 20
熔炉 20
熟@@ 20
爱情 20
特殊性 20
犀利 20
犯罪团伙 20
狂飙 20
狼 20
狼@@ 20
现为 20
现代性 20
现政府 20
现货 20
珀 20
琳娜 20
琴 20
瑞安 20
瓜 20
生活费 20
生物武器 20
用户@@ 20
电信@@ 20
留下来 20
留学 20
略显 20
痼疾 20
白皮书 20
百万@@ 20
盲点 20
相互尊重 20
看做 20
看得见 20
看电视 20
真人秀 20
真有 20
着想 20
睁@@ 20
瞬息万变 20
瞬间 20
矣 20
知名度 20
确凿 20
碳化物 20
社会变革 20
社会学 20
神经科学 20
票据 20
秋季 20
积极@@ 20
稻@@ 20
空话 20
竟@@ 20
第一场 20
第九条 20
第二任 20
策划者 20
粗鲁 20
精 20
精炼 20
精神障碍 20
索尔 20
紧要 20
累进税 20
红军 20
红海 20
纸老虎 20
终端 20
经济趋势 20
结尾 20
绕开 20
续 20
缓 20
编造 20
羁绊 20
美国大学 20
聚变 20
肩上 20
肾@@ 20
胜负 20
脑袋 20
脱离@@ 20
脱胎 20
自决 20
自动@@ 20
自家 20
自认 20
致敬 20
航线 20
艰@@ 20
艾略特 20
英吉利海峡 20
茅@@ 20
莫汉 20
蒂萨 20
藏匿 20
虐@@ 20
蜕变 20
街@@ 20
见面 20
规矩 20
视觉 20
解除武装 20
誓@@ 20
警卫队 20
讨 20
诡计 20
误差 20
诸脑 20
读书 20
谢钦 20
贝尔@@ 20
贴现 20
资本积累 20
赌徒 20
赞助人 20
超强 20
越走越远 20
躲 20
轰然 20
轻蔑 20
轿车 20
边沁 20
迁@@ 20
迁就 20
迈克 20
运动会 20
运输成本 20
近距离 20
这张 20
这股 20
进取 20
迟@@ 20
迟到 20
迟钝 20
迷茫 20
选拔 20
邦@@ 20
邮报 20
郭 20
酿成 20
采取相应 20
重型 20
重大成就 20
重夺 20
重要@@ 20
金矿 20
金融资本 20
锐 20
错位 20
长城 20
门口 20
队员 20
阶梯 20
阿拉 20
阿拉@@ 20
附和 20
陪@@ 20
隔阂 20
隙 20
难事 20
霾 20
青 20
面世 20
顶部 20
顺风 20
飞涨 20
饮用 20
饱和 20
饿@@ 20
马克斯 20
驱赶 20
骄傲地 20
骤降 20
高品质 20
高瞻远瞩 20
高级@@ 20
高铁 20
魔力 20
鱼肉 20
麦康奈尔 20
黑洞 20
鼎@@ 20
101 19
115 19
1600 19
1870 19
1913 19
200@@ 19
5.3 19
7500 19
8.4 19
Ag@@ 19
BIS 19
Banking 19
Bas@@ 19
CNN 19
Coalition 19
Comp@@ 19
Cur@@ 19
DR 19
Declaration 19
EA 19
EMU 19
EP 19
ES 19
Eichengreen 19
FBI 19
Facility 19
Food 19
Google 19
Hor@@ 19
IAEA 19
Ibrahim 19
Infrastructure 19
Kon@@ 19
Liber@@ 19
Management 19
Mohammed 19
Monetary 19
Nations 19
Oc@@ 19
PC 19
People 19
Rah@@ 19
Rodrik 19
SD@@ 19
Sen 19
UN 19
ams 19
att@@ 19
bi@@ 19
cap@@ 19
cer@@ 19
equ@@ 19
ere 19
esh 19
form@@ 19
gl@@ 19
inter@@ 19
oo 19
oun@@ 19
rec@@ 19
rig@@ 19
tic 19
一宗 19
一百 19
一百多万 19
一章 19
一言以蔽之 19
上升幅度 19
上司 19
上移 19
下降时 19
不以为然 19
不休 19
不可开交 19
不同点 19
不在意 19
不择手段 19
不相干 19
不足之处 19
专制政府 19
专断 19
专横 19
东海岸 19
两件 19
两组 19
两轮 19
两面@@ 19
中日关系 19
中非 19
丰 19
串@@ 19
临时政府 19
临界 19
主力 19
主教 19
举世@@ 19
之义 19
之事 19
乘 19
书店 19
争夺战 19
争论不休 19
二线 19
交火 19
交通拥堵 19
亦非 19
亲朋好友 19
亲王 19
亵渎 19
人口稠密 19
人文学科 19
人比 19
人要 19
人身安全 19
以供 19
以新 19
以极 19
以示 19
仰@@ 19
任人唯亲 19
任重道远 19
伊斯@@ 19
休眠 19
优先级 19
优柔寡断 19
伟 19
传播@@ 19
传来 19
伸张 19
体外受精 19
佛教徒 19
俄美 19
信息系统 19
俩 19
修昔底 19
债台高筑 19
做成 19
偿@@ 19
傅@@ 19
元件 19
元首 19
充耳不闻 19
光有 19
克劳 19
克劳斯 19
克拉克 19
党专政 19
全无 19
全面@@ 19
八国 19
公共设施 19
公司债务 19
六分之一 19
关联性 19
兴衰 19
具体措施 19
兼具 19
内讧 19
写手 19
军事法庭 19
农村@@ 19
减退 19
出击 19
出版商 19
击退 19
刑罚 19
划归 19
利用自身 19
制片人 19
剃头 19
剧院 19
割礼 19
力挽狂澜 19
加大力度 19
劣质 19
劫 19
医师 19
医疗保障 19
十万 19
十二个 19
千名 19
午夜 19
华而不实 19
南韩 19
占领者 19
卡瓦 19
卡舒吉 19
危 19
危言耸听 19
卵@@ 19
厄@@ 19
厄尔 19
参众两院 19
参会 19
双眼 19
反共 19
发行者 19
取舍 19
受试者 19
变幻莫测 19
叙@@ 19
可循 19
史蒂文 19
司法@@ 19
各个方面 19
各有不同 19
合伙 19
合资企业 19
吉拉尼 19
名义工资 19
后腿 19
吐@@ 19
吓 19
吞 19
含糊不清 19
吹捧 19
呈@@ 19
周日 19
周转 19
咒语 19
咸@@ 19
哈利 19
哪条 19
喀麦隆 19
喜不喜欢 19
囊中 19
四位 19
四月份 19
固定@@ 19
国会山 19
国际公约 19
囿于 19
圈套 19
圣徒 19
在线教育 19
坚不可摧 19
坚韧 19
垂死挣扎 19
埃米尔 19
基因突变 19
堵塞 19
增长期 19
外科医生 19
外面 19
多恩 19
大型项目 19
大而 19
天天 19
失业人数 19
失学 19
奔赴 19
奠基 19
奥尼尔 19
奶牛 19
好于 19
好过 19
如履薄冰 19
姆斯 19
威吓 19
孤家寡人 19
安德@@ 19
实效 19
宣誓就职 19
宰@@ 19
家伙 19
家具 19
家门 19
寄 19
富足 19
对埃 19
导航 19
封建 19
射杀 19
少年 19
尤甚 19
屁股 19
届满 19
屏幕 19
峰 19
工厂化 19
巨额利润 19
差点 19
巴兰 19
巴勒斯坦解放组织 19
巴马 19
布里斯班 19
布隆 19
希腊@@ 19
帐@@ 19
常有 19
年仅 19
年薪 19
年龄@@ 19
广东 19
建筑工人 19
弄清 19
引人关注 19
引以为豪 19
归结 19
彼 19
很久 19
徒刑 19
得票 19
微粒 19
心照不宣 19
心甘情愿 19
忌 19
怀俄明州 19
性侵犯 19
恐怖事件 19
恨@@ 19
恩里克 19
恼火 19
想得到 19
意向 19
感到高兴 19
感同身受 19
感染率 19
愧疚 19
慎之又慎 19
慕@@ 19
懒惰 19
成功率 19
或能 19
战壕 19
战略眼光 19
所有制 19
手持 19
手指 19
打赌 19
托尔斯泰 19
托辞 19
执业 19
扼@@ 19
投放 19
抗氧化剂 19
抢先 19
拉伊 19
拉夫 19
拉迪奇 19
指手画脚 19
捕 19
探 19
接班 19
摘@@ 19
擅@@ 19
操 19
攻 19
放之四海而皆准 19
放纵 19
政绩 19
整体利益 19
整场 19
整理 19
文中 19
斜@@ 19
断定 19
斯勒 19
斯图尔特 19
新世纪 19
新技能 19
新月 19
新理念 19
新纳粹 19
旗@@ 19
无怪乎 19
无神论者 19
日程表 19
早年 19
时为 19
时数 19
昙花一现 19
映@@ 19
晦涩 19
最出色 19
最后通牒 19
有利条件 19
有机体 19
有限责任 19
服刑 19
服务质量 19
服饰 19
未竟 19
朴正熙 19
权威人士 19
极好 19
林登 19
柏@@ 19
标识 19
株 19
根本@@ 19
格兰@@ 19
梅隆 19
棋盘 19
欣 19
欧共体 19
止步 19
正义@@ 19
正统性 19
步履维艰 19
步行 19
死亡威胁 19
殖民化 19
殖民者 19
每名 19
民主自由 19
民族运动 19
氧化 19
水产 19
汤姆 19
沉睡 19
沸@@ 19
泥炭 19
泰德 19
活下去 19
测定 19
海军陆战队 19
海边 19
消融 19
涨势 19
液体 19
清盘 19
渐进性 19
滑坡 19
满怀 19
满足感 19
漏油 19
灾区 19
烈 19
烈士 19
热切 19
焚@@ 19
焦躁 19
照搬 19
特拉@@ 19
特蕾莎 19
特赦 19
特郎普 19
现代科学 19
现实状况 19
现政权 19
现金@@ 19
生产资料 19
生活水准 19
生物科技 19
用电 19
申科 19
电器 19
电子产品 19
电视频道 19
畅通 19
畜牧业 19
疑欧 19
登场 19
登革热 19
皇冠 19
皮克 19
监督机制 19
着重 19
石油危机 19
硅 19
礼拜 19
秃@@ 19
科雷亚 19
秘 19
积极分子 19
究 19
突触 19
第一家 19
第七@@ 19
第二代 19
第五个 19
第六@@ 19
粮食价格 19
精神分裂症 19
索偿 19
约束条件 19
纵使 19
纺织 19
结核 19
绝对优势 19
绞@@ 19
统一@@ 19
统帅 19
继之 19
绳之以法 19
罂粟 19
罕 19
美化 19
翁 19
而论 19
耻@@ 19
联合国人权委员会 19
聚合物 19
背心 19
能起 19
脸上 19
脸谱 19
腰@@ 19
腾出 19
自焚 19
自行@@ 19
臭@@ 19
致癌 19
舌 19
舟 19
航天 19
航道 19
艳羡 19
苏共 19
若能 19
荒诞 19
荷尔蒙 19
莱德 19
获得性 19
菜单 19
菲利普斯 19
萦绕 19
薄@@ 19
虫病 19
虽@@ 19
蚊 19
蜂@@ 19
血管 19
行凶 19
补充@@ 19
裁减 19
裂变 19
西岸地区 19
西方式 19
要挟 19
覆灭 19
观测 19
觊觎 19
警卫 19
警察部队 19
计算机科学 19
认知@@ 19
讨论会 19
训 19
训练营 19
议会制 19
评 19
诘难 19
误算 19
说客 19
课本 19
调停人 19
谋划 19
谢赫 19
谦逊 19
谬论 19
豆@@ 19
责备 19
败坏 19
败给 19
账面 19
贩子 19
贫民 19
贸然 19
赡养 19
超重 19
越低 19
趣 19
距 19
跨越国界 19
跨部门 19
踪迹 19
躁 19
身在 19
转身 19
软弱无力 19
轻描淡写 19
辉 19
输油管道 19
输送到 19
辨认 19
过山车 19
过得 19
过长 19
迈阿密 19
进步@@ 19
迥然不同 19
迷人 19
迷信 19
迹@@ 19
追捕 19
逃生 19
逆袭 19
通话 19
逝 19
遇见 19
遍地开花 19
遗传@@ 19
郑@@ 19
酋长 19
酋长国 19
重大突破 19
重新部署 19
鉴@@ 19
钻探 19
银行信用 19
锦标赛 19
间谍活动 19
防御能力 19
阴险 19
阿拉伯联合酋长国 19
除掉 19
随机@@ 19
难以预料 19
集体利益 19
零下 19
零售@@ 19
霍姆 19
顶住 19
顾忌 19
飘忽不定 19
飞跃 19
飞速 19
食品行业 19
食用@@ 19
餐桌 19
馅饼 19
马来人 19
马首是瞻 19
高低 19
高性价比 19
高枕无忧 19
高速铁路 19
鸟@@ 19
黄豆 19
默默无闻 19
鼠@@ 19
齿@@ 19
0.05 18
1400 18
1789 18
1907 18
195 18
1959 18
2400 18
8.6 18
AP 18
African 18
All@@ 18
Anwar 18
Ash@@ 18
Av@@ 18
COP@@ 18
CP@@ 18
Case 18
Christian 18
Coun@@ 18
Dar@@ 18
Dav@@ 18
EBRD 18
ESA 18
FC@@ 18
Fa@@ 18
Finance 18
Francis 18
GPS 18
Harry 18
Hu@@ 18
Hum@@ 18
ICTY 18
Inter@@ 18
JPM 18
Jos 18
Key@@ 18
Lev@@ 18
Mah@@ 18
Mel@@ 18
Na@@ 18
Nat@@ 18
News 18
Nexus 18
Nik@@ 18
OECD 18
PDVSA 18
Pos@@ 18
Rad@@ 18
Saf@@ 18
Scott 18
Sergei 18
Sim@@ 18
States 18
Twenty 18
UNRWA 18
Warren 18
adi 18
ake 18
ame 18
ane 18
be 18
ber 18
co@@ 18
do 18
eff@@ 18
eh 18
ences 18
hm@@ 18
ici@@ 18
ission 18
la@@ 18
lic@@ 18
ok 18
ome 18
ros@@ 18
ution 18
一一 18
一众 18
一党制 18
一切顺利 18
一去不复返了 18
一口 18
一堆 18
一律 18
一心一意 18
一段@@ 18
一百周年 18
一飞冲天 18
一马当先 18
七月份 18
三管齐下 18
三轮车 18
上级 18
不争 18
不可收拾 18
不多 18
不好过 18
不怎么 18
不无 18
不朽 18
不止一次 18
不难看出 18
丘@@ 18
丙@@ 18
丛生 18
两翼 18
严肃认真 18
中一 18
中转 18
临 18
临时工 18
丸 18
举例来说 18
之作 18
之意 18
之数 18
之母 18
之计 18
之风 18
乐队 18
九段 18
买不起 18
了如指掌 18
事关重大 18
二人 18
二元 18
亚尼 18
亨萨林 18
人口众多 18
人气 18
从中作梗 18
仓@@ 18
代币 18
令人欣慰 18
令人激动 18
仰光 18
仲裁者 18
伊玛目 18
伍 18
伐 18
休克 18
会计师 18
估量 18
但据 18
低息贷款 18
体育场 18
使团 18
依赖度 18
信息战 18
借以 18
借此机会 18
儿女 18
党羽 18
兜底 18
全境 18
全心全意 18
全能 18
八名 18
公允 18
公营 18
共谋 18
关怀 18
兴旺发达 18
其以 18
具体来讲 18
兽@@ 18
军事设施 18
决不会 18
凌@@ 18
减灾 18
几十亿 18
凡尔赛 18
凯文 18
凯瑟琳 18
出行 18
创造性地 18
判刑 18
办公@@ 18
功绩 18
动性 18
动能 18
北京@@ 18
北极熊 18
北韩 18
区位 18
医务人员 18
十天 18
千丝万缕 18
博格 18
卡耶夫 18
卢克 18
印有 18
危机四伏 18
即使如此 18
卸@@ 18
压迫者 18
友@@ 18
反复强调 18
发号施令 18
发型 18
发表意见 18
受贿 18
变异型 18
口实 18
召@@ 18
台面 18
司@@ 18
各层次 18
合意 18
合理@@ 18
吉特 18
名号 18
名誉扫地 18
启迪 18
吴@@ 18
吹 18
哄@@ 18
哈里斯 18
哥伦比亚政府 18
哨 18
售出 18
商务部长 18
商谈 18
啦 18
喉舌 18
喜忧参半 18
四十多年 18
回暖 18
回馈 18
国所 18
国际货币基金 18
国际金融公司 18
圆满@@ 18
土生土长 18
圣何塞 18
在校 18
地下@@ 18
场上 18
址 18
坐视不理 18
城市群 18
基因组学 18
基尔 18
填满 18
墓 18
壮举 18
外加 18
外援 18
多巴胺 18
多米尼加 18
多钱 18
大同小异 18
大帝 18
大有@@ 18
大都会 18
天内 18
太弱 18
失能 18
头部 18
奔波 18
奥巴桑乔 18
奥斯维辛 18
好人 18
好感 18
娘@@ 18
婚礼 18
婴 18
子孙 18
守法 18
安东尼 18
安插 18
完备 18
宏观政策 18
定理 18
实践者 18
宠儿 18
宣@@ 18
家门口 18
密友 18
密谋 18
富饶 18
寒冷 18
察觉到 18
尘 18
就业人口 18
就会 18
尼茨基 18
屡次 18
崩 18
工资收入 18
左右@@ 18
巴斯 18
币种 18
幕僚长 18
平均工资 18
平衡@@ 18
年景 18
并列 18
广州 18
庆@@ 18
库克 18
应用@@ 18
延 18
引述 18
弗格森 18
弦 18
归罪于 18
当一国 18
当众 18
形同虚设 18
形状 18
得票率 18
御@@ 18
微量 18
心想 18
心智 18
忙@@ 18
性虐待 18
怨声载道 18
悍然 18
患@@ 18
惜 18
愚昧 18
房屋贷款 18
打乱 18
托斯 18
扩建 18
扰 18
扶植 18
找回 18
抓紧 18
折衷 18
报应 18
抽出 18
拉克 18
拉比 18
拘@@ 18
指导思想 18
指数化 18
挣@@ 18
振 18
捕鲸 18
捷@@ 18
授课 18
排列 18
推升 18
推算 18
推而广之 18
提高产量 18
插入 18
插曲 18
揣@@ 18
摊 18
摩托车 18
摩西 18
撇开 18
播下 18
收入者 18
收复 18
改组 18
攻击者 18
政敌 18
政治气候 18
救市 18
救治 18
散发 18
数十个 18
数量级 18
整套 18
料到 18
断断续续 18
斯曼 18
斯特拉斯堡 18
新兴力量 18
新机制 18
新闻台 18
无产阶级 18
无休无止 18
无偿 18
无力@@ 18
无所适从 18
无果 18
无线 18
日本民主党 18
早上 18
时点 18
时节 18
昂@@ 18
明斯基 18
星巴克 18
星期@@ 18
星期天 18
显微镜 18
普及教育 18
普及率 18
暂缓 18
暗 18
暴发 18
最低值 18
最高级别 18
月末 18
有三大 18
有染 18
有线电视 18
朔 18
期货交易 18
未遂政变 18
本世纪初 18
术@@ 18
杀掉 18
杜瓦 18
束之高阁 18
松绑 18
果糖 18
枷锁 18
栖身 18
核事故 18
根据地 18
植树 18
模样 18
横向 18
欠佳 18
次序 18
欧洲式 18
此处 18
武库 18
毒素 18
毫无希望 18
民主制 18
汉斯 18
汽油价格 18
沉没 18
沥青 18
法兰西 18
法外 18
波顿 18
活动分子 18
测绘 18
浴 18
海滨 18
浸@@ 18
消 18
消耗量 18
深刻理解 18
湿@@ 18
满满地 18
演绎 18
灵长类 18
灾后 18
炒@@ 18
炙手可热 18
点名 18
热门话题 18
照此 18
煽风点火 18
燃 18
燃气 18
爱丽舍宫 18
爱国@@ 18
爱好者 18
片面 18
牢@@ 18
物价上涨 18
物价水平 18
特鲁多 18
狂妄 18
狐狸 18
狗@@ 18
猪@@ 18
环境署 18
现如今 18
现行政策 18
珀@@ 18
班子 18
理事国 18
甚大 18
生命科学 18
生存率 18
申报 18
电力系统 18
电视辩论 18
疲@@ 18
疲惫 18
病痛 18
痴人说梦 18
登月 18
皮肤 18
监护 18
盗版 18
盲@@ 18
直击 18
直到现在 18
相互合作 18
看不出 18
看过 18
眠 18
眼皮底下 18
短处 18
石油部门 18
砍掉 18
社会阶层 18
神学家 18
禽流感 18
私生活 18
私隐 18
秋 18
种植者 18
科研@@ 18
科鲁兹 18
科齐 18
积蓄 18
称谓 18
程序员 18
窗户 18
立足点 18
竞逐 18
竟 18
笑柄 18
笔记本电脑 18
符 18
第一夫人 18
第十 18
管理制度 18
类药物 18
精于 18
纯一 18
纳吉布 18
纳西 18
纵向 18
经不起 18
结构@@ 18
统一战线 18
统计局 18
继@@ 18
绰号 18
维修 18
缅甸政府 18
缓冲区 18
缺乏@@ 18
翻天覆地 18
耀@@ 18
耕 18
耳朵 18
耶稣 18
肝 18
肩负 18
育@@ 18
背井离乡 18
脑病 18
腐烂 18
自作自受 18
自保 18
自决权 18
自生自灭 18
航母 18
航路 18
艇 18
节约型 18
花招 18
苏丹政府 18
苏珊 18
范龙佩 18
荒 18
荒漠化 18
莫伊 18
莫名其妙 18
莫拉 18
莫西 18
菌@@ 18
萨克 18
葛@@ 18
葡萄酒 18
蒂尔 18
行星 18
表征 18
裤 18
西南部 18
解放组织 18
言不@@ 18
言之@@ 18
言行 18
言语 18
讲座 18
许 18
识字 18
诈骗 18
误 18
读过 18
调查者 18
谜团 18
谨小慎微 18
贝京 18
财产权利 18
财政预算 18
账@@ 18
贴现率 18
赔付 18
赢回 18
赶下 18
跛脚 18
践行 18
蹒跚 18
蹩脚 18
辅导 18
辩护者 18
边远地区 18
边防 18
达伊 18
近在咫尺 18
近日 18
这名 18
进口成本 18
进口税 18
违规行为 18
选择权 18
通关 18
通谕 18
遥相呼应 18
遥遥无期 18
邓@@ 18
邮政 18
邻 18
郁@@ 18
配方 18
释放出来 18
重围 18
重症 18
重重@@ 18
金墉 18
鉴定 18
钳制 18
锁 18
锁@@ 18
闲 18
间歇性 18
阿根廷政府 18
阿波罗 18
陆克文 18
陈腐 18
险胜 18
随便 18
难度很大 18
难看 18
雅各布 18
零星 18
零点 18
雷茨 18
霍华德 18
非法活动 18
靡 18
面上 18
面试 18
韦捷夫 18
顽固@@ 18
预报 18
预言家 18
领军人物 18
领导小组 18
饥渴 18
饭@@ 18
马利 18
马拉@@ 18
马格 18
马格里布 18
马科斯 18
骑士 18
高居 18
高校 18
高管们 18
高谈阔论 18
魄 18
鲜活 18
麦克马斯特 18
鼻子 18
01 17
03 17
1924 17
1934 17
430 17
8.7 17
950 17
APEC 17
ATM 17
Ay@@ 17
Bol@@ 17
CTBT 17
Cent@@ 17
Central 17
Consensus 17
Digital 17
Economist 17
Eric 17
Eur@@ 17
FN 17
FTA 17
Fac@@ 17
HICCup 17
Hun@@ 17
IFC 17
Ifo 17
Index 17
Int@@ 17
Jam@@ 17
Jar@@ 17
Juncker 17
Kibaki 17
M2 17
M5S 17
Macron 17
McKinsey 17
Mike 17
Mnuchin 17
Modi 17
Narendra 17
Nic@@ 17
OM 17
OPEC 17
Os@@ 17
Pat@@ 17
Power 17
Rec@@ 17
Ross 17
Rud@@ 17
SWIFT 17
Sl@@ 17
South 17
Steve 17
Ta@@ 17
Ted 17
The@@ 17
X光 17
ab 17
acc@@ 17
agan 17
ath@@ 17
az 17
ect 17
ei 17
eld@@ 17
ente 17
ick@@ 17
ight 17
illi@@ 17
inc@@ 17
ines 17
int 17
iz 17
net 17
ock 17
omb@@ 17
ough 17
ration 17
rep@@ 17
sk@@ 17
stone 17
ties 17
tz 17
ull@@ 17
ung 17
universit 17
ver 17
ville 17
we@@ 17
yn 17
zation 17
一到 17
一夜 17
一栋 17
一氧化@@ 17
一线希望 17
一而再 17
一英里 17
一触即发 17
万辆 17
上马 17
下决心 17
下风 17
不为过 17
不人道 17
不准 17
不如@@ 17
不妥 17
不放 17
不相@@ 17
不知不觉 17
不结盟 17
不良@@ 17
不计 17
不计后果 17
专 17
专家@@ 17
两极化 17
两部 17
严格遵守 17
个案 17
中型 17
中层 17
中曾 17
为时未晚 17
之人 17
之名 17
之徒 17
之比为 17
乌戈 17
乔治@@ 17
九十 17
了结 17
事实@@ 17
互 17
五位 17
五十年代 17
五常 17
亚尔 17
交锋 17
享用 17
亲身经历 17
人用 17
人类学家 17
人脑 17
从总体上 17
从此以后 17
仙@@ 17
代人 17
代表大会 17
令人生畏 17
以人为本 17
以色列国 17
仰慕 17
份量 17
伍德罗 17
众人皆知 17
优 17
优美 17
伟人 17
传记 17
伯尔尼 17
估计值 17
住宿 17
何以 17
依存度 17
侦测 17
侧@@ 17
俄方 17
修筑 17
倍受 17
借到 17
借款国 17
偷渡 17
储蓄银行 17
儿童@@ 17
兄 17
充分说明 17
兆瓦 17
先见之明 17
入门 17
全天候 17
全民教育 17
全身而退 17
八分 17
公交车 17
公会 17
公共关系 17
公开@@ 17
养育 17
内斗 17
内燃机 17
再而三 17
冰山 17
况且 17
准确度 17
出众 17
分手 17
分离出来 17
分给 17
分而治之 17
刑法典 17
创作 17
利器 17
利害关系 17
利息支出 17
别忘了 17
制宪会议 17
削@@ 17
前夜 17
剪 17
劝@@ 17
功能@@ 17
加速器 17
务农 17
勇于 17
勒德 17
匈 17
匠 17
千瓦时 17
千疮百孔 17
半壁江山 17
单向 17
单词 17
南北战争 17
占领军 17
卡斯帕罗夫 17
卡梅伦@@ 17
即期 17
厄 17
参政 17
双边协定 17
发热 17
受到谴责 17
受命 17
受惠 17
受此 17
受益人 17
受益匪浅 17
变富 17
变质 17
口吻 17
古巴人 17
句号 17
另一半 17
可口可乐 17
可比性 17
可预见性 17
各个领域 17
各省 17
吉尔 17
同业 17
同年 17
名状 17
后勤 17
向性 17
吓人 17
君主@@ 17
吸入 17
周恩来 17
和亲 17
和平主义 17
哈卡尼 17
哈尔@@ 17
唇@@ 17
商业地产 17
商品@@ 17
商品化 17
喂养 17
善举 17
囚徒 17
四十 17
回路 17
国立 17
国际主义者 17
国际形象 17
国际舆论 17
在世 17
坊 17
坎帕拉 17
垄断者 17
垮 17
培植 17
基础@@ 17
堪@@ 17
塞拉 17
声讨 17
复辟 17
外出 17
外国@@ 17
多时 17
大有希望 17
大洋 17
大纲 17
大肆宣扬 17
大踏步 17
天方夜谭 17
天花板 17
天鹅绒 17
太慢 17
失势 17
奉承 17
奋@@ 17
奥林匹克@@ 17
奥马尔 17
女士 17
妇 17
妥 17
妮@@ 17
嫌犯 17
嫌疑 17
孔子 17
存放 17
学年 17
孩@@ 17
安全部 17
安然无恙 17
安迪 17
实属 17
审计@@ 17
宪政改革 17
宫廷 17
家们 17
对头 17
对非 17
封信 17
少数@@ 17
尺 17
尼采 17
尽失 17
屈 17
岗 17
川 17
左 17
左右翼 17
巨大贡献 17
巫术 17
巫统 17
巴士@@ 17
巴巴 17
市场监管 17
布加勒斯特 17
布雷斯 17
希勒 17
帕尔 17
帝@@ 17
带上 17
带头作用 17
常规战争 17
幕@@ 17
干燥 17
平凡 17
并不等于 17
并入 17
度假@@ 17
座右铭 17
建立联系 17
建筑材料 17
开源 17
弗吉尼亚 17
强制@@ 17
强制力 17
强壮 17
归入 17
归纳 17
当之无愧 17
形同 17
役 17
彻底消除 17
往返 17
很深 17
徒劳无功 17
得上 17
德隆 17
忠 17
快车道 17
快速反应 17
怂恿 17
总产值 17
恐 17
恶名 17
恼怒 17
悖 17
悬浮 17
惊恐 17
惧 17
惨烈 17
惹 17
感叹 17
慷慨解囊 17
成份 17
成本@@ 17
战略地位 17
扔@@ 17
扰动 17
承压 17
技术人员 17
抓获 17
投资总额 17
抚@@ 17
抬 17
抬@@ 17
抬升 17
拉丁@@ 17
拐@@ 17
招待 17
持久战 17
挡 17
挡@@ 17
挣钱 17
挨@@ 17
排他性 17
排入 17
接受国 17
接种率 17
接踵而来 17
推倒 17
提价 17
援@@ 17
搅局 17
搬迁 17
摆脱困境 17
撤 17
支持系统 17
收受 17
改变方向 17
改装 17
放逐 17
敌对势力 17
敌对行动 17
敦 17
数倍 17
数据共享 17
数百亿美元 17
整体而言 17
斤@@ 17
斥责 17
斯坦利 17
斯瓦拉 17
新债 17
新泽西州 17
方程 17
施以援 17
施暴者 17
旁遮普 17
无可救药 17
无可辩驳 17
无影无踪 17
无核武器 17
无法弥补 17
无端 17
无辜者 17
既定目标 17
日美 17
日趋激烈 17
早餐 17
旱@@ 17
时代@@ 17
时日 17
时要 17
易如反掌 17
普鲁士 17
暂@@ 17
暖和 17
暗物质 17
更要 17
曼昆 17
曾于 17
有增无减 17
服役 17
服装@@ 17
未受 17
本是 17
朴@@ 17
权宜 17
杜克 17
杰布 17
极快 17
柱 17
标准@@ 17
格莱布 17
档 17
梁振英 17
棋手 17
模块 17
欠债 17
死者 17
毁@@ 17
母猪 17
母鸡 17
每逢 17
比拟 17
民事@@ 17
气田 17
氧气 17
求职 17
没落 17
沿线 17
沿袭 17
泡@@ 17
泡影 17
波利斯 17
注视 17
浆 17
海鲜 17
消逝 17
液@@ 17
淋漓尽致 17
深信不疑 17
深入研究 17
深表 17
深邃 17
混合体 17
游击 17
滥用职权 17
火山 17
火药桶 17
灭@@ 17
烟草业 17
熄火 17
片段 17
牧场 17
特别@@ 17
特殊@@ 17
犀牛角 17
狂潮 17
猎物 17
玛雅 17
环保@@ 17
环球 17
珍@@ 17
瑞士法郎 17
生产链 17
生死存亡 17
生死攸关 17
电力@@ 17
畅销 17
白白 17
皇 17
盛名 17
目标值 17
相仿 17
相对论 17
相当程度 17
眼界 17
石头砸 17
矿工 17
研@@ 17
祖父母 17
神秘@@ 17
祭 17
禁烟 17
私立 17
种族主义者 17
科赫 17
秘密@@ 17
称职 17
称霸 17
稳妥 17
稳定增长 17
空想家 17
突飞猛进 17
窗@@ 17
第二点 17
等式 17
筋 17
答@@ 17
简 17
简洁 17
管理系统 17
簿 17
米斯 17
粗糙 17
精神领袖 17
糊@@ 17
索取 17
索尼 17
繁荣@@ 17
约翰@@ 17
级@@ 17
纳斯鲁拉 17
组织@@ 17
组阁 17
经销商 17
绕 17
绝境 17
绝无仅有 17
统 17
维多利亚 17
维格 17
维瑟尔 17
维茨基 17
综@@ 17
编 17
罐 17
罗尔斯 17
置身于 17
羊群 17
美以 17
美利坚 17
美洲国家组织 17
羹 17
而令 17
而大受 17
而定 17
耐力 17
聚居区 17
股票交易 17
肥胖率 17
肺炎球菌 17
胡作非为 17
胶 17
胸 17
脑部 17
脚下 17
自传 17
自律 17
自由度 17
自立 17
至多 17
舞蹈 17
良药 17
节省下来 17
花旗 17
苏伊士运河 17
苏尔 17
英特尔 17
范 17
茨@@ 17
莎士比亚 17
获奖者 17
菌株 17
落后地区 17
落地 17
蛇 17
行为规范 17
街上 17
衰减 17
被选为 17
褒@@ 17
西北部 17
要花费 17
观望 17
览 17
解放@@ 17
认命 17
讯@@ 17
讳 17
诊疗 17
说得@@ 17
诸位 17
谋杀案 17
谎@@ 17
豪 17
贝多芬 17
财产损失 17
贩运 17
费城 17
费率 17
资助者 17
资本@@ 17
资本论 17
资源分配 17
赠@@ 17
越拉越 17
越界 17
身体@@ 17
车道 17
转账 17
轮状病毒 17
软肋 17
轻型 17
辱 17
过失 17
过火 17
过犹不及 17
运算 17
还应 17
这回 17
进口额 17
远东 17
追捧 17
退让 17
适耕 17
选取 17
透明化 17
透明性 17
递 17
通论 17
速效 17
遇@@ 17
遇上 17
遇害 17
遍地 17
遗产税 17
遗体 17
那瓦 17
酸化 17
释 17
释@@ 17
金牌 17
钉 17
钦 17
铁路@@ 17
铺设 17
锡克教 17
长期贷款 17
长途 17
长长的 17
门前 17
门外 17
闭幕 17
防御@@ 17
阴暗面 17
降下来 17
陪伴 17
陶@@ 17
隐晦 17
隐秘 17
难以忍受 17
难以解决 17
雀 17
非军事区 17
非法@@ 17
靠边站 17
革命制度党 17
音乐@@ 17
顺畅 17
顽固不化 17
颂@@ 17
预算案 17
领导班子 17
领略 17
颗粒 17
颠簸 17
食品业 17
食谱 17
马克思主义者 17
马尔萨斯 17
马拉喀什 17
马拉松 17
马斯克 17
骇@@ 17
高喊 17
高手 17
高时 17
鸣 17
鹿 17
黄岩岛 17
黎凡特 17
鼻@@ 17
齐达内 17
1100 16
128 16
135 16
175 16
301 16
560 16
640 16
720 16
9.9 16
9.@@ 16
AIDS 16
Against 16
Amartya 16
Army 16
Bannon 16
Bern@@ 16
CAFTA 16
CS@@ 16
Cam@@ 16
Can@@ 16
Control 16
E3 16
EA@@ 16
EITC 16
EPA 16
EU 16
Financing 16
Friedrich 16
GB 16
Hy@@ 16
IRGC 16
Jer@@ 16
Journ@@ 16
Karl 16
Kat@@ 16
Kushner 16
Ky@@ 16
LO 16
Lam@@ 16
Lib@@ 16
MIT 16
Mark@@ 16
Mit@@ 16
Mitt 16
Nation@@ 16
Op@@ 16
PMI 16
Pad@@ 16
Powell 16
Prin@@ 16
Reg@@ 16
Ri@@ 16
Ris@@ 16
Rob@@ 16
Romer 16
Romney 16
Salman 16
School 16
Schul@@ 16
Schum@@ 16
Taylor 16
Tim@@ 16
Tre@@ 16
Tw@@ 16
Ty@@ 16
UNFCCC 16
WHO 16
Walter 16
Z 16
ack@@ 16
ald 16
ani@@ 16
ara 16
art@@ 16
ass 16
ati 16
atory 16
bail 16
cons@@ 16
del 16
eb 16
ene 16
esc@@ 16
ft 16
ham 16
hood 16
ield 16
ier 16
ility 16
ily 16
lat@@ 16
lin 16
mat@@ 16
ness 16
ock@@ 16
od 16
ola 16
par 16
qui@@ 16
rich 16
row 16
self 16
sti@@ 16
tical 16
tics 16
tina 16
tional 16
ts@@ 16
ua 16
uck 16
utions 16
vers@@ 16
well 16
ñ 16
一以贯之 16
一分钟 16
一周年 16
一清二楚 16
一盘散沙 16
一窥 16
一股@@ 16
一记 16
万难 16
三件 16
下挫 16
下水道 16
不利因素 16
不得人心 16
不温不火 16
不相称 16
不知@@ 16
不绝于耳 16
不罚 16
不自@@ 16
不致 16
不良后果 16
不言而喻 16
与时俱进 16
专业性 16
专利@@ 16
专利制度 16
世界遗产 16
业余 16
丰田 16
主导权 16
久远 16
之以 16
之怒 16
之痛 16
之辞 16
乌合之众 16
乞@@ 16
互通 16
亚斯 16
亚瑟 16
亚齐 16
交通系统 16
产生共鸣 16
亲眼@@ 16
亲近 16
人口总数 16
人家 16
人猿 16
介质 16
从现在起 16
从这一点 16
他者 16
仙台 16
令人难忘 16
以待 16
仪@@ 16
仲@@ 16
优越性 16
会计准则 16
会起 16
估价 16
伴有 16
似是而非 16
体力 16
何 16
何地 16
余生 16
作出贡献 16
侵略者 16
保守势力 16
信息流 16
倒行逆施 16
债转股 16
值得@@ 16
假丝 16
做点 16
停车 16
僧@@ 16
儿科 16
党魁 16
入手 16
全国人大 16
全国代表大会 16
公共场所 16
公务 16
公敌 16
公正性 16
六名 16
六日 16
共处 16
共生 16
关岛 16
其向 16
其子 16
具体内容 16
兼得 16
兽 16
内有 16
冠冕堂皇 16
冰冷 16
决战 16
冷落 16
冷血 16
净化 16
凯勒 16
出人头地 16
击毙 16
刃 16
分之一 16
分子@@ 16
分心 16
分立 16
刑事犯罪 16
划出 16
列表 16
刚好 16
创立者 16
创记录 16
删@@ 16
判处死刑 16
到此为止 16
刺激作用 16
刺耳 16
削减到 16
前路 16
加总 16
加拉加斯 16
动物@@ 16
劲@@ 16
勒斯 16
勾当 16
化为 16
匹 16
区域合作 16
医疗@@ 16
十分必要 16
升幅 16
半世纪 16
卑劣 16
卖空 16
南美国家 16
博主 16
博士@@ 16
卡多佐 16
卡洛 16
卫兵 16
卫士 16
卫生条件 16
卫生部门 16
印度议会 16
即用 16
压倒多数 16
参差不齐 16
叉@@ 16
及早 16
反欧 16
发扬光大 16
发电能力 16
发觉 16
受到@@ 16
受苦 16
变性 16
史学家 16
史诗 16
各党派 16
各处 16
合体 16
同等@@ 16
名流 16
后发优势 16
后备 16
向东 16
启示录 16
吸烟@@ 16
呼之欲出 16
咨询@@ 16
哗众取宠 16
唯独 16
商业行为 16
商业贷款 16
啤酒 16
啥 16
喋喋不休 16
四项 16
回首 16
因果 16
国人 16
国内安全 16
国有资产 16
国歌 16
图拉 16
土壤@@ 16
场面 16
均值 16
坠@@ 16
坦然 16
埃塞俄比@@ 16
墨西哥政府 16
壁@@ 16
复仇主义 16
复杂程度 16
外交途径 16
外汇交易 16
外汇管制 16
外籍 16
多来 16
多种形式 16
多米诺 16
大刀阔斧 16
大张旗鼓 16
大杂烩 16
大权在握 16
大赢家 16
天文学家 16
失去@@ 16
夸@@ 16
奢华 16
奢望 16
奥特 16
好时机 16
孟加拉@@ 16
季风 16
孩 16
宇 16
守住 16
安全区 16
安曼 16
完成@@ 16
实权 16
客机 16
家畜 16
容忍度 16
宿@@ 16
密切关系 16
富有成效 16
对接 16
对阵 16
尔顿 16
尖锐@@ 16
尚无 16
就此@@ 16
尽全力 16
居所 16
屋@@ 16
山脉 16
岛礁 16
崭露头角 16
巨兽 16
差得多 16
已高达 16
市区 16
布局 16
布鲁克 16
布鲁斯 16
平均气温 16
平起平坐 16
并不相同 16
幼儿园 16
广为流传 16
广告@@ 16
广播电台 16
庄 16
建筑师 16
开倒车 16
开动 16
开幕式 16
开诚布公 16
弄错 16
弗朗@@ 16
弦@@ 16
强烈要求 16
得偿 16
德班 16
必有 16
忌惮 16
忙不迭 16
忠@@ 16
忧郁 16
快地 16
忽@@ 16
性交 16
怪诞 16
总价值 16
恢复正常 16
息差 16
情结 16
惊 16
惊吓 16
惊异 16
惨 16
感觉良好 16
慷慨@@ 16
懒得 16
戒律 16
战争@@ 16
戳@@ 16
戴着 16
房主 16
所示 16
扁@@ 16
手续 16
打死 16
扭@@ 16
承办 16
技 16
把握住 16
抵销 16
拉贾斯坦邦 16
拉近 16
持枪 16
挪@@ 16
振奋人心 16
捞@@ 16
掌握权力 16
掌权者 16
控制系统 16
推进改革 16
推高到 16
提尔 16
援救 16
摆出 16
摩萨德 16
政治宣传 16
效法 16
教条主义 16
教法 16
教育权 16
教育部长 16
敦@@ 16
数据流 16
文版 16
斯卡 16
斯特拉 16
新篇章 16
新面孔 16
无名 16
无形资产 16
无所事事 16
无核国家 16
无神论 16
无谓 16
日军 16
日本自卫队 16
旦 16
早点 16
时段 16
时装 16
昆虫 16
普惠 16
普顿 16
暑@@ 16
暴雨 16
更名 16
更坏 16
更多@@ 16
更穷 16
替@@ 16
替代物 16
最佳@@ 16
最惠国 16
最高@@ 16
有生之年 16
有见 16
有过之 16
有钱人 16
朝鲜政府 16
朱莉 16
权力下放 16
来回 16
杨 16
杨@@ 16
杰作 16
极了 16
极佳 16
极少数人 16
柔@@ 16
查看 16
查阅 16
标本 16
核军备 16
核政策 16
格陵兰 16
桌@@ 16
桑托 16
梯@@ 16
棋@@ 16
楚 16
欧洲@@ 16
欧罗巴 16
欧者 16
歉收 16
死板 16
殉@@ 16
殿 16
母乳 16
毒药 16
毫不留情 16
民主权利 16
民望 16
气息 16
氟@@ 16
氢@@ 16
氨@@ 16
污染@@ 16
沙子 16
沟@@ 16
法军 16
法律效力 16
法律法规 16
泛太平洋 16
波澜 16
洗 16
洞@@ 16
海事 16
海绵状 16
海藻 16
涅@@ 16
消耗战 16
消防员 16
深感不安 16
深水 16
深谙 16
清白 16
渔利 16
溃@@ 16
溪 16
满怀希望 16
演示 16
演讲时 16
潜台词 16
潜意识 16
灌@@ 16
火炬 16
火箭炮 16
灯@@ 16
灾民 16
炉灶 16
炫@@ 16
点位 16
炼油 16
照办 16
爱尔兰共和国 16
牙医 16
牛顿 16
牢不可破 16
物业 16
物理@@ 16
狩猎 16
王牌 16
玛丽娜 16
玻@@ 16
珍惜 16
珠@@ 16
理想主义者 16
理睬 16
理论@@ 16
瓜分 16
甚或 16
用地 16
申诉 16
电动 16
电子游戏 16
界面 16
略作 16
病历 16
痴呆 16
瘦身 16
百万富翁 16
百分之一 16
皮亚斯 16
盆 16
盖达尔 16
盗@@ 16
盛产 16
目瞪口呆 16
直播 16
直言 16
直达 16
相隔 16
盼望 16
省略 16
眼花缭乱 16
督促 16
瞎@@ 16
矛盾@@ 16
破解 16
碑 16
社会制度 16
祖 16
神学院 16
福利@@ 16
禽@@ 16
私立学校 16
科研人员 16
积极行动 16
税前 16
税务@@ 16
税来 16
空中@@ 16
穿戴 16
窘迫 16
立国 16
立法会 16
竭@@ 16
笼@@ 16
笼罩着 16
筋疲力尽 16
签@@ 16
签约国 16
管理体系 16
类人 16
粮农组织 16
精巧 16
索尼娅 16
繁荣昌盛 16
纠正错误 16
纯洁 16
纲 16
纳特 16
纳粹党 16
纹 16
织@@ 16
绍@@ 16
经得起 16
结合体 16
结成联盟 16
统治集团 16
统计@@ 16
继承权 16
继续执行 16
缴@@ 16
罗申科 16
罩 16
罪责 16
置身 16
群众运动 16
耀眼 16
老旧 16
耍 16
耐 16
耳道 16
职@@ 16
联姻 16
胡乱 16
脑后 16
腔 16
臂 16
臣@@ 16
自治@@ 16
自由言论 16
自问 16
致力 16
航天局 16
航空业 16
良好@@ 16
节省@@ 16
英雄@@ 16
药厂 16
蒂姆 16
薪@@ 16
蚀 16
蜂 16
蝇 16
行使权力 16
行得通 16
行话 16
补偿性 16
表现形式 16
衫 16
衬 16
衰亡 16
衷@@ 16
被抛弃了 16
被盗 16
要价 16
见怪不怪 16
规章 16
解救出来 16
言听计从 16
言过其实 16
让出 16
讲授 16
证监会 16
试验@@ 16
误会 16
说真的 16
说起 16
诵 16
请愿书 16
调整机制 16
调研 16
谟 16
谦虚 16
豪宅 16
豪斯曼 16
貌@@ 16
贝鲁 16
财产税 16
财政困难 16
财政部门 16
质子 16
贸易区 16
贻@@ 16
资历 16
资源管理 16
资金短缺 16
赫尔佐格 16
走下坡路 16
走极端 16
赶到 16
起起落落 16
趋 16
跌入 16
跨界 16
路子 16
踢@@ 16
身陷囹圄 16
转发 16
转型期 16
边境税 16
达到高潮 16
过渡政府 16
远胜 16
迷思 16
退去 16
送回 16
适应能力 16
选情 16
通俗 16
通货 16
遑论 16
道德行为 16
遗弃 16
遗迹 16
遥@@ 16
酵母菌 16
采掘 16
里奇 16
重大意义 16
重大损失 16
重归 16
重税 16
金库 16
铺路 16
长得 16
问卷 16
阿克拉 16
阿尔伯特 16
阿巴 16
阿罗 16
陀 16
附件 16
附加条件 16
陆路 16
隐忧 16
难以克服 16
集团公司 16
雇 16
雨后春笋 16
零件 16
雷诺 16
霍姆斯 16
霸占 16
非专利 16
非常适合 16
非议 16
面向未来 16
革命派 16
韩日 16
风光 16
风雨飘摇 16
食利 16
香港政府 16
马上会 16
马佐维耶茨基 16
驱逐出境 16
骄@@ 16
高分 16
高等 16
高贵 16
魔术 16
麦地那 16
麦当娜 16
黎@@ 16
黑暗时代 16
黑社会 16
04 15
1.0 15
124 15
1916 15
1942 15
380 15
6.1 15
9.1 15
9.11 15
9.6 15
Affairs 15
Aut@@ 15
Az@@ 15
Bad@@ 15
Better 15
Bro@@ 15
CN@@ 15
Chris 15
Comprehensive 15
DB 15
DiEM25 15
Ern@@ 15
Es@@ 15
GS@@ 15
Hawley 15
Hole 15
ICC 15
IPL 15
IPO 15
Independence 15
Jan@@ 15
Jap@@ 15
Jos@@ 15
KRG 15
Kevin 15
Keynes 15
Lee 15
Lin@@ 15
Matteo 15
Mattis 15
Nicholas 15
P2P 15
PNV 15
Pa@@ 15
Pac@@ 15
Pact 15
Pew 15
Pol@@ 15
RCT 15
Raj@@ 15
Rajan 15
Ren@@ 15
SNCF 15
Sachs 15
San@@ 15
Shar@@ 15
Shiller 15
Sing@@ 15
Singh 15
Sm@@ 15
Smoot 15
Solow 15
Stanley 15
Syrian 15
System 15
Tal@@ 15
Tel@@ 15
Trichet 15
Uni@@ 15
Up 15
Ur@@ 15
Wolf 15
ade 15
aff@@ 15
agh@@ 15
ands 15
aria 15
arr@@ 15
ast@@ 15
bor@@ 15
come 15
ek@@ 15
emb@@ 15
ew 15
fr@@ 15
gu@@ 15
hali@@ 15
iPad 15
ica 15
ico 15
ile 15
ino 15
ins@@ 15
iri 15
ling 15
mar 15
mod@@ 15
non 15
off 15
ort 15
ove 15
pow@@ 15
ron 15
sec@@ 15
sp@@ 15
une 15
ys@@ 15
zer 15
zo 15
▪ 15
一分 15
一千 15
一堵 15
一家@@ 15
一对一 15
一时间 15
一等 15
七十 15
万份 15
万到 15
万年前 15
万物 15
万英镑 15
三思而后行 15
上课 15
下任总统 15
下意识 15
下手 15
下放 15
下级 15
不一 15
不列颠 15
不可估量 15
不坏 15
不太会 15
不比 15
不畅 15
不连贯 15
专业@@ 15
业务@@ 15
业界 15
两三年 15
严冬 15
严格@@ 15
个人崇拜 15
个人行为 15
个人隐私 15
中伤 15
中则 15
中小 15
主动权 15
举出 15
义愤 15
之流 15
之窗 15
之能事 15
之重 15
乍@@ 15
买得起 15
乱伦 15
乳房 15
事前 15
二氧化硫 15
二流 15
五千 15
五次 15
亟待解决 15
交纳 15
交通网络 15
亦@@ 15
产业结构 15
人造@@ 15
人间@@ 15
亿个 15
亿元 15
亿日元 15
介 15
仔细观察 15
他命 15
付息 15
以助 15
伊利诺伊州 15
休战 15
休斯 15
休斯顿 15
众包 15
众矢之的 15
优劣 15
会面时 15
传染给 15
伤亡@@ 15
伤痕 15
伸手 15
体能 15
作法 15
例行 15
侵权 15
促@@ 15
俘获 15
保值 15
保持联系 15
修订@@ 15
俯首帖耳 15
候选国 15
偏狭 15
做能 15
停止使用 15
偷猎 15
充分条件 15
充足率 15
克拉底 15
兔子 15
入不敷出 15
全国人民代表大会 15
全欧 15
公有 15
公用设施 15
共用 15
关口 15
关塔那摩湾 15
关键人物 15
兴业银行 15
其来 15
其能 15
养鸡 15
写信 15
写成 15
写过 15
冥@@ 15
决不可 15
净流入 15
几万 15
几千人 15
几大 15
出境 15
出格 15
击中 15
击垮 15
分阶段 15
切换 15
初次 15
初级阶段 15
利大于弊 15
利己主义 15
别有用心 15
到头来 15
制宪 15
刻画 15
前一天 15
剧中 15
剩 15
劝告 15
加油站 15
动因 15
努斯 15
劳作 15
劳务市场 15
化武 15
北非国家 15
匪@@ 15
医药费 15
十一 15
十亿美元 15
千克 15
华盛顿州 15
卑鄙 15
卒 15
单日 15
卜@@ 15
卡娅 15
卡普兰 15
卢武铉 15
厉@@ 15
原教旨 15
参战 15
双面 15
反导 15
反应@@ 15
发改委 15
发明@@ 15
发生率 15
发电@@ 15
发电机 15
受难日 15
只想 15
可望 15
可贵 15
台上 15
台前 15
台湾@@ 15
各项@@ 15
合作开发 15
吉布提 15
同心协力 15
后现代 15
吞下 15
呆@@ 15
告一段落 15
呐喊 15
呼叫 15
哈佛商学院 15
哈布斯堡 15
哈维 15
哈菲兹 15
响@@ 15
哪些因素 15
哺育 15
噶玛巴 15
嚣张 15
固定成本 15
国境线 15
国家补贴 15
国对 15
国情 15
国民会议 15
国防工业 15
在建 15
在所不惜 15
地站 15
场地 15
均匀 15
坐实 15
坐落于 15
垂死 15
垃圾@@ 15
埃尔文 15
埃德@@ 15
埃沃 15
埋单 15
基民盟 15
墙上 15
增高 15
外交人员 15
外来者 15
外科 15
外资企业 15
多党制 15
多数党 15
多美元 15
大主教 15
大公 15
大可 15
大大小小 15
大学教授 15
大开@@ 15
大男子主义 15
大致相同 15
大计 15
大陆架 15
天体 15
天气@@ 15
太平洋战争 15
失明 15
失速 15
奄奄一息 15
奇点 15
契@@ 15
奥利佛 15
奥尔 15
奥托 15
好不容易 15
如对 15
如是 15
如法炮制 15
妄图 15
妮 15
妻@@ 15
嫁@@ 15
子宫 15
孔雀 15
存活率 15
孙辈 15
学院派 15
孰@@ 15
安格斯 15
完全恢复 15
官僚@@ 15
官方语言 15
官样文章 15
宜居 15
宝石 15
实习 15
实则 15
家喻户晓 15
寄予厚望 15
密切联系 15
寡@@ 15
对外开放 15
对岸 15
对着干 15
寻觅 15
小姐 15
尔克 15
尺度 15
尽其所能 15
尽情 15
尽职 15
居住地 15
岸信 15
巡逻@@ 15
巢@@ 15
工人工资 15
工地 15
工种 15
已降 15
巴克 15
巴厘 15
布拉德 15
布道 15
希波 15
帕多 15
帕斯卡 15
帕特里克 15
干涉主义 15
平克 15
平原 15
平等主义 15
平衡点 15
年任 15
年秋 15
广东省 15
广泛@@ 15
应验 15
底气 15
庞@@ 15
废弃物 15
座位 15
庸 15
建国以来 15
建设项目 15
建起 15
开放式 15
开普敦 15
开立 15
开门 15
异化 15
异曲同工 15
引以为@@ 15
弟弟 15
弯@@ 15
弹头 15
强加在 15
强区 15
强权政治 15
归属于 15
当前情况 15
当日 15
录@@ 15
录音 15
征询 15
循序渐进 15
德洛尔 15
德高望重 15
念头 15
急需@@ 15
性爱 15
怯懦 15
总供给 15
恒定 15
恰 15
恰到好处 15
恶劣影响 15
悄悄地 15
惊慌 15
惟@@ 15
惯于 15
惯常 15
愉悦 15
意大利@@ 15
慢于 15
成像 15
或用 15
战俘 15
战略思维 15
扩大@@ 15
扭转@@ 15
投资收益 15
抢占 15
抽身 15
拆毁 15
拉萨 15
拒@@ 15
拖拉机 15
拷打 15
指为 15
指导性 15
指挥@@ 15
挺@@ 15
捉@@ 15
换代 15
掌声 15
掏腰包 15
探明 15
接二连三 15
接见 15
提上 15
揭穿 15
摆在面前 15
撞击 15
操作@@ 15
支付宝 15
收养 15
收割 15
收效 15
改建 15
放牧 15
放眼世界 15
故土 15
救出 15
救命稻草 15
散户 15
数以百计 15
数字@@ 15
数学模型 15
数据中心 15
数百位 15
整天 15
文化交流 15
斐然 15
斯托 15
斯瓦特 15
新兴@@ 15
新古典主义 15
新车 15
施瓦@@ 15
旁遮普@@ 15
旅途 15
无从@@ 15
无常 15
无异 15
无线@@ 15
无节制 15
日常@@ 15
日益频繁 15
日薄西山 15
早日 15
旺盛 15
昏 15
易感 15
显露出 15
晚宴 15
晚近 15
智囊团 15
曲解 15
更弱 15
最弱 15
最难 15
有别于 15
有核 15
本位 15
朱佩 15
朴 15
权国家 15
村落 15
来不及 15
松弛 15
松懈 15
极大地提高 15
柄 15
查克 15
查戈斯 15
柯 15
柯比 15
标注 15
格哈德 15
格鲁 15
栽@@ 15
案中 15
梅内 15
梅朗雄 15
梅林达 15
梯 15
检方 15
棋 15
棕@@ 15
森严 15
椅 15
椅子 15
榜@@ 15
欢庆 15
欧洲地区 15
正派 15
正确@@ 15
步子 15
步步 15
歧@@ 15
歧途 15
残杀 15
残障 15
段落 15
殷@@ 15
每十年 15
毒剂 15
毒品走私 15
民选总统 15
氢气 15
水中 15
水力 15
水管 15
汁 15
求学 15
江河日下 15
污水 15
汽油税 15
沈@@ 15
沉重负担 15
沙尔 15
没用 15
沦陷 15
河水 15
沾@@ 15
波音 15
洒 15
活得 15
浮夸 15
海里 15
深入人心 15
深感忧虑 15
清偿 15
灌 15
灌溉系统 15
火电厂 15
灰 15
灵巧 15
灵活@@ 15
炮击 15
热切地 15
热议 15
焦@@ 15
焦急 15
物力 15
特洛@@ 15
犯罪集团 15
犯过 15
犯错误 15
犹如 15
狗狗 15
狙击手 15
独 15
献给 15
玛丽@@ 15
玩笑 15
玫瑰 15
环境友好 15
瓜@@ 15
瓦拉 15
甄选 15
甜叶菊 15
生产线 15
生前 15
用武之地 15
电子货币 15
画上 15
画像 15
畜@@ 15
疏散 15
症@@ 15
痴呆症 15
登记@@ 15
白血病 15
百多万 15
皮尔 15
皮肤癌 15
盟@@ 15
真切 15
真实情况 15
破纪录 15
硬脱 15
硬通货 15
碳水化合物 15
祝@@ 15
神经细胞 15
神经递质 15
祸根 15
禄 15
福德 15
私人@@ 15
科塔 15
科幻小说 15
秘@@ 15
秘密行动 15
稳定物价 15
稻米 15
究@@ 15
穷苦 15
窝@@ 15
立方米 15
站队 15
竹 15
笑容 15
笨@@ 15
第三代 15
管理工作 15
管线 15
篡改 15
类产品 15
粮食@@ 15
精良 15
糟糕透顶 15
紧邻 15
累退 15
红衣主教 15
纳伊夫 15
线上 15
绝对值 15
统治@@ 15
继位 15
继续前进 15
维斯 15
缓冲国 15
缘故 15
网球 15
罕@@ 15
美国能源部 15
羞@@ 15
老一代 15
老手 15
耕@@ 15
耕作 15
聊@@ 15
联席会议 15
联系@@ 15
肇始 15
肉体 15
肚子 15
肢体 15
肩@@ 15
肺 15
胆固醇 15
背书 15
胡言乱语 15
胺 15
能源危机 15
自主性 15
自由职业者 15
自鸣得意 15
舱 15
艺@@ 15
艾哈德 15
节约@@ 15
芝 15
苗 15
若干@@ 15
英国工党 15
英属 15
茄 15
莫属 15
莱希 15
莱昂 15
莱茵河 15
营地 15
落后者 15
蒙特雷 15
蓬 15
虫@@ 15
蜡烛 15
行为主体 15
行贿 15
行驶 15
补助金 15
补给 15
表外 15
表露 15
装饰 15
西奥多 15
要不了 15
解开 15
访@@ 15
访美 15
试行 15
诚 15
该是 15
详@@ 15
说不@@ 15
说明性 15
诺曼底 15
课程@@ 15
调查员 15
豪言壮语 15
贝隆 15
责任心 15
货币制度 15
质询 15
贩 15
贸易总额 15
费利佩 15
赌@@ 15
赏 15
赛义德 15
走投无路 15
赵@@ 15
越强 15
趟 15
跌到 15
跑道 15
距@@ 15
踩@@ 15
躬@@ 15
躲过 15
转换成 15
辅助性 15
达到目标 15
达拉斯 15
这一下 15
这出 15
这群人 15
这门 15
迫近 15
述@@ 15
退役 15
逆境 15
逊@@ 15
通讯@@ 15
通过@@ 15
避孕@@ 15
部位 15
配对 15
酬劳 15
里加 15
里程 15
重磅 15
野火 15
野田 15
金大中 15
钱来 15
铁矿石 15
铤而走险 15
银行信贷 15
销往 15
锈 15
锦@@ 15
镜子 15
门人 15
闭 15
闻@@ 15
闻名@@ 15
防火 15
阻断 15
阿什 15
阿克@@ 15
阿卜杜 15
阿尔法 15
阿美 15
阿萨姆 15
陀@@ 15
际@@ 15
除开 15
难受 15
难者 15
雨林 15
零时 15
霍利 15
霍尔姆 15
霸@@ 15
青藏高原 15
非得 15
靠着 15
革@@ 15
鞋子 15
韦兹 15
韦拉 15
韩朝 15
预备 15
预感 15
领土问题 15
领头 15
领袖人物 15
颜@@ 15
飞行器 15
食者 15
首府 15
香蕉 15
马其顿共和国 15
马斯 15
马解 15
骗@@ 15
高下 15
高发 15
高歌猛进 15
高级专员 15
魔 15
鹰@@ 15
麻省理工 15
默默 15
鼓掌 15
1814 14
1871 14
1928 14
2023 14
2026 14
2028 14
340 14
3500 14
440 14
8.2 14
AA 14
ALBA 14
Abu 14
Affordable 14
Ahmed 14
Alternative 14
Andr 14
Andre@@ 14
Arthur 14
BECCS 14
CE 14
CHW 14
Christi@@ 14
Civ@@ 14
Coll@@ 14
Del@@ 14
EBA 14
EMDC 14
East 14
Elizabeth 14
Fin@@ 14
Fischer 14
Framework 14
Fron@@ 14
GF@@ 14
H1N1 14
Hab@@ 14
Hadjiev 14
Hay@@ 14
Hen@@ 14
Hus@@ 14
ICSID 14
ID 14
IS 14
ISI 14
Internet 14
Isl@@ 14
Ja@@ 14
Jonathan 14
LHC 14
Long 14
Lugovoi 14
Maur@@ 14
May 14
Maynard 14
Mervyn 14
Mich@@ 14
Mikhail 14
Miller 14
Mul@@ 14
NIH 14
NSA 14
Nigel 14
ON@@ 14
Ox@@ 14
PO 14
Philip 14
Pop@@ 14
Prom@@ 14
RA 14
Raghuram 14
Rein@@ 14
Responsib@@ 14
Revol@@ 14
Revolution 14
Rio 14
Riv@@ 14
SAARC 14
SGP 14
SW@@ 14
Sar@@ 14
Schumpeter 14
Soci@@ 14
Soros 14
Sub@@ 14
Summit 14
Sy@@ 14
T3 14
Tas@@ 14
Te@@ 14
Timothy 14
Tony 14
Vill@@ 14
WF 14
White 14
Workers 14
Youth 14
ancy 14
ays 14
bon 14
che 14
clus@@ 14
ear 14
ep 14
ership 14
get 14
gh@@ 14
han 14
iel 14
inda 14
ion@@ 14
isi 14
las 14
line 14
lo@@ 14
ology 14
ond@@ 14
ook 14
op 14
ott@@ 14
pa 14
plus 14
ras 14
sey 14
social 14
struc@@ 14
tain@@ 14
tax 14
tion@@ 14
tor@@ 14
ublic 14
uel 14
uf@@ 14
ula 14
ullah 14
ult@@ 14
ura 14
val@@ 14
van 14
way 14
will 14
win 14
º 14
ğ 14
ł 14
š 14
一举一动 14
一剂 14
一团 14
一国@@ 14
一塌糊涂 14
一年@@ 14
一并 14
一极 14
一次次 14
一空 14
一筹 14
一股脑儿 14
一贫如洗 14
一遇 14
一针 14
万例 14
万分之 14
三场 14
三月份 14
三维 14
上天 14
上映 14
下怀 14
下流 14
下班 14
下载 14
不一致性 14
不可救药 14
不可知论 14
不对称性 14
不平 14
不成文 14
不断深入 14
不耐烦 14
不能不 14
不论@@ 14
不谋而合 14
世上 14
世界冠军 14
业内 14
丝路 14
两侧 14
两大党 14
两套 14
严加 14
中印关系 14
中国式 14
临界值 14
为害 14
主办权 14
主宰者 14
主编 14
之夜 14
之家 14
之少 14
之责 14
乌云 14
乌克兰语 14
乌里 14
乔伊斯 14
予@@ 14
事务所 14
二战时期 14
互相联系 14
五亿 14
五项 14
亚太经合组织 14
亡羊补牢 14
交替 14
交通堵塞 14
产品安全 14
人后 14
人才@@ 14
人民日报 14
人称 14
人造卫星 14
仆人 14
今夏 14
从中渔利 14
从何而来 14
从大 14
他称 14
付诸东流 14
代言 14
令人讨厌 14
仰 14
价值@@ 14
伍德 14
伏笔 14
休息 14
优先权 14
会议@@ 14
伟@@ 14
传统观念 14
伪科学 14
伯克 14
位子 14
住宅@@ 14
佐证 14
何等 14
佳 14
使用权 14
使用费 14
例行公事 14
依法@@ 14
促发 14
促进作用 14
保单 14
保安 14
保护法 14
保持中立 14
保持良好 14
保释 14
保险制度 14
信任@@ 14
修修补补 14
俯@@ 14
俱@@ 14
借出 14
倡议者 14
债务@@ 14
假日 14
偏误 14
做起 14
偶 14
偶@@ 14
储贷 14
傲@@ 14
兄弟姐妹 14
先机 14
克努特 14
克多 14
免疫力 14
入籍 14
全书 14
全副武装 14
全民投票 14
全身 14
公共秩序 14
公平合理 14
六次 14
共计 14
关系恶化 14
其辞 14
内部化 14
再见 14
再说 14
军营 14
军警 14
冤@@ 14
冤冤相报 14
冰雪 14
几任 14
几轮 14
凡是 14
凭空@@ 14
凸现 14
出其 14
出场 14
出生地 14
出类拔萃 14
分泌 14
分清 14
分配机制 14
划入 14
利用@@ 14
利用效率 14
利益@@ 14
别斯兰 14
别无他法 14
前台 14
前置 14
剖@@ 14
剿 14
加以控制 14
加征 14
加拿大人 14
动型 14
劳方 14
勇 14
勒紧 14
勤奋 14
匆匆 14
化为乌有 14
十多个 14
十月份 14
千夫所指 14
千载难逢 14
升起 14
午@@ 14
华人 14
华裔 14
卖方 14
南朝鲜 14
博尔@@ 14
博彩 14
卢拉@@ 14
卧@@ 14
卫报 14
印制 14
印刷@@ 14
厚颜无耻 14
原始@@ 14
原籍 14
及时@@ 14
双轨制 14
发展经济学 14
发票 14
发给 14
发行@@ 14
受助者 14
受灾国 14
叙 14
叠加 14
古巴@@ 14
古柯 14
可追溯 14
史蒂文斯 14
司法机关 14
吃饭 14
各个部门 14
各阶层 14
合同@@ 14
合法@@ 14
合法政府 14
合法权利 14
同盟国 14
同质 14
后继 14
吐 14
君主国 14
启发性 14
呈上升 14
和平过渡 14
咬 14
哈德 14
哭@@ 14
商会 14
喜悦 14
喷洒 14
嗜好 14
器@@ 14
噪声 14
囊中羞涩 14
四小龙 14
四面楚歌 14
困难性 14
国事访问 14
国家机器 14
国都 14
土耳其共和国 14
在此之后 14
在表面上 14
在讲话中 14
地质@@ 14
场外 14
场馆 14
坚持下去 14
坚持到底 14
坠入 14
垄断权 14
埃尔 14
埃尔@@ 14
域@@ 14
堕入 14
填写 14
增产 14
增加@@ 14
增收 14
声言 14
处事 14
夕 14
外交活动 14
外来@@ 14
多倍 14
多前 14
多多 14
多夫 14
多种@@ 14
大放@@ 14
大有可为 14
大步 14
天安 14
夫斯 14
失常 14
头目 14
头顶 14
奔走 14
套息 14
奥孔乔 14
女权 14
女神 14
好几十年 14
如其 14
如愿 14
威廉姆斯 14
婆 14
孤岛 14
学员 14
学徒 14
学龄 14
宁边 14
宁静 14
宇宙学 14
安哲秀 14
安第斯@@ 14
完美无缺 14
宛@@ 14
实录 14
室@@ 14
宫殿 14
害虫 14
家庭主妇 14
家用 14
容性 14
宿命论 14
宿醉 14
密歇根州 14
富含 14
寓@@ 14
寻 14
封建@@ 14
小组@@ 14
少不了 14
少数几家 14
尝 14
尸 14
居留 14
屠@@ 14
山地 14
峡 14
工会组织 14
己任 14
已成定局 14
巷 14
布伦特 14
布拉 14
布满 14
帕潘德里欧 14
帝王 14
席@@ 14
帮派 14
常年 14
平淡无奇 14
年度报告 14
年老 14
并肩作战 14
并行 14
应激 14
店@@ 14
废品 14
废气 14
廉洁 14
开心 14
开行 14
异议人士 14
弗莱明 14
弟 14
强奸犯 14
强烈反应 14
形容词 14
彻@@ 14
往后 14
往好 14
征求 14
律 14
得起 14
德国议会 14
德里@@ 14
心灰意冷 14
忠告 14
快感 14
怀有敌意 14
怀特 14
怎么回事 14
怒气 14
思维@@ 14
怪人 14
怪兽 14
总参谋长 14
总计 14
悉@@ 14
悲痛 14
情谊 14
惊慌失措 14
愈合 14
愿景@@ 14
慰安妇 14
憎 14
戈夫 14
成功经验 14
成熟度 14
战斗力 14
战略重点 14
戴蒙 14
所想 14
才华横溢 14
打扮 14
执意 14
执法@@ 14
扩大化 14
承销 14
技术升级 14
技术革新 14
抑@@ 14
投入@@ 14
投掷 14
投标 14
投身于 14
折价 14
报废 14
拆借 14
拖延@@ 14
招徕 14
拦@@ 14
拼凑 14
挪威@@ 14
授粉 14
排出 14
排在 14
控制区 14
控制措施 14
推敲 14
提供@@ 14
援 14
援助者 14
搏 14
搬出 14
携@@ 14
撤走 14
操纵者 14
支行 14
收留 14
收音机 14
放任自流 14
政教 14
政治界 14
效而仿 14
教给 14
教育部 14
数百万个 14
数码 14
文化背景 14
文明@@ 14
文物 14
斯拉 14
斯洛博 14
斯蒂@@ 14
新疆@@ 14
新纪元 14
新罕布什尔州 14
新闻记者 14
旅中 14
旗手 14
无从谈起 14
无意间 14
无法挽回 14
无理 14
无证 14
无赖 14
既成 14
日盛 14
日起 14
旱 14
时代精神 14
时滞 14
旺@@ 14
普罗@@ 14
普通家庭 14
智人 14
暴富 14
暴虐 14
暴躁 14
曰 14
更多 14
更让人 14
有句名言 14
有种 14
有误 14
望远镜 14
末代 14
本可 14
本尼迪克 14
本方 14
本科生 14
机动车 14
机智 14
机率 14
杀灭 14
权威@@ 14
杠杆作用 14
杰克逊 14
极端@@ 14
枝 14
枪口 14
枪杀 14
枪炮 14
柔 14
查维斯 14
柯齐 14
栏 14
格拉@@ 14
桃@@ 14
梅在 14
棚 14
植被 14
模糊@@ 14
橄榄球 14
橡@@ 14
欠下 14
武装@@ 14
武装斗争 14
死硬 14
死难者 14
殿@@ 14
每人每年 14
每股 14
毫无价值 14
毫无例外 14
气来 14
气象@@ 14
氦气 14
水落石出 14
沙俄 14
没有@@ 14
沧@@ 14
法典 14
法学 14
法律界 14
泛欧 14
泾渭分明 14
洁 14
洋洋@@ 14
洛克菲勒 14
流民 14
流血冲突 14
浓@@ 14
海拔 14
海洋@@ 14
海运 14
涡轮 14
淫@@ 14
深化改革 14
混战 14
淹死 14
清晰可见 14
清醒@@ 14
渐进主义 14
温室效应 14
渴 14
游击队员 14
滞@@ 14
滴 14
漏水 14
漫漫 14
澳大利亚人 14
濒临破产 14
濒于 14
灵药 14
炒 14
炮火 14
炮轰 14
烟草行业 14
焦土 14
照常 14
爱丁堡 14
爱好 14
片中 14
牌照 14
牲口 14
牵强 14
牵线 14
特兰 14
特科夫 14
犬类 14
犯罪活动 14
狄@@ 14
独断专行 14
独霸 14
猩猩 14
猫@@ 14
玉米@@ 14
环境污染 14
现代战争 14
现实性 14
珊瑚 14
珍 14
珠三角 14
琼斯 14
瑟@@ 14
瑟斯 14
瓶子 14
甘冒 14
生物质 14
用意 14
用水量 14
甫 14
田间 14
电磁@@ 14
畔 14
留学生 14
留心 14
疗@@ 14
百科全书 14
盗取 14
盲从 14
直率 14
直选 14
相对@@ 14
相差无几 14
看穿 14
真话 14
知识界 14
矿产资源 14
硬退 14
碎@@ 14
碗 14
碰面 14
磕@@ 14
社会各界 14
祝福 14
神明 14
禁用 14
福布斯 14
种下 14
科雷拉 14
称颂 14
移民法 14
稻草 14
穆雷 14
穴 14
空域 14
空头 14
空子 14
突然@@ 14
站边 14
竞争@@ 14
第三位 14
第九 14
第二步 14
第五条 14
等价物 14
筑@@ 14
答复 14
签发 14
签约 14
签订协议 14
管理模式 14
管辖区 14
篇@@ 14
精妙 14
糊涂 14
糟@@ 14
紧密@@ 14
紧紧抓住 14
紫外线 14
红树林 14
纪念活动 14
纳吉 14
纺织@@ 14
组件 14
绅士 14
经受考验 14
经商 14
经济实体 14
结下 14
结出 14
统一行动 14
继而 14
综合@@ 14
绿洲 14
绿皮书 14
罗德里@@ 14
罪过 14
置换 14
美国民主党 14
美国陆军 14
老大哥 14
老话 14
而用 14
而过 14
耐用 14
耶娃 14
耶西 14
耶鲁 14
聒噪 14
联结 14
聚光灯 14
聚敛 14
肢 14
育出 14
胃@@ 14
胆怯 14
胎死腹中 14
胡德 14
能源行业 14
脑中 14
脑海 14
脚跟 14
臣民 14
自吹自擂 14
自尊心 14
自得 14
自满情绪 14
自由支配 14
自绝 14
臭氧 14
航空@@ 14
航运 14
船长 14
艰苦@@ 14
艾尔@@ 14
芸@@ 14
苦恼 14
英寸 14
英雄主义 14
荷兰@@ 14
莫内 14
莫里亚 14
菲特 14
营救 14
萨德尔 14
萨拉姆 14
葡萄牙@@ 14
董建华 14
蒸@@ 14
蓄水 14
藉此 14
虚与委蛇 14
虚无主义 14
蚊虫 14
蛮@@ 14
行进 14
衣物 14
表达方式 14
衬@@ 14
衬衫 14
裤腰带 14
西班牙语 14
西西 14
西非国家 14
西非地区 14
见过 14
观感 14
触怒 14
警力 14
计量经济学 14
订 14
训@@ 14
访谈 14
证书 14
证件 14
证券交易所 14
评定 14
诈@@ 14
试探性 14
试验场 14
该校 14
诧异 14
语境 14
调降 14
豆 14
贝内特 14
贝南克 14
贝布托 14
贴切 14
贷@@ 14
贸易商 14
贸易部长 14
费尔南@@ 14
费尽@@ 14
资本化 14
赛亚 14
赞助商 14
走动 14
走路 14
起草者 14
超负荷 14
趋@@ 14
足球比赛 14
跨学科 14
跳板 14
蹈@@ 14
车祸 14
转动 14
转手 14
输气管道 14
过多地 14
迈入 14
运到 14
进退两难 14
远大 14
远远不如 14
连带 14
连续@@ 14
迟疑 14
迦@@ 14
退位 14
递延 14
造出 14
道格拉斯 14
遗嘱 14
遣 14
遣散 14
遭致 14
邀 14
那边 14
邦交 14
部委 14
醒目 14
里卡多 14
里尼 14
重伤 14
重大胜利 14
重庆 14
钉@@ 14
钢铁行业 14
钩 14
铁托 14
铸造 14
铺天盖地 14
锈带 14
错误信息 14
锤@@ 14
键 14
问一问 14
阐释 14
阶 14
阿拉伯@@ 14
附庸国 14
陡@@ 14
险些 14
险境 14
陶醉 14
隐 14
隐私权 14
障@@ 14
难产 14
难以确定 14
集中力量 14
雇佣兵 14
零净 14
雷克斯 14
静默 14
非线性 14
面对现实 14
革 14
鞋@@ 14
鞭策 14
须@@ 14
颁@@ 14
预案 14
预测值 14
颓废 14
食物链 14
饮食习惯 14
香港@@ 14
马达加斯加 14
高学历 14
高收入者 14
魂@@ 14
魄力 14
鲁莽地 14
鲜@@ 14
鲨 14
鸠山 14
麦克纳马拉 14
黄色 14
黑塞哥维那 14
黑石 14
黑钱 14
默文 14
鼠标 14
齐亚 14
10.5 13
102 13
1815 13
189 13
2070 13
2300 13
310 13
5.4 13
670 13
860 13
9.2 13
9.8 13
AT 13
Accoun@@ 13
All 13
Andy 13
Angela 13
Ap@@ 13
Arm@@ 13
Asia 13
Baker 13
Bal@@ 13
Bay 13
Beppe 13
Bh@@ 13
Bord@@ 13
Bou@@ 13
Bri@@ 13
British 13
CAPE 13
CELAC 13
CFT 13
COP21 13
Comm@@ 13
Commun@@ 13
Cour@@ 13
Debt 13
Democrats 13
Ed 13
En 13
Eng@@ 13
Equ@@ 13
FMLC 13
FS@@ 13
FT@@ 13
Gar@@ 13
Golden 13
Gor@@ 13
Grillo 13
Hans 13
Hansen 13
Home 13
Hou@@ 13
Hug@@ 13
IA@@ 13
IN@@ 13
Jav@@ 13
Jeff 13
Jr 13
Kennedy 13
Life 13
MO@@ 13
Mahmoud 13
Markets 13
Merkel 13
Mig@@ 13
Mu@@ 13
NHS 13
Nav@@ 13
Navarro 13
Nicolas 13
Northern 13
OP@@ 13
On@@ 13
Pap@@ 13
Pierre 13
Podemos 13
Por@@ 13
Prot@@ 13
QE@@ 13
Rab@@ 13
Raw@@ 13
Regul@@ 13
Ronald 13
Samuelson 13
Sarkozy 13
Sav@@ 13
Skype 13
Stand@@ 13
Stream 13
Street 13
Su@@ 13
Syn@@ 13
TRIPS 13
TTP 13
TV@@ 13
Technology 13
Time 13
Tobin 13
Tom@@ 13
Trust 13
UE 13
US@@ 13
Val 13
War@@ 13
YP@@ 13
ace@@ 13
aci 13
als 13
arm@@ 13
ash 13
asi 13
ation@@ 13
ats 13
aya 13
cos@@ 13
coun@@ 13
deb@@ 13
def@@ 13
des@@ 13
do@@ 13
edge 13
eft 13
egel 13
erm@@ 13
erman 13
err@@ 13
ese 13
ets 13
fi@@ 13
ford 13
from 13
hab@@ 13
har 13
hard 13
hi 13
icddr 13
imp@@ 13
isa 13
ital 13
ith 13
ition 13
its 13
jec@@ 13
kers 13
king 13
kins 13
konzo 13
ky 13
len 13
lig@@ 13
lim@@ 13
ls 13
ment@@ 13
mes 13
mid@@ 13
national 13
ney 13
omo 13
oods 13
oto 13
owitz 13
peti@@ 13
ppm 13
pri@@ 13
ray 13
rid@@ 13
riel 13
rin 13
row@@ 13
sell 13
sid@@ 13
th 13
tis 13
ture 13
va 13
wig 13
ze 13
一丁点 13
一万亿美元 13
一个零 13
一二 13
一切@@ 13
一切办法 13
一千年 13
一大群 13
一帖 13
一无所获 13
一款 13
七分 13
七名 13
万事@@ 13
万事俱备 13
万事达 13
万公顷 13
万分 13
万劫不复 13
三座 13
三星@@ 13
上以 13
上文 13
上用 13
不以 13
不偏不倚 13
不全 13
不共戴天 13
不及@@ 13
不屑 13
不抱 13
不提 13
不暇 13
不知疲倦 13
不经 13
不衰 13
不解 13
不许 13
不设 13
不配 13
丑恶 13
世界报 13
东南亚国家联盟 13
东南欧 13
东山再起 13
两伊 13
两国人民 13
两边 13
丧气 13
个体@@ 13
中共@@ 13
中向 13
中国人民解放军 13
中心地带 13
中意 13
中饱私囊 13
丰收 13
主导力量 13
主政 13
主食 13
举起 13
之慨 13
之用 13
之锚 13
之音 13
乔布斯 13
乔杜里 13
乡 13
买到 13
事倍功半 13
事务@@ 13
事务部 13
事务部长 13
二分之一 13
二十亿 13
于用 13
互联互通 13
五年期 13
五花八门 13
亚太经济 13
些年 13
交响@@ 13
交恶 13
产品价格 13
产品质量 13
产地 13
产权保护 13
亲美 13
人世 13
人口减少 13
人口密度 13
人口统计 13
人工岛 13
人才库 13
人流 13
人身攻击 13
亿万 13
亿桶 13
仍有 13
从业人员 13
从以 13
从技术上 13
付诸@@ 13
代尔 13
令人注目 13
令人钦佩 13
以军 13
以方 13
件@@ 13
价格调整 13
任其 13
伊斯兰@@ 13
优越感 13
传送 13
伪劣 13
伪装成 13
估测 13
但令 13
但光 13
但近 13
低且 13
低到 13
低息 13
佣金 13
使该 13
侄@@ 13
侍@@ 13
供给者 13
依然@@ 13
侵略战争 13
便会 13
保护国 13
信息源 13
修缮 13
偏左 13
做好事 13
偷税漏税 13
傻瓜 13
儿童教育 13
元帅 13
充沛 13
先声 13
先期 13
先河 13
克劳狄 13
克拉 13
克莱 13
克西 13
入罪 13
全国@@ 13
全是 13
全球排名 13
全过程 13
全面性 13
八成 13
八百万 13
公元 13
公开批评 13
六国 13
兰德拉 13
共振 13
关税@@ 13
关系@@ 13
关键技术 13
关键步骤 13
兴许 13
其内 13
内华达州 13
冈@@ 13
再购 13
冒险@@ 13
军事装备 13
军区 13
冷眼旁观 13
冻@@ 13
准备就绪 13
凉@@ 13
减赤 13
出了名 13
出人@@ 13
出头 13
出比 13
出示 13
函数 13
分散@@ 13
切尔 13
切斯 13
利于 13
利卡 13
利沃夫 13
利物浦 13
到哪去 13
制胜 13
刷新 13
剖析 13
剩余劳动力 13
割 13
力不从心 13
功夫 13
劣 13
勒令 13
化工@@ 13
北卡罗来纳州 13
北极圈 13
北瓦济 13
十九@@ 13
升级@@ 13
半叶 13
单性 13
单是 13
南墙 13
博纳 13
占上风 13
卡什 13
卫星电视 13
卫生领域 13
印刷机 13
印钱 13
却令 13
压榨 13
厌烦 13
原文 13
双性恋 13
双边合作 13
反毒 13
发育不良 13
发起人 13
发起者 13
叔 13
取得成效 13
受压迫 13
受骗 13
变化无常 13
变坏 13
变态 13
叛乱@@ 13
口头禅 13
古典@@ 13
句子 13
只靠 13
叫作 13
史克 13
司法程序 13
叹@@ 13
叹为观止 13
各方对 13
各种@@ 13
各种因素 13
各部 13
吉隆坡 13
同伙 13
同名 13
同时代 13
同龄人 13
名气 13
名符其实 13
后台 13
吴登盛 13
吸收器 13
吻 13
呼吸系统 13
呼吸道 13
呼应 13
品味 13
哈姆 13
哈斯 13
哈西娜 13
哪儿 13
售@@ 13
商业部门 13
喜马拉雅山脉 13
器械 13
噩@@ 13
四人 13
回想起来 13
回绝 13
回顾过去 13
因在 13
团结@@ 13
园@@ 13
园丁 13
国内部 13
国安局 13
国家化 13
国将 13
国立大学 13
国联 13
图书 13
圈养 13
圈子里 13
土地改革 13
土著居民 13
地方法院 13
地道 13
坚持原则 13
垮掉 13
埃以 13
城市集群 13
基准@@ 13
堤坝 13
塌 13
塔斯 13
填补空白 13
增长幅度 13
声势浩大 13
复杂@@ 13
外汇@@ 13
外相 13
外资银行 13
多一倍 13
多场 13
多有 13
多活 13
多米尼加共和国 13
夜间 13
大一统 13
大体@@ 13
大国家党 13
大大@@ 13
大学毕业 13
大度 13
大方 13
大起大落 13
天后 13
天赐 13
夫特 13
失地 13
头等大事 13
奋战 13
奥利@@ 13
奧 13
妇@@ 13
委托人 13
委派 13
威尔克斯 13
媾和 13
孤注一掷 13
宇航员 13
安全套 13
安和@@ 13
完全一致 13
宏伟目标 13
实施@@ 13
实用性 13
实践@@ 13
实际效果 13
实验@@ 13
宣泄 13
宣讲 13
寂静 13
寄予 13
富强 13
对欧 13
对面 13
寺庙 13
射程 13
小型企业 13
小城 13
小船 13
尖端科技 13
尼安德 13
层层 13
居家 13
屡试不爽 13
州级 13
巡回 13
工事 13
工程技术 13
工薪 13
工资@@ 13
巨著 13
已婚 13
巴尼 13
巴布亚新几内亚 13
巴库 13
巴拉 13
巴马@@ 13
市郊 13
布斯 13
带宽 13
常务@@ 13
常理 13
平均主义 13
平方米 13
平方英里 13
并不大 13
并称 13
幸事 13
幼童 13
序@@ 13
应从 13
应用程序 13
底下 13
废黜 13
康拉德 13
廉价地 13
建设者 13
开发计划 13
开局 13
开足马力 13
开阔 13
弃权票 13
弗拉 13
弗洛伊德 13
弟@@ 13
归国 13
当场 13
彭博社 13
彰 13
彻底解决 13
彼得大帝 13
征得 13
很差 13
徐@@ 13
得力 13
得意 13
循环@@ 13
微博 13
德州 13
心头 13
忍不住 13
志在 13
快捷 13
怎@@ 13
怜悯 13
急不可耐 13
怪事 13
总协定 13
总监 13
恶意软件 13
恶梦 13
悬念 13
情况@@ 13
情报搜集 13
惠 13
惯@@ 13
想着 13
愚不可及 13
愤愤不平 13
慌乱 13
戒 13
戒心 13
或非 13
战略决策 13
手术@@ 13
才行 13
扑@@ 13
打击目标 13
打趣 13
扔进 13
托塔 13
扣留 13
扫荡 13
报章 13
抱有幻想 13
抵触情绪 13
抽水 13
拍照 13
拒不@@ 13
招牌式 13
招生 13
挫伤 13
挫折感 13
挺进 13
捕杀 13
换届 13
换算 13
排位 13
接种员 13
掷 13
握@@ 13
搅乱 13
携 13
摄像头 13
摘要 13
撇清 13
收归国有 13
收看 13
改动 13
改名 13
改编 13
攻克 13
敌手 13
救星 13
数亿美元 13
数十 13
数学@@ 13
整年 13
文化冲突 13
斐济 13
斥@@ 13
斯图@@ 13
斯文森 13
新贵 13
旅游者 13
旋 13
旋转 13
旗鼓 13
无国籍 13
无现金 13
无计可施 13
日益减少 13
日益壮大 13
旧式 13
早早 13
时事 13
时向 13
时报 13
时而 13
时能 13
明确性 13
明确提出 13
易受 13
星星 13
昭@@ 13
显性 13
显赫 13
晚年 13
普及@@ 13
普拉 13
普通工人 13
普通法 13
普里 13
普雷@@ 13
智力测验 13
智囊 13
智者 13
智胜 13
暴利 13
暴力@@ 13
更贵 13
更远 13
最常 13
有涉 13
有违 13
期内 13
未卜 13
本来面目 13
机票 13
杆 13
来时 13
杰哈德 13
林木 13
某处 13
柯林斯 13
标价 13
标杆 13
核爆 13
核裂变 13
格式 13
格莱@@ 13
桌 13
桌面 13
检查和 13
棋局 13
森林保护 13
棺@@ 13
植@@ 13
植物@@ 13
椭圆 13
模板 13
欠款 13
正常人 13
此话 13
步调一致 13
武器库 13
武装集团 13
歪@@ 13
死气沉沉 13
残 13
毁林 13
比比 13
比较而言 13
毕业@@ 13
氧 13
氮@@ 13
水危机 13
水流 13
水灾 13
汇丰银行 13
汇率问题 13
汉班 13
汗@@ 13
沃克 13
沉寂 13
沉沦 13
沟 13
法克斯 13
波黑 13
泥 13
注脚 13
洗手 13
洗衣机 13
洪 13
洪流 13
海面 13
涅姆佐夫 13
消解 13
涌@@ 13
涓滴 13
润 13
淋巴@@ 13
淘@@ 13
深入@@ 13
混合@@ 13
温哥华 13
溜走 13
演奏 13
激光 13
濒临@@ 13
炉@@ 13
炸药 13
点子 13
炼油厂 13
热忱 13
热情@@ 13
煤炭行业 13
煤钢 13
爆料 13
爷@@ 13
版面 13
牢狱之灾 13
物业税 13
物质利益 13
特斯 13
犬 13
犹太主义 13
狡诈 13
独大 13
独特性 13
独立自主 13
猪肉 13
玩意 13
环境卫生 13
环境退化 13
现行制度 13
现金支付 13
理清 13
瑞士@@ 13
瓜葛 13
瓦尔@@ 13
瓦斯 13
瓦特 13
瓦西里 13
甚少 13
生存能力 13
生物圈 13
用力 13
用工 13
用钱 13
田纳西州 13
申明 13
电影明星 13
电波 13
电视网 13
略低 13
疆@@ 13
疟俘 13
疾 13
病入膏肓 13
病房 13
痴@@ 13
瘾君子 13
癖 13
登盛 13
白喉 13
白热化 13
百年@@ 13
百日咳 13
盈 13
监听 13
监督局 13
监督权 13
盛大 13
盲人 13
直升飞机 13
直通 13
相互理解 13
相互间 13
相像 13
相当严重 13
省长 13
看不@@ 13
着陆 13
矗立 13
知识@@ 13
短期贷款 13
石油输出国组织 13
矿石 13
破旧 13
碌@@ 13
示范@@ 13
社会党人 13
祈@@ 13
神庙 13
神经外科 13
神经系统 13
禁酒令 13
离家 13
离心离德 13
私营经济 13
科技领域 13
科特 13
科研机构 13
积极响应 13
移出 13
稀奇 13
稀有 13
稀缺性 13
程@@ 13
税费 13
税赋 13
穷困 13
空头支票 13
突击@@ 13
窥探 13
立足之地 13
竞技 13
章@@ 13
符@@ 13
第一类 13
第一道 13
第四条 13
第四种 13
等级制度 13
筹 13
算作 13
管们 13
管理机制 13
箴言 13
米奇 13
米洛 13
粘性 13
粮食供应 13
精心策划 13
精致 13
素食 13
索拉纳 13
紧张状态 13
紧盯 13
累牍 13
纠@@ 13
纤@@ 13
纲要 13
纳米 13
经营@@ 13
结余 13
结构化 13
给力 13
维拉 13
绿化 13
缉毒 13
缝 13
罐@@ 13
罗素 13
罗马@@ 13
罪人 13
置疑 13
美国商务部 13
美国国家安全局 13
美国宇航局 13
美国电话电报公司 13
美国联邦政府 13
美国队 13
群起 13
耀 13
老方 13
而广受 13
而无@@ 13
聊天 13
职人员 13
职权范围 13
联动性 13
聪明才智 13
肆@@ 13
股东大会 13
育种 13
胆小鬼 13
胖 13
胜算 13
脑子 13
脱口秀 13
腰斩 13
腹地 13
腺@@ 13
腻 13
自如 13
自我批评 13
自我标榜 13
致裂 13
航海 13
舰@@ 13
舰艇 13
色子 13
艺 13
艺术作品 13
若想 13
英明 13
英迪拉 13
草原 13
药价 13
荷 13
荼毒 13
获选 13
萌@@ 13
营运 13
萧@@ 13
著@@ 13
葛兰素 13
葡萄糖 13
蒸汽 13
虐 13
虚拟现实 13
蛇@@ 13
蜜 13
融资@@ 13
螺旋式 13
行政当局 13
行者 13
衰 13
袍 13
被害 13
裁 13
裂 13
装模作样 13
装配 13
裤@@ 13
裹足不前 13
褪去 13
西欧@@ 13
西西@@ 13
要强 13
覆盖@@ 13
触 13
警戒 13
讥@@ 13
训令 13
训诫 13
论及 13
讽 13
设限 13
试金石 13
试错 13
诞@@ 13
诡@@ 13
该报 13
语焉不详 13
误认为 13
说错 13
诸任 13
诺斯 13
诺曼 13
读一读 13
谋利 13
豪华@@ 13
豪斯 13
贝卢斯 13
贝拉 13
贡献力量 13
财政年度 13
财政管理 13
质性 13
购房 13
贷款@@ 13
费迪南德 13
资讯 13
赏@@ 13
赚@@ 13
赞许 13
赢者 13
赤道 13
赴@@ 13
起势 13
起死回生 13
趁 13
超前 13
超大 13
超调 13
越南@@ 13
趋之若鹜 13
足球@@ 13
足量 13
路易斯@@ 13
路障 13
跳舞 13
身份证 13
躯@@ 13
转瞬即逝 13
转给 13
轴@@ 13
辆车 13
辛勤工作 13
边界线 13
达近 13
迂@@ 13
过于@@ 13
过早地 13
过渡时期 13
迎刃而解 13
运动@@ 13
运输@@ 13
近海 13
这则 13
这番 13
这颗 13
进步性 13
进犯 13
远为 13
连动 13
迪亚@@ 13
迫 13
追 13
追求@@ 13
退潮 13
逃出 13
逃逸速度 13
逍遥 13
逐步提高 13
途@@ 13
通奸 13
通用汽车 13
通路 13
通过观察 13
造访 13
逾越 13
遇难 13
遮掩 13
避孕套 13
那条 13
那般 13
邦政府 13
郡 13
酷 13
醒@@ 13
里亚尔 13
金融学 13
钉子 13
钟@@ 13
铃@@ 13
铐 13
铭@@ 13
铸@@ 13
铸币 13
销声匿迹 13
镜@@ 13
长期保持 13
长篇 13
长远利益 13
门徒 13
门户@@ 13
闯入 13
阔@@ 13
阿伯特 13
阿尔文 13
陈词 13
降临到 13
降为 13
降落 13
降速 13
陷@@ 13
雄性 13
零工 13
雷克雅未克 13
雷区 13
青春期 13
非对称 13
非技术 13
非裔 13
面具 13
面板 13
页面 13
顾拜旦 13
预防@@ 13
领导集体 13
颇受 13
频仍 13
题目 13
风度 13
飞船 13
飞越 13
食品药品 13
马修 13
马蒂 13
马里@@ 13
驱逐舰 13
驶向 13
驾 13
驾驶@@ 13
骂@@ 13
骆驼 13
高标准 13
高碳 13
高能 13
高院 13
高频 13
麦肯锡公司 13
麻 13
黛@@ 13
鼎盛时期 13
116 12
123 12
127 12
134 12
14.5 12
166 12
17.5 12
18.@@ 12
1895 12
19.@@ 12
1910 12
1915 12
1922 12
1923 12
1935 12
2027 12
21@@ 12
377 12
470 12
660 12
7.9 12
760 12
880 12
9.3 12
AG@@ 12
Abdul 12
Alexei 12
Alvin 12
And@@ 12
Andrei 12
Anna 12
Arab 12
Ba@@ 12
Bra@@ 12
Brothers 12
CBR 12
CFC 12
CH@@ 12
CNVs 12
CNY 12
CPJ 12
CR@@ 12
Camp@@ 12
Chi@@ 12
Child 12
Citi@@ 12
Comey 12
Common 12
Community 12
Compl@@ 12
Cruz 12
DP 12
DSM 12
Dem@@ 12
Des@@ 12
Deut@@ 12
Dim@@ 12
Direc@@ 12
Doc@@ 12
Dougl@@ 12
Dre@@ 12
EBM 12
EID 12
Euras@@ 12
FCTC 12
Farage 12
Fisher 12
Force 12
Forces 12
France 12
G0 12
GBD 12
GI 12
Galbraith 12
Gates 12
Geert 12
Go@@ 12
Gold@@ 12
Government 12
Haram 12
Helm@@ 12
Holl@@ 12
IB 12
ICO 12
IRP 12
Id@@ 12
Information 12
Insurance 12
Jan 12
Kw@@ 12
Land 12
Lead@@ 12
Lind@@ 12
MFI 12
MH17 12
MHP 12
MILF 12
Moun@@ 12
NP@@ 12
NTD 12
Net@@ 12
Ni@@ 12
North 12
OC 12
OP 12
Olivier 12
PARP 12
Pal@@ 12
Patrick 12
Pers@@ 12
Philipp@@ 12
Priv@@ 12
Progressive 12
Q 12
Red@@ 12
Ricardo 12
Ron 12
Royal 12
Rub@@ 12
SB 12
SBN 12
SDSN 12
SNP 12
SS 12
Sci@@ 12
Sher@@ 12
Skill@@ 12
Smith 12
Stuart 12
Susan 12
TR@@ 12
TS 12
Thir@@ 12
Tig@@ 12
Ts@@ 12
UNICEF 12
Well@@ 12
West@@ 12
Wilbur 12
XL 12
ago 12
akh@@ 12
ami 12
ande 12
any 12
ational 12
chi 12
chn@@ 12
ciples 12
con 12
dish 12
eck 12
ender 12
europ 12
ght 12
good 12
her@@ 12
ib 12
ig 12
inking 12
ision 12
ito 12
itt@@ 12
ive 12
lis 12
lu 12
me@@ 12
min@@ 12
na 12
nik 12
ning 12
ny 12
obs 12
och 12
off@@ 12
ohn 12
ony 12
ox 12
polac@@ 12
prog@@ 12
pu@@ 12
ree 12
rik 12
sel@@ 12
ses 12
sh 12
ters 12
trans@@ 12
ues 12
uli@@ 12
up 12
ves 12
wh@@ 12
一会儿 12
一堂 12
一大@@ 12
一大笔 12
一大笔钱 12
一岁 12
一无所有 12
一枪 12
一瞬间 12
七成 12
万人@@ 12
万多亿美元 12
万张 12
万里 12
丈 12
三分 12
三岁 12
三难 12
上升时 12
上午 12
上能 12
不为所动 12
不久以后 12
不买账 12
不二 12
不决 12
不减 12
不加 12
不周 12
不尽 12
不尽人意 12
不屈不挠 12
不灵 12
不由 12
不管@@ 12
不详 12
与会代表 12
专家团 12
严守 12
严峻考验 12
严重@@ 12
个人资料 12
个例 12
中华民族 12
中国外交部 12
中小学 12
中文 12
中欧国家 12
中要 12
中间价 12
为一 12
主宰世界 12
主管部门 12
主要矛盾 12
乃@@ 12
九倍 12
九月份 12
乞求 12
买进 12
二三十年 12
二十年代 12
二月份 12
互联网@@ 12
五天 12
五点 12
亚历 12
亚当斯 12
亚特 12
交界 12
亲眼 12
人力@@ 12
人去 12
人口数 12
人员@@ 12
人寿保险 12
人所共知 12
人权委员会 12
人身@@ 12
亿万富豪 12
亿立方米 12
仅能 12
仇敌 12
仍高达 12
从头@@ 12
仓库 12
付诸行动 12
付酬 12
代表制 12
令人作呕 12
令人尊敬 12
令到 12
以太 12
以此为@@ 12
以身作则 12
件事 12
价值观念 12
价格低廉 12
企及 12
伊夫 12
伊斯 12
伏尔泰 12
优惠待遇 12
优秀@@ 12
会变 12
会想 12
会输 12
伞 12
传统@@ 12
传统意义 12
伤疤 12
伦理学家 12
伯恩斯 12
伴生 12
伺@@ 12
但梅 12
佼@@ 12
使然 12
俄中 12
俄克拉荷@@ 12
俘 12
信誉度 12
俨然 12
修饰 12
俯首@@ 12
倍增 12
倒计时 12
倒转 12
倚重 12
值得尊敬 12
假使 12
假冒 12
做梦 12
做派 12
傍晚 12
储备金 12
储蓄@@ 12
儒@@ 12
充电 12
光合作用 12
光谱 12
克劳塞维茨 12
克里斯蒂 12
免费搭车 12
党的领导 12
全然不顾 12
八强 12
公交 12
六七十年代 12
六位 12
六月份 12
共产党人 12
共产党员 12
共同语言 12
关停 12
关税壁垒 12
关门大吉 12
兴高采烈 12
其净 12
其有 12
其本质 12
内陆@@ 12
再也不会 12
再用 12
写出 12
军事情报 12
军工 12
军界 12
农业生产者 12
冠以 12
冬@@ 12
冲突@@ 12
决策@@ 12
冷冻 12
减肥 12
凑 12
几起 12
凤@@ 12
凭借着 12
出庭 12
出柜 12
出狱 12
分明 12
分析@@ 12
分裂性 12
分野 12
切不可 12
刊@@ 12
刑事责任 12
划界 12
列明 12
刮@@ 12
到时候 12
到来之际 12
刺猬 12
前人 12
前去 12
前要 12
剑桥@@ 12
副总裁 12
力推 12
力量@@ 12
劝 12
动画 12
动静 12
劳动党 12
勃勃 12
化妆品 12
区域@@ 12
医学界 12
十个月 12
十几@@ 12
十名 12
千差万别 12
千禧@@ 12
升势 12
半决赛 12
半身像 12
协调性 12
单打独斗 12
南希 12
南越 12
南部非洲 12
博斯 12
占优 12
卡利亚 12
卡尔森 12
卡罗 12
卫星@@ 12
危害性 12
危机重重 12
却成 12
历史渊源 12
历史舞台 12
历来 12
去核 12
县@@ 12
参赛 12
发展部 12
发帖 12
叔@@ 12
取出 12
取经 12
受孕 12
受训 12
变性人 12
召 12
可上 12
可取之处 12
可望而不可及 12
可行@@ 12
台阶 12
叹 12
合宪性 12
吉利 12
名望 12
后世 12
后人 12
后方 12
后殖民 12
向南 12
君 12
听见 12
命脉 12
咋 12
哈利@@ 12
哲@@ 12
商务旅行 12
商标 12
喂@@ 12
善政 12
喷发 12
喻 12
噤声 12
器官移植 12
噩梦般 12
囚@@ 12
四点 12
困苦 12
国内@@ 12
国务@@ 12
国家所有 12
国有@@ 12
国等 12
国防军 12
圣诞老人 12
在结构上 12
圭@@ 12
地使 12
地理分布 12
坏主意 12
坚实基础 12
坝 12
垃圾桶 12
垄断利润 12
城市交通 12
域外 12
培根 12
基尔库克 12
基本点 12
塌@@ 12
塑料制品 12
塔尔@@ 12
塘 12
塞特 12
塞瓦斯托波尔 12
境@@ 12
墙角 12
声势 12
复兴@@ 12
夏洛特 12
外向型 12
外语 12
多事 12
多党 12
多快 12
大做文章 12
大大的 12
大好@@ 12
大理石 12
大白@@ 12
大赛 12
大量美元 12
大钱 12
天上掉 12
太多人 12
失忆症 12
夸 12
夺 12
奇异 12
奖牌@@ 12
奥利 12
女郎 12
奸@@ 12
妥当 12
委会 12
威胁性 12
婆@@ 12
婴@@ 12
嫖娼 12
孕 12
存储@@ 12
孤儿院 12
学府 12
孵化器 12
安全阀 12
安吉 12
安拉 12
安纳托 12
宋思明 12
定得 12
定时 12
实性 12
审问 12
害性 12
家务@@ 12
家用电器 12
宿 12
寄托 12
富余 12
寡妇 12
对台 12
对性 12
对称性 12
寻找机会 12
小圈子 12
尔塔 12
就象 12
尼哈 12
尿@@ 12
局部@@ 12
居功至伟 12
届@@ 12
屠夫 12
履历 12
屹立 12
岑 12
峡谷 12
川@@ 12
工业区 12
工人@@ 12
工科 12
已死 12
已能 12
巴基斯坦人民党 12
市场繁荣 12
市场营销 12
市级 12
布坎南 12
布莱 12
帅 12
希伯@@ 12
帕斯 12
帕特罗 12
帝国主义者 12
席卷@@ 12
常现象 12
平稳过渡 12
年迈 12
并进 12
广告牌 12
库尔@@ 12
库斯 12
库特 12
庙@@ 12
废料 12
建坝 12
开口 12
开放度 12
弊@@ 12
式化 12
弓形虫 12
弗里 12
张扬 12
弧@@ 12
强烈@@ 12
归根到底 12
归还给 12
当头@@ 12
当新 12
录取 12
形式化 12
得克萨斯州 12
微薄 12
德勒 12
德怀特 12
德涅斯特河 12
心满意足 12
心理疾病 12
心碎 12
心脏地带 12
心血@@ 12
忍耐 12
忠心 12
怀尔德 12
怀揣 12
性情 12
性感 12
总归 12
总的来讲 12
总预算 12
恐惧心理 12
恣意妄为 12
恣睢 12
恰巧 12
恳求 12
恶性@@ 12
悉 12
悬殊 12
悼念 12
情怀 12
情绪@@ 12
惊叹 12
想过 12
惹恼 12
愚人 12
感到遗憾 12
感召 12
懦弱 12
成绩@@ 12
成问题 12
我以 12
我者 12
我行我素 12
或称 12
所剩无几 12
打个 12
打成 12
打碎 12
托洛茨基 12
执行@@ 12
技术开发 12
把手 12
投票选举 12
抗旱 12
折中 12
抢走 12
抢走了 12
报以 12
抵税 12
拐点 12
拓@@ 12
拙 12
招收 12
拟 12
拟@@ 12
拭目以待 12
指日可待 12
挑动 12
振聋发聩 12
捉摸不定 12
捞取 12
捣@@ 12
捣毁 12
掂量 12
掏出 12
探测 12
接轨 12
控告 12
推卸责任 12
推土机 12
推导 12
推给 12
推选 12
措 12
掺@@ 12
掺杂 12
揭竿而起 12
搏斗 12
搜救 12
搭乘 12
摄像机 12
摇滚 12
摇滚乐 12
摇篮 12
摈弃 12
摔@@ 12
摩湾 12
支配@@ 12
改弦更张 12
攻击行为 12
放权 12
放款 12
放置 12
放血 12
政治派别 12
政治责任 12
政策@@ 12
救火 12
教员 12
教唆 12
教育工作者 12
教诲 12
敛财 12
数十名 12
数千个 12
数千亿 12
敲诈 12
整座 12
斋@@ 12
断流 12
断电 12
斯托@@ 12
斯顿 12
新法 12
新版 12
方舟 12
旁观 12
旗舰 12
无事 12
无以 12
无价 12
无暇 12
无法回答 12
无论怎样 12
无遗 12
日落 12
旧债 12
明尼@@ 12
明确要求 12
易行 12
星期五 12
星期日 12
晋身 12
普适 12
智利人 12
晾 12
暗流 12
曝出 12
更胜一筹 12
最易 12
最热 12
有害@@ 12
有志于 12
有权有势 12
有理有据 12
有色人种 12
有限@@ 12
服务供应商 12
本科 12
机组 12
杀伤力 12
杂着 12
村子 12
杜撰 12
杜赫 12
林业 12
架设 12
某次 12
格拉德 12
格陵兰岛 12
梅尔@@ 12
梵@@ 12
棉@@ 12
棵 12
椭圆形 12
模糊性 12
橄榄@@ 12
欣@@ 12
正当程序 12
正确认识 12
此列 12
步其后尘 12
死亡@@ 12
每户 12
比价 12
比利时人 12
比哈尔邦 12
毫不费力 12
毫无作用 12
毫无效果 12
民主思想 12
民主革命 12
民粹派 12
气旋 12
气象 12
氧化物 12
水分 12
水文 12
水电站 12
水质 12
水道 12
永无止境 12
汞 12
沃尔芬森 12
沃纳 12
沉痛 12
沦丧 12
河谷 12
法定@@ 12
法耶兹 12
波斯@@ 12
泥足 12
泪 12
洒@@ 12
洗劫 12
洗礼 12
洞察力 12
活在 12
流动资产 12
流水线 12
测试@@ 12
浑身解数 12
浓重 12
海外@@ 12
海市蜃楼 12
涅槃 12
消停 12
消磨 12
涌出 12
涌动 12
液态 12
淀 12
淡无光 12
淫 12
清廉 12
渣@@ 12
渥太华 12
温州 12
游牧 12
游牧民 12
游艇 12
溢@@ 12
滋味 12
滞留 12
满满@@ 12
满目疮痍 12
满足@@ 12
滤@@ 12
滨 12
演讲者 12
潜在@@ 12
潜移默化 12
潜藏 12
潦倒 12
激昂 12
瀑布 12
灿烂 12
炎@@ 12
炸死 12
炼狱 12
焕发 12
焦 12
熄灭 12
牙买加 12
牟取 12
物有所值 12
物竞天择 12
物质财富 12
特效药 12
犯罪者 12
犹他州 12
犹太@@ 12
犹太教徒 12
独占 12
独树一帜 12
狮子 12
狼藉 12
猥@@ 12
猴 12
猿类 12
玉@@ 12
王毅 12
环境压力 12
现代文明 12
琴科 12
瑕 12
瑞郎 12
瓶@@ 12
甚深 12
生不@@ 12
生产量 12
生存空间 12
申请加入 12
电视剧 12
电视屏幕 12
畅通无阻 12
疆界 12
疫@@ 12
疲于奔命 12
病虫害 12
痛心 12
白天 12
白芝浩 12
百分位 12
的放矢 12
皇后 12
盈亏 12
监察@@ 12
盯@@ 12
盲 12
相互@@ 12
相助 12
相当可观 12
省下 12
真面目 12
眩@@ 12
知情权 12
短期@@ 12
短语 12
码头 12
砍 12
砍@@ 12
研究局 12
破伤风 12
硫@@ 12
确定无疑 12
碳基 12
社民党 12
社群 12
祥@@ 12
票价 12
禁核 12
私有财产 12
秉持 12
科拉 12
科目 12
积极因素 12
税改 12
稚@@ 12
稿@@ 12
窃 12
窟窿 12
站稳 12
竹@@ 12
竹岛 12
笔下 12
笨蛋 12
第一副 12
第三阶段 12
第九@@ 12
第比利斯 12
管制@@ 12
管好 12
篇章 12
簧 12
籍@@ 12
粪便 12
粮@@ 12
粮价 12
精确度 12
精美 12
糊 12
糖价 12
糖果 12
素材 12
索赔 12
紧绷 12
紧跟 12
纠缠不清 12
约会 12
约尔 12
约等于 12
约组织 12
纪念馆 12
纳夫 12
纳罗 12
纳耶夫 12
纵深 12
纸媒 12
纹@@ 12
线下 12
练习 12
组织性 12
经营不善 12
结社 12
维吾尔族 12
维尔@@ 12
维新 12
维稳 12
维谢 12
缅怀 12
缔约方 12
缘由 12
缴款 12
罗德 12
罢黜 12
署长 12
美味 12
美墨加 12
美梦 12
羽@@ 12
翁@@ 12
翰 12
翻译成 12
老一套 12
老套 12
而异 12
耳边 12
职业道德 12
联合国开发计划署 12
联络小组 12
联通 12
聚居 12
肌@@ 12
股票指数 12
胜地 12
能活 12
脂 12
脸色 12
腐败@@ 12
腔@@ 12
腰 12
腹 12
臆@@ 12
臆想 12
自始至终 12
自然生态 12
自由职业 12
自省 12
自缚 12
自食其果 12
致电 12
舍弃 12
良 12
节节败退 12
芽 12
苏台德 12
苏菲 12
若望 12
若泽 12
英才 12
草坪 12
荒芜 12
荡@@ 12
荡然无存 12
药店 12
莫及 12
莫测 12
莱文 12
莱曼 12
莱纳 12
莱维 12
菅 12
菲永@@ 12
葬@@ 12
蕴含着 12
蕾 12
藤 12
蛮横 12
行动党 12
行医 12
行走 12
补习班 12
表示同意 12
被忽略了 12
装满 12
襁褓 12
西海岸 12
西里 12
要远 12
观赏 12
规模@@ 12
解放者 12
触犯 12
计算机程序 12
认 12
认知技能 12
训练@@ 12
评审 12
诊断@@ 12
词典 12
译者 12
诞辰 12
误导作用 12
说实话 12
说得好 12
调查@@ 12
调高 12
谲 12
贝多 12
负担过重 12
负罪感 12
负荷 12
财团 12
责任制 12
账号 12
贪得无厌 12
贫民区 12
购置 12
费力 12
费尔南德斯 12
资产负债 12
资金量 12
赔@@ 12
赛尔 12
赞歌 12
赢取 12
赫然 12
走近 12
起先 12
超常 12
越变 12
越多 12
越来越近 12
趣@@ 12
足球赛 12
足球运动 12
跑步 12
跻身于 12
身居高位 12
身材 12
躯 12
转嫁到 12
轰动 12
轻信 12
较长时间 12
输赢 12
辖 12
达里 12
这波 12
这群 12
违抗 12
连结 12
迪人 12
迪伦 12
迪斯@@ 12
退却 12
适用范围 12
逃到 12
逃过 12
逃避现实 12
逆风 12
通信@@ 12
通气 12
通用电气 12
通缉 12
通行证 12
速率 12
造势 12
遑 12
遗传性 12
邓 12
那句 12
那类 12
邻里 12
部长会议 12
醇 12
重划 12
重力 12
重提 12
重新点燃 12
重罪 12
重返家园 12
量身 12
金边 12
钱财 12
铁板一块 12
长队 12
闭嘴 12
间接税 12
间断 12
队@@ 12
防止出现 12
阶级@@ 12
阻击 12
阻塞 12
阻拦 12
阿克 12
阿尔及利亚人 12
阿尔及尔 12
阿瑟 12
阿隆 12
附着 12
陈列 12
陋习 12
降雨量 12
除以 12
除此以外 12
陪审团 12
陷在 12
随波逐流 12
难关 12
雀巢公司 12
集会自由 12
集体性 12
雕塑 12
雷亚尔 12
震 12
震中 12
霸 12
非农 12
非常@@ 12
靡@@ 12
鞠@@ 12
鞭@@ 12
韩美 12
韬光养晦 12
项目@@ 12
预料中 12
预订 12
领到 12
颇丰 12
飞往 12
食言 12
餐饮 12
饲@@ 12
饲喂 12
首脑会晤 12
香港回归 12
马古富力 12
马哈拉施@@ 12
驰 12
驱动器 12
驳@@ 12
驶@@ 12
骑 12
高中@@ 12
高度重视 12
高污染 12
高科技产品 12
高等@@ 12
高等级 12
高素质 12
魏 12
魔盒 12
鱼群 12
鸭@@ 12
麾下 12
黎巴嫩人 12
默拉 12
鼠疫 12
齿 12
． 12
$ 11
104 11
11.5 11
1750 11
1848 11
1905 11
215 11
2200 11
401@@ 11
410 11
570 11
590 11
6500 11
680 11
8.1 11
840 11
870 11
9.4 11
9.7 11
ABC 11
ARPA 11
AS@@ 11
ASEAN 11
Abdullah 11
Advis@@ 11
Agenda 11
Agric@@ 11
Anne 11
Anton@@ 11
App 11
Area 11
Ashton 11
Assistance 11
Aw@@ 11
BA 11
Ban 11
Blanchard 11
Boko 11
Bud@@ 11
CG@@ 11
CS 11
Carlos 11
Conn@@ 11
Cow@@ 11
Credit 11
Crisis 11
DA 11
Def@@ 11
Delors 11
Democracy 11
Denn@@ 11
Disease 11
Du@@ 11
Ec@@ 11
Environ@@ 11
Estaing 11
Exchange 11
Fan@@ 11
Fat@@ 11
Federal 11
Federic@@ 11
Feldstein 11
Fer@@ 11
Fukuyama 11
Future 11
GD@@ 11
GGE 11
Geor@@ 11
Giscard 11
Govern@@ 11
Gul@@ 11
HR 11
Hal@@ 11
Haldane 11
ICU 11
INA 11
INGO 11
IRA 11
IST 11
IV 11
Income 11
Joint 11
Ju@@ 11
Kacz@@ 11
Kah@@ 11
Ker@@ 11
Khal@@ 11
Kim 11
Koch 11
Labor 11
London 11
Lucas 11
Lud@@ 11
MA 11
MI@@ 11
MS 11
Malaria 11
McK@@ 11
Mic@@ 11
Mik@@ 11
Mun@@ 11
NA 11
NAIRU 11
NI@@ 11
Nab@@ 11
Neil 11
OZ 11
Oliver 11
One 11
Orb 11
Our 11
Out@@ 11
PPI 11
PR 11
PS 11
PSA 11
PYD 11
Pan@@ 11
Picot 11
Polonia 11
Proctor 11
Progress 11
RC 11
RT 11
Reform 11
Rex 11
Rock 11
Rod@@ 11
Rou@@ 11
Ru@@ 11
SL@@ 11
SNB 11
SR@@ 11
START 11
Sadr 11
Sam 11
Scot@@ 11
Sea 11
Secur@@ 11
Serg@@ 11
Sk@@ 11
Sor@@ 11
Square 11
Stat@@ 11
Strategy 11
Sykes 11
TIPS 11
Tam@@ 11
Tar@@ 11
Tariff 11
Tra@@ 11
VC 11
Ven@@ 11
Vi@@ 11
Vol@@ 11
Watch 11
Why 11
Willi@@ 11
Windows 11
Wolfensohn 11
about 11
act@@ 11
acy 11
ady 11
ai@@ 11
alists 11
alization 11
alog@@ 11
alth 11
ancer 11
anda 11
any@@ 11
app 11
ardo 11
aro 11
atherine 11
ats@@ 11
aus 11
bank 11
be@@ 11
bu@@ 11
capture 11
cre@@ 11
dec@@ 11
dem@@ 11
ech 11
els@@ 11
elson 11
emissions 11
ems 11
enko 11
enter 11
eo 11
erner 11
eta 11
fl@@ 11
glob@@ 11
gn@@ 11
haircut 11
ido 11
if 11
ij@@ 11
ila 11
ilding 11
ination 11
inder 11
itz 11
itz@@ 11
kov@@ 11
lantic 11
law 11
li 11
ma@@ 11
many 11
med@@ 11
ms 11
oa 11
ob 11
oint 11
ological 11
oniprobe 11
oon 11
osp@@ 11
overy 11
ovi 11
pli@@ 11
poli@@ 11
por@@ 11
ram@@ 11
recherche 11
reg@@ 11
rice 11
rist@@ 11
rowd 11
rup@@ 11
the@@ 11
tica 11
trade 11
trib@@ 11
uk 11
unc@@ 11
ust 11
ustri@@ 11
ving 11
ward 11
ye 11
ynd@@ 11
zz@@ 11
¿ 11
É 11
î 11
ú 11
一刻起 11
一发 11
一年期 11
一性 11
一拖再拖 11
一损俱损 11
一文 11
一来 11
一概 11
一笔勾销 11
一言九鼎 11
一试 11
一走了之 11
一跃 11
万无一失 11
三届 11
三起 11
上传 11
上百万 11
上线 11
上路 11
下岗工人 11
不了了之 11
不信任感 11
不假思索 11
不免 11
不分青红皂白 11
不堪@@ 11
不得要领 11
不懈努力 11
不死 11
不然的话 11
不育 11
不良影响 11
不说 11
不问 11
专业技能 11
专制制度 11
东北@@ 11
东进 11
丢弃 11
两只 11
两块 11
两番 11
两级 11
严重危害 11
丧失@@ 11
中华民国 11
中流砥柱 11
中程 11
中立@@ 11
中美合作 11
中资银行 11
中途 11
串通 11
为鉴 11
主人公 11
主力@@ 11
主办@@ 11
主办国 11
主宰权 11
丽娜 11
举棋不定 11
久经考验 11
之于 11
之女 11
之实 11
之害 11
之父 11
乐土 11
乐见 11
乙肝 11
也罢 11
乳 11
乳腺 11
争锋 11
事实真相 11
事迹 11
二分法 11
亚历克 11
亚太@@ 11
亚裔 11
亚诺夫 11
交易市场 11
交还给 11
交错 11
产卵 11
产者 11
人为@@ 11
人因 11
人心@@ 11
人才外流 11
人文科学 11
人民解放军 11
人脉 11
亿公顷 11
仁天皇 11
仅仅只是 11
今年底 11
从头开始 11
代表@@ 11
以备 11
以色列国防军 11
以降 11
价格比 11
企业破产 11
伊本 11
伐木 11
休眠状态 11
众怒 11
会用 11
会议室 11
伟大成就 11
伤寒 11
伯恩斯坦 11
伴@@ 11
低俗 11
低垂 11
低层 11
低收益 11
低质量 11
佐夫 11
体育赛事 11
何人 11
何况 11
佛伦 11
佛蒙特州 11
使用率 11
供给@@ 11
依赖型 11
侯@@ 11
保守党人 11
保留意见 11
信仰@@ 11
信任危机 11
信息处理 11
信贷风险 11
借机 11
值得称赞 11
值钱 11
偏重于 11
做时 11
停战协定 11
停歇 11
健康权 11
儒家思想 11
充 11
光纤 11
克罗@@ 11
免征 11
党团 11
入世 11
入伍 11
入学考试 11
全体成员 11
全然 11
全面实施 11
八大 11
八次 11
公理 11
六十周年 11
兰尼加 11
共性 11
关系不大 11
兵役 11
其软 11
养家糊口 11
兼有 11
内部@@ 11
再好不过 11
再进一步 11
冒险家 11
军中 11
军用@@ 11
农业部 11
决定论 11
冷却@@ 11
冷水 11
冷静下来 11
凉 11
几场 11
几座 11
几条 11
几百 11
凯尔 11
出入 11
出版@@ 11
出现@@ 11
凿@@ 11
分庭抗礼 11
分拆 11
分流 11
切中要害 11
刑事@@ 11
列格 11
创举 11
利奥 11
利得 11
利润@@ 11
利率差 11
利诱 11
制冷 11
刺激性 11
前哨@@ 11
前无古人 11
剧减 11
剽窃 11
办理 11
功利主义 11
加州@@ 11
加强@@ 11
加热 11
加薪 11
加里@@ 11
助其 11
劳工部 11
勉@@ 11
勿@@ 11
匈牙利人 11
匈牙利政府 11
化学家 11
匹敌 11
区划 11
医学杂志 11
医疗界 11
医药公司 11
医药行业 11
十三个 11
十二年 11
十六@@ 11
升水 11
华氏度 11
协同效应 11
协商一致 11
卑躬屈膝 11
单干 11
占优势 11
占款 11
占领@@ 11
卡塔赫纳 11
卡尼曼 11
卡纳@@ 11
卡通 11
卧室 11
卫星国 11
印尼@@ 11
危难 11
厚望 11
原地踏步 11
去年底 11
去掉 11
参谋@@ 11
友人 11
友好@@ 11
双倍 11
双刃剑 11
双重@@ 11
反以 11
反噬 11
反射率 11
反科学 11
反苏 11
发光 11
发展缓慢 11
发明家 11
发源 11
取之不@@ 11
受伤害 11
受灾地区 11
变化趋势 11
变小 11
变现 11
变种 11
古董 11
古钦斯基 11
另一名 11
只会令 11
叮咬 11
可兰经 11
可数 11
可有可无 11
司令部 11
各个击破 11
各自为战 11
各色 11
合一 11
吉尔特 11
吉德 11
同义词 11
同党 11
同质化 11
名额 11
后果@@ 11
后继者 11
后进 11
吐温 11
吓跑 11
吟@@ 11
含蓄 11
听话 11
呆板 11
周五 11
周密 11
周而复始 11
和准 11
哪些@@ 11
哭泣 11
唾@@ 11
商业界 11
商机 11
善变 11
喧闹 11
嗅觉 11
嘉 11
四起 11
四邻 11
回溯 11
回音 11
回顾历史 11
困于 11
固 11
固体 11
固守 11
国外市场 11
国家机关 11
国际石油 11
圆满 11
土耳其@@ 11
圣诞@@ 11
圭亚那 11
地形 11
地方主义 11
地权 11
地毯 11
地热 11
地问 11
坦承 11
埃德蒙 11
城堡 11
培训@@ 11
基利 11
基尼 11
基本特征 11
堪比 11
增发 11
增派 11
壮 11
夏令@@ 11
多克 11
多花 11
多轮 11
大不了 11
大且 11
大会党 11
大力@@ 11
大吉 11
大惊失色 11
大白 11
大阪 11
大降 11
太平 11
太阳光 11
失信 11
头筹 11
夷@@ 11
套用 11
套路 11
奥马 11
女工 11
奶粉 11
好似 11
如此@@ 11
始 11
始终@@ 11
姑息 11
委内瑞拉政府 11
娴熟 11
媚 11
子里 11
存疑 11
孟山都 11
孤例 11
宅邸 11
守卫 11
安全隐患 11
定位@@ 11
定点 11
宝贵@@ 11
实事 11
实力@@ 11
审判@@ 11
宣告破产 11
宰杀 11
宴@@ 11
家长作风 11
宾夕法尼亚 11
寅 11
密克罗尼西亚联邦 11
密松 11
富翁 11
寸 11
寸步@@ 11
对不起 11
对决 11
封顶 11
尊崇 11
小儿麻痹 11
小康@@ 11
少将 11
少部分 11
尔比 11
尔茨 11
尤利娅 11
就业@@ 11
就医 11
尺寸 11
尼奥 11
尼安 11
尼日利亚政府 11
尼泊尔@@ 11
居住@@ 11
屏 11
属国 11
属实 11
履 11
岩@@ 11
岩石 11
岭 11
崇敬 11
巡航导弹 11
巢 11
工业品 11
工作日 11
工作量 11
巨款 11
巫@@ 11
差异化 11
已于 11
已使 11
巴东 11
巴尼@@ 11
巴黎@@ 11
布伦@@ 11
布罗 11
布隆迪 11
希里 11
帕特@@ 11
幅员辽阔 11
平民百姓 11
平添 11
平等@@ 11
年报 11
并不矛盾 11
并令 11
并肩 11
幸运儿 11
庇 11
床上 11
应变 11
店主 11
庞然大物 11
废话 11
废钞 11
延续性 11
开会讨论 11
开关 11
开具 11
开垦 11
开征 11
开拓@@ 11
开进 11
开邦 11
开采@@ 11
异性 11
弓@@ 11
引起@@ 11
弗拉芒 11
弗洛@@ 11
张开 11
强加于人 11
强暴 11
当晚 11
当该 11
录制 11
徒劳无益 11
得体 11
得胜 11
德拉@@ 11
心不在焉 11
必然@@ 11
忌@@ 11
忍受着 11
怎能 11
怠 11
总比 11
总督 11
总面积 11
恃强凌弱 11
悄无声息 11
患病率 11
情理 11
情绪化 11
惊愕 11
惨案 11
惨状 11
惩处 11
愁 11
意外@@ 11
意料中 11
愚蠢地 11
感官 11
慈@@ 11
慎@@ 11
慢动作 11
懒 11
戈森 11
戏剧化 11
成都 11
我能 11
战斗部队 11
战胜国 11
战败@@ 11
戛纳 11
戴维@@ 11
所困 11
所花 11
手头 11
打通 11
托夫 11
托宾 11
扮 11
扰@@ 11
承包 11
技术实力 11
技艺 11
抄@@ 11
抚慰 11
报刊 11
担保人 11
拉响 11
拉赫曼 11
拉长 11
拍卖@@ 11
拨乱反正 11
拨出 11
拱手让出 11
拷问 11
拼图 11
持仓 11
指着 11
指称 11
按部就班 11
按钮 11
挑明 11
挟持 11
挣得 11
捏@@ 11
捡@@ 11
授信 11
掉以轻心 11
掉头 11
掐@@ 11
接受@@ 11
接受程度 11
接口 11
接连 11
控制能力 11
推动型 11
推特@@ 11
掮客 11
携起手来 11
摊@@ 11
摩天大楼 11
撑 11
撑@@ 11
收盘@@ 11
收藏 11
放手 11
敌对状态 11
教学质量 11
教廷 11
教父 11
散居 11
数最多 11
数百个 11
文盲率 11
文科 11
斐 11
斯利 11
斯堡 11
斯巴达 11
斯库 11
斯科@@ 11
新加坡@@ 11
新老 11
新鲜空气 11
新鲜血液 11
方便之门 11
方法论 11
方言 11
旋转门 11
无利可图 11
无声 11
无处 11
无故 11
无时无刻 11
无根 11
无疾而终 11
无线电 11
无论谁 11
无路可走 11
日夜 11
日本化 11
日本帝国 11
日记 11
早亡 11
时时 11
时钟 11
时长 11
旺 11
明文规定 11
明说 11
昧@@ 11
晓 11
普希金 11
普罗米修斯 11
晶体管 11
暗箱 11
暴民 11
更令 11
更多更好 11
替代选择 11
最令 11
最新进展 11
有创造力 11
有句 11
有如 11
有效@@ 11
服务体系 11
服务商 11
服务行业 11
望而生畏 11
朝鲜@@ 11
木马 11
末到 11
本案 11
本笃 11
本职工作 11
机枪 11
机车 11
条件@@ 11
杭 11
杰出@@ 11
杰斐逊 11
极地 11
极端派 11
林德 11
枝@@ 11
枯@@ 11
柬埔寨@@ 11
核导弹 11
根本利益 11
格伦 11
格瓦拉 11
格纳 11
格鲁@@ 11
桀骜不驯 11
框 11
框定 11
桌上 11
桑斯坦 11
梅特涅 11
梦寐以求 11
梦魇 11
检察@@ 11
棋子 11
棕榈油 11
森特 11
概念性 11
模块化 11
橙@@ 11
欠妥 11
欣然 11
欣然接受 11
欧猪 11
正为 11
正式化 11
此地 11
此种 11
死伤 11
死前 11
死因 11
毅力 11
比大 11
比高 11
毫不逊色 11
氏症 11
氏菌 11
民族和解 11
民法 11
水位 11
水体 11
水漂 11
求得 11
汇聚一堂 11
汉族 11
汗牛充栋 11
池子 11
污蔑 11
汽车贷款 11
沆瀣一气 11
沉迷 11
沙姆沙伊赫 11
沙里 11
没多大 11
没想到 11
沸腾 11
油轮 11
治标不治本 11
沾 11
法兰克 11
法尔 11
法律顾问 11
波利萨 11
波浪 11
波罗 11
波茨坦 11
波诡云 11
泥沼 11
注册@@ 11
泰米尔纳德邦 11
泵 11
泻@@ 11
泼 11
洛佩兹 11
津 11
洪水猛兽 11
活动份子 11
活活 11
流将 11
流行性 11
浩@@ 11
浪者 11
海浪 11
海港 11
消息@@ 11
消极@@ 11
消沉 11
涛 11
润@@ 11
淡出 11
深刻@@ 11
深刻影响 11
深蓝 11
清一色 11
清洁@@ 11
渊博 11
渔获 11
游乐园 11
游叙 11
游行者 11
源地 11
溺水 11
滚动 11
满满 11
漏出 11
潜质 11
澳大利亚政府 11
激愤 11
火山@@ 11
火车站 11
灯泡 11
灰暗 11
炼 11
烦 11
烬 11
热带@@ 11
热度 11
热烈欢迎 11
焕 11
照射 11
熔毁 11
熙@@ 11
熟视无睹 11
燃料电池 11
爱荷华州 11
牢房 11
牢牢地 11
牢靠 11
物质@@ 11
特首 11
犬儒 11
狂躁 11
狡@@ 11
猜@@ 11
猜忌 11
率为 11
玛斯 11
玛沙 11
玛蒂 11
玩偶 11
玩得 11
玩意儿 11
现代@@ 11
现代医学 11
班级 11
理发师 11
理所应当 11
琉@@ 11
琼@@ 11
瑕疵 11
瑞行 11
瑰@@ 11
瓦文萨 11
瓦莱@@ 11
瓦齐 11
甘蔗 11
甚为 11
生化 11
生命安全 11
生殖细胞 11
用心 11
用过 11
田园 11
由衷 11
由该 11
申根协定 11
男青年 11
畅 11
番@@ 11
疏导 11
疚 11
疟@@ 11
疫 11
病因 11
痛楚 11
瘦@@ 11
百出 11
百度 11
百强 11
监督@@ 11
监督员 11
盒子 11
目录 11
相比而言 11
相联 11
相貌 11
相配 11
看不起 11
看门人 11
真到 11
真想 11
眼泪 11
睦邻友好 11
睦邻政策 11
矩@@ 11
短程 11
码事 11
砍伐森林 11
砖 11
示威运动 11
社会民主主义 11
社会活动家 11
祖辈 11
神牛 11
祷@@ 11
福田 11
离网 11
种植@@ 11
科伦坡 11
科医生 11
科尼@@ 11
秘方 11
租用 11
秽 11
稀土@@ 11
程度较高 11
穆尔 11
空置 11
窝 11
立马 11
章节 11
童话 11
符合国家 11
符合条件 11
第一点 11
第三类 11
第六次 11
笼统 11
等量 11
管局 11
管理工具 11
篇幅 11
篱笆 11
粘合剂 11
粮食作物 11
精力充沛 11
精心@@ 11
精疲力竭 11
精神失常 11
糖业 11
索要 11
紧急行动 11
紫@@ 11
红细胞 11
纪念@@ 11
纳德 11
纷纷表示 11
纽斯 11
细化 11
细枝末节 11
终身@@ 11
经文 11
经济命脉 11
绘画 11
统一性 11
统制 11
统治权 11
统统 11
绳子 11
维特 11
综合体 11
缅因州 11
缓冲@@ 11
编织 11
缩窄 11
缴费 11
罗伊 11
罗曼 11
罪孽 11
羊@@ 11
美国能源 11
美朝 11
美索不达米亚 11
羞于 11
羞愧 11
翅@@ 11
翻开 11
老年@@ 11
而不@@ 11
而前 11
而据 11
而起 11
耳光 11
耳目一新 11
耽@@ 11
职业女性 11
联合国环境规划署 11
聚集@@ 11
肃清 11
肇@@ 11
肌体 11
肠@@ 11
肥皂@@ 11
肩膀 11
肯尼思 11
肺@@ 11
肺部 11
胜于 11
胡尔 11
能克服 11
脆弱不堪 11
脏 11
脑细胞 11
腺 11
自上 11
自作@@ 11
自由思想 11
自该 11
致信 11
致密 11
舆论@@ 11
舒缓 11
航空航天 11
舰船 11
船舶 11
船队 11
艺术@@ 11
艾奥@@ 11
芒 11
芒@@ 11
芬兰人 11
芭@@ 11
苍蝇 11
苏菲派 11
苛@@ 11
苟延残喘 11
英美两国 11
药房 11
药效 11
荷兰政府 11
莱夫 11
莱索托 11
获益匪浅 11
菲克 11
落于 11
落马 11
著名@@ 11
蒋介石 11
蔚@@ 11
藤@@ 11
虚拟@@ 11
蟒蛇 11
蠕虫 11
蠢蠢欲动 11
血汗 11
行业协会 11
行刑 11
行动@@ 11
行将就木 11
街区 11
衡@@ 11
衣着 11
表演者 11
袭@@ 11
裹挟 11
西式 11
西装 11
规章制度 11
览会 11
解剖 11
解药 11
誓 11
认购 11
议@@ 11
议会下院 11
议定 11
记忆法 11
讲台 11
设有 11
访者 11
证据@@ 11
诉诸武力 11
词是 11
词来 11
试管 11
该病 11
该省 11
误诊 11
读完 11
谁又能 11
调查报告 11
调解人 11
调配 11
谄媚 11
谎 11
谕 11
负反馈 11
负担沉重 11
负相关 11
贡@@ 11
责任人 11
货币@@ 11
贩毒集团 11
贪污腐败 11
贷款额 11
贸易国 11
费卢杰 11
费雪 11
资金@@ 11
资金分配 11
赐予 11
赞颂 11
赫尔曼 11
走访 11
赵连海 11
起义军 11
起头 11
超标 11
超级@@ 11
超额完成 11
越来越快 11
越深 11
越陷越深 11
趋于稳定 11
路边 11
跳楼价 11
踊跃 11
踏 11
踪 11
身份@@ 11
身体状况 11
车间 11
车队 11
转包 11
转坏 11
转嫁 11
转运 11
轮胎 11
轮船 11
载入 11
输入国 11
辞令 11
辨 11
辱性 11
辱骂 11
边远 11
达吉斯坦 11
过河 11
迎头赶上 11
运载 11
近两年 11
近些年来 11
返 11
这三项 11
这届 11
这艘 11
进食 11
远东地区 11
远去 11
远征 11
连锁店 11
迷雾 11
追查 11
追索权 11
适于 11
逐个 11
逝去 11
造假 11
造林 11
造船 11
遇袭 11
道德感 11
道德规范 11
遗策 11
遭袭 11
那一 11
鄙夷 11
酿@@ 11
醒来 11
里昂 11
重挫 11
重新安排 11
重重困难 11
金奈 11
金家 11
钢琴家 11
钦奈 11
铝业 11
银根 11
铸就 11
铺张浪费 11
锤 11
镜花水月 11
长篇大论 11
门罗主义 11
闪烁@@ 11
间隔 11
防守 11
防范措施 11
阶段性 11
阿亚 11
阿勒萨尼 11
阿塔 11
阿塔图尔克 11
阿布@@ 11
阿帕约 11
阿拉克 11
阿斯塔纳 11
阿西夫 11
附加税 11
限量 11
陡峭 11
陪同 11
隔离@@ 11
障 11
难民所 11
雀巢 11
雅尔塔 11
集装箱 11
雇工 11
雨季 11
雪崩 11
零增长 11
雷尔 11
霉素 11
霍克 11
霍尔木兹海峡 11
霍普@@ 11
霸权主义 11
非关税 11
非同@@ 11
非常任 11
非常少 11
非成员国 11
非营利性 11
靶子 11
韩三国 11
韩国@@ 11
顾问@@ 11
预备@@ 11
预设 11
领事 11
领导岗位 11
颜面扫地 11
风向 11
风行 11
风起云涌 11
馆@@ 11
首字母 11
首席法官 11
香 11
香肠 11
马赛 11
驶入 11
驻外 11
验 11
骤然 11
骨头 11
骨干 11
高利贷 11
高原 11
高大 11
鲜花 11
鲜见 11
鸦片@@ 11
鹤立鸡群 11
黑山 11
黑格尔 11
默契 11
默默地 11
齐尔 11
龙所 11
00 10
05 10
06 10
1.90 10
106 10
1648 10
1820 10
185 10
1850 10
1873 10
1880 10
1890 10
1911 10
192 10
2.25 10
20.@@ 10
2045 10
22@@ 10
390 10
420 10
5.9 10
520 10
610 10
7.3 10
730 10
AF@@ 10
Acad@@ 10
Acc@@ 10
Adam 10
Alf@@ 10
Analy@@ 10
Anderson 10
Ang@@ 10
Angus 10
Anth@@ 10
BA@@ 10
Bach@@ 10
Bel@@ 10
Bloom@@ 10
Bob 10
Brad 10
Breitbart 10
Bush 10
CDC 10
CFIUS 10
CHP 10
Carl 10
Challenge 10
Chand@@ 10
Children 10
Chris@@ 10
Christopher 10
City 10
Congress 10
Coord@@ 10
Court 10
Cre@@ 10
Da@@ 10
Deep@@ 10
Dornbusch 10
Duisenberg 10
ED@@ 10
ER 10
Ear@@ 10
Earth 10
Eli@@ 10
Employment 10
FAO 10
FHA 10
FO@@ 10
Fiscal 10
Franklin 10
GMO 10
Gab@@ 10
Graham 10
Gran@@ 10
HDP 10
Han@@ 10
Ho@@ 10
Hoenig 10
IA 10
ISD@@ 10
In 10
Independ@@ 10
India 10
Inf@@ 10
Instit@@ 10
Institutes 10
Intelligence 10
Jab@@ 10
Jens 10
Juli@@ 10
Ka@@ 10
Kem@@ 10
Ken 10
Ki@@ 10
Kl@@ 10
L2@@ 10
LIA 10
LNG 10
Land@@ 10
Lehman 10
Level 10
Lim@@ 10
Ll@@ 10
Lord 10
Lou@@ 10
MBA 10
MDB 10
MFFP 10
MOOC 10
MPC 10
Marsh@@ 10
McCain 10
Mitch 10
Muhammad 10
Nov@@ 10
Novar@@ 10
Nusra 10
Nutrition 10
OM@@ 10
Omar 10
Open 10
Opportunity 10
PCA 10
PM2.5 10
PP@@ 10
Pas@@ 10
Pasc@@ 10
Pe@@ 10
Pen@@ 10
Pot@@ 10
Pow@@ 10
Prim@@ 10
Putin 10
RC@@ 10
RS 10
Raf@@ 10
Regional 10
Resolution 10
SAT 10
SG 10
SN@@ 10
Salvini 10
Sant@@ 10
Sap@@ 10
Saud 10
Sem@@ 10
Services 10
Shah@@ 10
Sheikh 10
Sir 10
Suf@@ 10
Sun@@ 10
Survey 10
TB 10
TO 10
Tah@@ 10
Theresa 10
Tillerson 10
Tim 10
UBI 10
UGHE 10
UM@@ 10
USAID 10
Uk@@ 10
Varoufakis 10
WM@@ 10
War 10
Wolf@@ 10
Yanis 10
Yas@@ 10
aba 10
af 10
akh 10
ales 10
alia 10
ampquot 10
ann 10
anne 10
ark 10
ars 10
atient 10
ating 10
aton 10
avi 10
awi 10
berto 10
ble 10
bra@@ 10
bur@@ 10
carbon 10
care 10
ces 10
cha 10
cio 10
cor@@ 10
cro@@ 10
dar 10
din@@ 10
dist@@ 10
du 10
duc@@ 10
ega 10
ela 10
eme 10
enberg 10
ench@@ 10
end 10
ental 10
eral 10
erc@@ 10
eron 10
ery 10
esa 10
esto 10
etermin@@ 10
evelop@@ 10
flation 10
flic@@ 10
gan 10
ges 10
gi 10
hap@@ 10
ication 10
ilit@@ 10
ington 10
inv@@ 10
ions 10
istory 10
ita 10
kar 10
kel 10
kov 10
ld 10
lif@@ 10
lim 10
ments 10
mond 10
mund 10
nan 10
nia 10
nier 10
oj@@ 10
olf@@ 10
olidarity 10
ona 10
onal 10
ong@@ 10
ota 10
ott 10
ouv@@ 10
own 10
pez 10
politi@@ 10
port@@ 10
post 10
pres@@ 10
ran 10
rat@@ 10
rgen 10
ria 10
rimin@@ 10
ring 10
rus@@ 10
sen 10
ska 10
tag@@ 10
tain 10
ted 10
tl@@ 10
tries 10
try 10
uction 10
ular 10
ultural 10
urity 10
uth 10
ux 10
vention 10
vis@@ 10
war@@ 10
ym@@ 10
ê 10
ć 10
一丝不苟 10
一两@@ 10
一二十年 10
一亿 10
一团乱麻 10
一声 10
一夫@@ 10
一小@@ 10
一扇 10
一文不值 10
一有 10
一步之遥 10
一滴 10
一百八十度 10
一百多年 10
一看 10
一票@@ 10
一落千丈 10
一角 10
一言@@ 10
一首 10
七百万 10
万事达卡 10
三任 10
三百年 10
上所述 10
上海@@ 10
上缴 10
下个 10
下沉 10
下落 10
不值 10
不凡 10
不多见 10
不太好 10
不恰当地 10
不慎 10
不攻自破 10
不断进步 10
不法行为 10
不痛不痒 10
不着 10
不着@@ 10
不稳固 10
不管怎么 10
不误 10
不闻不问 10
不齿 10
丑 10
专业人才 10
专利法 10
专心 10
专有 10
且@@ 10
世代@@ 10
东南亚地区 10
东方@@ 10
两任 10
两党制 10
两国均 10
两岁 10
两岸关系 10
两败俱伤 10
个人身份 10
个体户 10
中会 10
中俄关系 10
中分 10
中去 10
中型企业 10
丹尼尔斯 10
为本 10
为荣 10
主义@@ 10
主导者 10
主战场 10
主线 10
举杯 10
乃至于 10
之巅 10
之幕 10
之年 10
之春所 10
之职 10
之词 10
之踵 10
之长 10
乐天 10
乘以 10
九岁 10
九百万 10
也@@ 10
也持 10
习惯性 10
习惯法 10
乡下 10
买卖双方 10
买来 10
了个 10
予 10
争先恐后 10
争议地区 10
事上 10
二手@@ 10
互动@@ 10
五人 10
亚政府 10
交所 10
交道 10
产业链 10
产儿 10
产权@@ 10
产生@@ 10
产科 10
亨 10
享有@@ 10
亮相 10
人人@@ 10
人头 10
人尽皆知 10
人满为患 10
人类学 10
人贩子 10
亿到 10
仅以 10
今 10
今年以来 10
仍为 10
仍陷 10
从零开始 10
仔细@@ 10
代顿 10
以低 10
以利于 10
以至 10
价格体系 10
企业债券 10
企鹅 10
伊姆@@ 10
伊布拉 10
伊德 10
伊拉 10
优素福 10
会后 10
会议记录 10
伯恩 10
伽利略 10
但莫迪 10
但鲁 10
低人一等 10
低能 10
佐治亚州 10
何为 10
何物 10
余年 10
余震 10
作恶者 10
佳彦 10
使用@@ 10
使者 10
供应方 10
供求@@ 10
供选择 10
侯 10
侵扰 10
俄总统 10
信贷政策 10
修理 10
修西@@ 10
修道@@ 10
倒地 10
倒戈 10
倾向性 10
做何 10
做得好 10
做来 10
健康人 10
偶发 10
催泪@@ 10
傻@@ 10
先入为主 10
光顾 10
克什米尔地区 10
克兰 10
克朗 10
克洛德 10
克鲁尼 10
全体@@ 10
全开 10
全球通 10
全盘接受 10
全靠 10
八倍 10
公主 10
公吨 10
六种 10
共和制 10
关键时期 10
兴趣@@ 10
其三 10
其事 10
其他@@ 10
其前 10
内为 10
内人 10
内以 10
内债 10
内地 10
内部矛盾 10
再保险 10
军控 10
军校 10
农村居民 10
冰点 10
冲绳@@ 10
决选 10
减薪 10
凑效 10
几千@@ 10
凡人 10
出世 10
出其@@ 10
出口税 10
出过 10
击沉 10
分公司 10
分类@@ 10
切身利益 10
刑事诉讼 10
划一 10
刚愎自用 10
初等教育 10
利他 10
利伯曼 10
利性 10
刮目相看 10
制肘 10
券@@ 10
前奏 10
剑拔弩张 10
办成 10
功不可没 10
加利@@ 10
加工@@ 10
努力@@ 10
努力争取 10
努力奋斗 10
劳务 10
劳工市场 10
劳资@@ 10
势均力敌 10
势必会 10
勇气@@ 10
北方四岛 10
北高加索地区 10
十万@@ 10
十位 10
十余年 10
十几年 10
千人 10
半段 10
半途而废 10
协力 10
协约 10
协调员 10
卑微 10
南方人 10
南美洲 10
南面 10
博得 10
博爱 10
博鳌 10
占到 10
占星@@ 10
卡车司机 10
卫生机构 10
卫生组织 10
卫生署 10
印第安纳州 10
危险@@ 10
历史学 10
历史数据 10
历史背景 10
历史进程 10
原则性 10
原创 10
原地 10
去职 10
参与性 10
反对声 10
反悔 10
反托拉斯 10
反面@@ 10
发售 10
发自内心 10
取自 10
取豪夺 10
受精 10
受访 10
变化@@ 10
变相 10
叛国罪 10
叠床架屋 10
句话 10
只字未提 10
叫好 10
可乐 10
可兑换性 10
可治 10
可视化 10
可辨 10
台北 10
台湾海峡 10
右转 10
吁求 10
各家 10
各届 10
吉卜@@ 10
吉尔吉斯 10
同一时间 10
同为 10
同属 10
同步增长 10
同流合污 10
同源 10
同胞们 10
名下 10
名列@@ 10
名录 10
向外 10
吝@@ 10
含糖 10
含蓄地 10
听听 10
呈交 10
告罄 10
周到 10
周边环境 10
呼吸@@ 10
和平利用 10
和谐@@ 10
哀 10
品牌@@ 10
哈克 10
哈姆丹 10
哈拉雷 10
哈米德 10
哈马 10
哪家 10
唐吉诃德 10
售卖 10
商业伙伴 10
商场 10
商家 10
商用 10
啦@@ 10
啮齿类动物 10
喀土穆 10
喷气 10
嗜血 10
嘎@@ 10
嘲@@ 10
嘴巴 10
嘴炮 10
嘴里 10
噱头 10
囊 10
囚 10
回头路 10
因其 10
团聚 10
围棋 10
固定资本 10
国产 10
国企改革 10
国富论 10
国营企业 10
图谱 10
圆桌会议 10
圈中 10
土地利用 10
土库曼 10
圣杯 10
在实践上 10
在押@@ 10
地基 10
地理@@ 10
地质学家 10
坎普 10
坏帐 10
坐立不安 10
坑@@ 10
坠 10
垂涎 10
型化 10
垫脚石 10
埃胡德 10
埃马 10
城邦 10
基拉 10
基础科学 10
堪萨斯州 10
塔夫 10
塞巴斯蒂安 10
塞进 10
增值税率 10
增效 10
壮丽 10
声援 10
处理不当 10
备战 10
外交辞令 10
外商 10
外围地区 10
外太空 10
多为 10
多元性 10
多半 10
多安 10
多杰 10
多长 10
大业 10
大众公司 10
大关 10
大区 10
大名鼎鼎 10
大喊 10
大幕 10
大洋@@ 10
天文 10
天来 10
太早 10
夭 10
失血 10
头戴 10
夹击 10
奇妙 10
奇达 10
奈特 10
奠@@ 10
奥兰@@ 10
奥古@@ 10
奥地@@ 10
奥尔布赖特 10
奶酪 10
好受 10
如日中天 10
如此这般 10
妇女地位 10
妹 10
妹妹 10
姐姐 10
威斯康星州 10
威斯敏斯特 10
婉@@ 10
嫩 10
子气 10
子辈 10
孕@@ 10
字面上 10
存在主义 10
孤军奋战 10
学期 10
孵化 10
安宁 10
安德里 10
安纳 10
安纳@@ 10
安逸 10
完好无损 10
宗主国 10
定义@@ 10
定势 10
实践经验 10
实际成本 10
客户服务 10
宣传战 10
宪@@ 10
家族@@ 10
家禽 10
宾夕法尼亚大学 10
密码 10
富士康 10
富庶 10
富有@@ 10
富贵 10
寓言 10
对本 10
对症下药 10
寿@@ 10
射击 10
小泽 10
小生产者 10
小菜@@ 10
尔巴 10
尚且 10
尚可 10
尤什申科 10
尤沙夫赛 10
就学 10
尼基塔 10
尼维斯 10
尽可能减少 10
局势稳定 10
层级制 10
居民区 10
屋子 10
履@@ 10
山火 10
岛民 10
崎岖 10
州际 10
巡航 10
工作制 10
左右为难 10
巨擘 10
巨无霸 10
差异性 10
巴列维 10
巴勒斯坦地区 10
巴尔的摩 10
巴拉迪 10
巴格 10
巴西利亚 10
市场价 10
市场运作 10
布特 10
师资 10
希伯来@@ 10
希腊族 10
帕德玛瓦蒂 10
帕洛阿尔托 10
常人 10
常识性 10
幕后@@ 10
干旱@@ 10
平反 10
平复 10
平平 10
平昌 10
平民主义 10
平流层 10
平等权 10
平缓 10
年史 10
年幼 10
年终 10
年青人 10
并无二致 10
幸 10
幸免于难 10
库马尔 10
应邀 10
庞巴迪 10
康涅狄格州 10
庸俗 10
开始@@ 10
开打 10
开花 10
弗拉@@ 10
弘扬 10
张伯伦 10
张贴 10
弯曲 10
强心剂 10
强盛 10
强硬措施 10
归化 10
当前@@ 10
当头 10
当权派 10
录像带 10
彻 10
征程 10
征集 10
径@@ 10
律师@@ 10
律性 10
得名 10
得意@@ 10
得病 10
微软公司 10
德哈特 10
德林 10
德累斯顿 10
必备 10
必称 10
快餐 10
急升 10
性侵 10
性化 10
怪物 10
总公司 10
总统@@ 10
总署 10
恢复元气 10
恩惠 10
恳请 10
恼 10
悍 10
悔恨 10
患儿 10
情有可原 10
情绪高涨 10
惨不忍睹 10
想出 10
意志力 10
意见@@ 10
感性 10
感想 10
愧@@ 10
懊@@ 10
懊悔 10
懒@@ 10
戏称 10
成功@@ 10
成功者 10
成行 10
我敢 10
我用 10
战争贩子 10
战略方针 10
戴蒙德 10
房产税 10
房市 10
房租 10
所应 10
所未见 10
所见@@ 10
打个比方 10
打击犯罪 10
打扫 10
打磨 10
托付给 10
执行主席 10
扩张期 10
扫 10
扫地出门 10
扮@@ 10
扳机 10
承 10
承受力 10
承担者 10
技术细节 10
抑 10
抑制@@ 10
投产 10
投到 10
投机@@ 10
投票@@ 10
投资界 10
投钱 10
抗议@@ 10
护卫 10
报端 10
抵抗@@ 10
担 10
担责 10
拉塔 10
拉奎 10
拉斐尔 10
拉皮 10
拉达克 10
拒绝@@ 10
拒绝给予 10
招待会 10
拥戴 10
拼车 10
持不下 10
挂牌 10
指代 10
指使 10
按期 10
挤占 10
挽@@ 10
捆住 10
捕捉到 10
换个 10
据传 10
掀@@ 10
授 10
排除@@ 10
接地 10
控制中心 10
控制组 10
推演 10
措@@ 10
描@@ 10
提出批评 10
提夫 10
搜捕 10
搞清 10
搬起 10
摄入量 10
摘 10
摩尔定律 10
摩洛 10
摸不着头脑 10
撑起 10
播种 10
撮合 10
攒 10
攫@@ 10
收益@@ 10
改成 10
改换 10
改正 10
改用 10
放入 10
放在@@ 10
放射 10
放射@@ 10
放进 10
政令 10
政治信仰 10
效率高 10
敌国 10
救国 10
散地 10
数不尽 10
数名 10
敲诈勒索 10
整体性 10
整固 10
敷@@ 10
斑 10
斯威士兰 10
斯帕 10
斯特凡 10
斯特罗姆 10
新举措 10
新干线 10
新来 10
新生@@ 10
新策略 10
新纪录 10
新股 10
新英格兰 10
新衣 10
新规 10
新闻频道 10
方在 10
方程式 10
方程组 10
旅游景点 10
旅馆 10
旗鼓相当 10
无一 10
无为 10
无可挑剔 10
无声无息 10
无损 10
无独有偶 10
日嚣尘 10
日积月累 10
日耳曼 10
早婚 10
时间段 10
时间跨度 10
旷@@ 10
明亮 10
明令禁止 10
明明 10
明治@@ 10
明灯 10
星星之火 10
星期一 10
显著@@ 10
显露出来 10
晒@@ 10
普世@@ 10
普金 10
暑 10
暗地里 10
暗指 10
曲棍球 10
更想 10
曼氏 10
曾以 10
替之以 10
最糟 10
有机@@ 10
朋 10
服药 10
朝令夕改 10
木薯 10
未经@@ 10
本世纪内 10
朱利安 10
朱棣文 10
杀伤 10
杂乱无章 10
杖 10
条线 10
来势汹汹 10
来得及 10
杯@@ 10
杰伊 10
杰米 10
极点 10
析 10
林书豪 10
林斯 10
枪手 10
枯萎 10
染@@ 10
查理@@ 10
查禁 10
柯立芝 10
树敌 10
核战略 10
核辐射 10
格里夫 10
格鲁吉亚人 10
桑德尔 10
桑珠 10
桥段 10
梅特 10
梦幻 10
梦游 10
棉兰 10
棉兰老岛 10
棍棒 10
森林@@ 10
楚@@ 10
楼继伟 10
模特 10
横亘 10
欢腾 10
欧美地区 10
止痛药 10
正义战争 10
正压 10
正反@@ 10
正当理由 10
正确理解 10
正规@@ 10
步兵 10
步步为营 10
步调 10
武 10
武力威胁 10
武特奥卢 10
死敌 10
殃及 10
残酷无情 10
段@@ 10
毋@@ 10
毒化 10
比上 10
比值 10
比用 10
比花 10
毛里塔尼亚 10
毫发 10
毫无顾忌 10
民族英雄 10
民航 10
气概 10
氯 10
氰@@ 10
水兵 10
水晶球 10
水泵 10
水火@@ 10
水能 10
水门事件 10
求援 10
求生 10
汇率变动 10
汗水 10
江户 10
江湖 10
沙林 10
沙漠化 10
沙米尔 10
治病 10
沼@@ 10
泊 10
法国巴黎 10
法国式 10
法宝 10
法律手段 10
法赫德 10
泡沫@@ 10
波尔@@ 10
波澜壮阔 10
注销 10
泰晤士报 10
泰爱泰党 10
泼@@ 10
洁性 10
洛特 10
活到 10
洽 10
派发 10
派往 10
流动@@ 10
流淌 10
测验 10
浓厚兴趣 10
浦 10
浴缸 10
海德拉巴 10
海洋环境 10
海盗@@ 10
消毒 10
消防 10
涡轮机 10
涣散 10
深刻反思 10
深奥 10
混淆视听 10
添加剂 10
清华大学 10
清教徒 10
清晰@@ 10
渊源 10
渗透率 10
渡 10
渣 10
游走 10
渺小 10
湾@@ 10
滑稽@@ 10
滚滚 10
滚石 10
满载 10
滥伐 10
滥发 10
漆 10
演化出 10
演化成 10
漫不经心 10
潮水 10
灭火 10
灭顶之灾 10
炼金@@ 10
烟尘 10
烧掉 10
烧死 10
热点@@ 10
照料 10
爱德华@@ 10
爵@@ 10
牢狱 10
牢骚 10
牧 10
特与 10
特加 10
特大 10
特权@@ 10
特许费 10
特里@@ 10
状况不佳 10
状况良好 10
犹太裔 10
犹豫@@ 10
狠@@ 10
独立@@ 10
独立宣言 10
狭@@ 10
狱@@ 10
猎 10
猛烈地 10
猝@@ 10
猴子 10
猿 10
王位 10
王妃 10
玩忽职守 10
现付 10
现代版 10
现代科技 10
现实存在 10
现收 10
现有企业 10
现正 10
珍珠 10
珍珠港事件 10
珠宝 10
班农@@ 10
班达尔 10
理喻 10
理性@@ 10
理直气壮 10
琴@@ 10
瑞典政府 10
瓜达尔 10
瓦时 10
瓦茨拉夫 10
甚巨 10
甜头 10
生存权 10
生存环境 10
生疑 10
生长@@ 10
由此@@ 10
甲级战犯 10
电商 10
电缆 10
电视直播 10
电费 10
电邮 10
男生 10
画出 10
画家 10
畸@@ 10
疏 10
疗 10
疗程 10
疲 10
疲倦 10
疾病@@ 10
痊愈 10
瘦 10
登峰造极 10
白日梦 10
监管局 10
盗 10
盗用 10
盘剥 10
盘旋 10
直接税 10
相传 10
相加 10
相同@@ 10
相形之下 10
省政府 10
看空 10
真实@@ 10
真是@@ 10
眨眼 10
眼前@@ 10
着火 10
睡觉 10
睹 10
知事 10
知会 10
矩 10
短期投资 10
石原慎太郎 10
石器时代 10
码@@ 10
砝码 10
破产案 10
破坏活动 10
破天荒 10
硅@@ 10
硕@@ 10
硕果 10
硕果@@ 10
磨灭 10
磷酸盐 10
社区卫生 10
祈求 10
神坛 10
神宫 10
神经学 10
禁脔 10
离去 10
离间 10
私交 10
科克伦 10
科文 10
称其为 10
程序性 10
税则 10
穆斯林联盟 10
穆阿 10
穴居人 10
空洞@@ 10
空难 10
突发性 10
窍@@ 10
立下 10
立法委员 10
立足于 10
竞价 10
笛卡尔 10
第一代 10
第一周 10
第一支 10
第三点 10
第二届 10
第二支 10
第二类 10
第五次 10
第五版 10
第五纵队 10
第四项 10
等待时间 10
筋地 10
筒 10
简单明了 10
简易 10
管理体制 10
米利班德 10
粒 10
粗放 10
粘@@ 10
粪 10
精度 10
精确@@ 10
精神病人 10
精神病院 10
精神科 10
系统化 10
索夫 10
索性 10
索菲亚 10
累加 10
纠察队 10
纬度 10
纸上谈兵 10
纽 10
纽埃 10
纾解 10
经典著作 10
经济可行性 10
经济落后 10
绑架者 10
络 10
绝好 10
绝少 10
绝食 10
继任人 10
维他命 10
维权 10
维茨 10
缓缓 10
缕 10
罗伯@@ 10
罗宾@@ 10
罗宾逊 10
罚@@ 10
罢@@ 10
署@@ 10
美国移民 10
美帝国主义 10
美日@@ 10
美联社 10
美资 10
美轮美奂 10
美食 10
翘@@ 10
翘首@@ 10
翻两番 10
考克斯 10
考证 10
而仅 10
而终 10
而设 10
耸耸肩 10
聊 10
聊胜于无 10
联合公报 10
联合国难民事务高级专员公署 10
联合王国 10
肆意挥霍 10
肠 10
股掌 10
肢解 10
肯尼亚政府 10
肴 10
肺病 10
胡主席 10
能动性 10
能干 10
脑力 10
脖子 10
脸面 10
腕 10
腾@@ 10
自卫权 10
自取@@ 10
自居 10
自我牺牲 10
自顾@@ 10
舍尔 10
航站楼 10
舵@@ 10
良策 10
艾曼 10
芝@@ 10
花花公子 10
苏联地区 10
苏里@@ 10
若斯潘 10
若要 10
英国广播公司 10
茶叶 10
药企 10
莫顿 10
莱利 10
获取信息 10
获批 10
菜鸟 10
营利 10
萦绕在 10
落得 10
落成 10
葡@@ 10
蒂亚 10
蓝 10
蔡美儿 10
薄弱环节 10
藏传佛教 10
虽说 10
蛇头 10
蛛丝马迹 10
螺@@ 10
蠢货 10
衔接 10
衣厂 10
表彰 10
表面文章 10
衰@@ 10
被调查者 10
装机容量 10
装载 10
裸 10
褪色 10
西化 10
西南 10
见底 10
规制 10
规约 10
规范性 10
视察 10
览@@ 10
解决目前 10
解释@@ 10
触手可及 10
警察局 10
譬如 10
计算机化 10
认真@@ 10
讨生活 10
让路 10
议事 10
记分牌 10
记录在案 10
许许多多 10
访问@@ 10
证伪 10
诊@@ 10
诊治 10
译@@ 10
诚挚 10
诡辩 10
该药 10
误用 10
读懂 10
调查局 10
谈谈 10
谈起 10
谢尔 10
谢里@@ 10
谣 10
谩骂 10
谱系 10
谷兰 10
贝格 10
贝淡宁 10
贝索斯 10
贝鲁斯科 10
败下阵来 10
货币流通 10
货运@@ 10
贯 10
贷方 10
贸 10
贺@@ 10
贼 10
贿@@ 10
赈灾 10
赋税 10
赎 10
赔偿@@ 10
赛场 10
赫伯特 10
赫里 10
走私者 10
超人 10
越近 10
趋缓 10
足足 10
跌倒 10
跌势 10
跟风 10
跨文化 10
路过 10
跳过 10
踌躇 10
蹄 10
蹲 10
躁动 10
身心 10
身心@@ 10
车厢 10
转移@@ 10
轮盘 10
轴 10
轻松@@ 10
轻率地 10
轻重缓急 10
载入史册 10
较前 10
辅以 10
辉瑞 10
输往 10
边界问题 10
过关 10
近几@@ 10
这所 10
这轮 10
进取心 10
远古 10
远距离 10
违 10
违法@@ 10
连环 10
迪南 10
迭@@ 10
迷惑不解 10
追回 10
追问 10
适应环境 10
适时 10
逃跑 10
选举@@ 10
选用 10
透彻 10
逐利 10
逐步@@ 10
通缉令 10
通讯业 10
遂 10
道夫 10
道路@@ 10
遗传学家 10
遮遮掩掩 10
遵纪守法 10
郭@@ 10
都是 10
酌 10
酬 10
酷热 10
酸盐 10
里茨 10
重大成果 10
重大责任 10
重奏 10
重振@@ 10
重新认识 10
重灾区 10
重男轻女 10
重置 10
金白银 10
釜@@ 10
钢铁厂 10
钦@@ 10
钦斯 10
铁证 10
银行界 10
铸 10
锋 10
锌 10
锥@@ 10
锯 10
长久@@ 10
长效 10
长河 10
长程 10
长者 10
长袖善舞 10
长途@@ 10
闪电 10
闭门@@ 10
闯@@ 10
闻所未闻 10
阁@@ 10
防扩散 10
阿利 10
阿尔贝托 10
阿斯 10
阿比 10
附加费 10
陆 10
降解 10
除草剂 10
隆夫人 10
隔开 10
隶属 10
难以逾越 10
难忘 10
难辞其咎 10
雅兹迪人 10
集中体现 10
集约@@ 10
雌@@ 10
雌性 10
雪佛龙 10
零八 10
零关税 10
零敲碎打 10
需求@@ 10
霉@@ 10
静观其变 10
非国大 10
非生产性 10
非盈利性 10
鞑靼人 10
韩元 10
顺便 10
顺利进行 10
顽抗 10
颁布@@ 10
预算@@ 10
颠@@ 10
颤抖 10
风俗 10
风景@@ 10
饶有@@ 10
首创 10
首度 10
马六甲海峡 10
马可 10
马德@@ 10
马来亚 10
马泰奥 10
马蒂亚 10
马里兰州 10
驯@@ 10
驻地 10
验@@ 10
骗人 10
骤停 10
高人一等 10
高房价 10
高速路 10
高高在上 10
魔法@@ 10
鱿鱼 10
鲁兹 10
鲁珀特 10
鲍 10
鸵@@ 10
鹰 10
麻木不仁 10
麻醉 10
黄禹锡 10
黑暗面 10
默不@@ 10
黩武 10
黯@@ 10
黯然 10
龄@@ 10
112 9
126 9
138 9
142 9
188 9
194 9
2024 9
444 9
490 9
540 9
7.2 9
[...]
