, 408680
the 404622
. 286641
to 197274
of 194872
and 184134
in 143685
a 128289
that 93725
is 88079
’ 84210
s 73167
for 62515
– 50259
as 46369
it 46153
be 43086
on 41094
are 39943
with 39741
by 36969
but 36739
not 35810
has 34470
have 33204
will 29411
this 28170
from 27379
its 25893
more 25839
“ 25440
” 25196
their 25163
an 23950
at 21841
they 21694
or 21039
would 20900
was 20706
US 20007
which 18321
than 17633
countries 17504
China 16484
) 16128
( 16114
can 15957
world 14652
% 14289
been 14027
all 13923
if 13875
economic 13726
one 13724
we 13461
new 12792
his 12234
only 11867
such 11780
government 11493
other 11479
even 11438
also 11419
there 11301
should 11229
growth 11062
most 10922
global 10914
: 10907
so 10872
could 10870
no 10753
about 10735
when 10699
who 10493
many 10443
political 10427
now 10354
these 10134
people 9969
Europe 9811
what 9786
; 9715
some 9690
he 9578
were 9329
country 9153
years 9058
financial 8610
European 8512
economy 8272
must 8104
do 8040
while 8011
? 7870
into 7819
may 7725
had 7677
over 7649
policy 7641
like 7544
much 7514
time 7453
out 7317
them 7149
because 7125
after 6878
those 6793
United 6686
up 6685
power 6660
EU 6582
international 6441
crisis 6399
first 6257
between 6159
year 6145
public 6143
I 6085
two 6072
just 6036
Trump 5992
how 5964
America 5936
our 5722
need 5693
any 5658
both 5655
trade 5644
well 5506
today 5395
against 5365
Russia 5343
$ 5286
system 5200
last 5159
leaders 5095
market 5024
less 5014
change 5003
way 4928
example 4874
governments 4874
investment 4846
indeed 4819
own 4817
since 4798
debt 4787
too 4749
make 4690
support 4671
become 4668
markets 4638
recent 4612
banks 4600
President 4596
yet 4566
far 4545
where 4493
policies 4476
still 4405
state 4344
important 4301
national 4266
States 4258
including 4237
Chinese 4229
rates 4217
long 4215
does 4208
Japan 4181
through 4160
social 4154
economies 4146
development 4129
future 4123
India 4108
military 4103
interest 4096
same 4045
being 4010
without 3953
Germany 3916
capital 3911
rate 3878
American 3846
already 3846
likely 3825
another 3822
might 3788
Iran 3749
under 3749
war 3701
major 3695
GDP 3685
foreign 3664
nuclear 3661
given 3655
made 3652
work 3652
then 3634
end 3628
real 3586
take 3585
billion 3577
large 3559
high 3556
security 3527
t 3520
tax 3518
good 3506
fiscal 3505
use 3504
rather 3476
better 3467
fact 3455
energy 3451
among 3435
current 3434
prices 3433
did 3422
often 3403
problem 3367
right 3355
risk 3342
result 3338
help 3293
cannot 3231
before 3223
part 3191
health 3185
central 3163
states 3152
demand 3142
course 3137
very 3134
why 3131
whether 3108
million 3091
three 3082
Bank 3061
around 3059
order 3055
South 3044
during 3044
companies 3032
moreover 3009
institutions 2997
increase 2987
though 2965
region 2955
Africa 2946
Union 2936
least 2931
income 2918
us 2901
climate 2898
approach 2894
few 2872
eurozone 2864
past 2852
role 2847
Obama 2842
East 2834
World 2833
Korea 2819
back 2800
higher 2785
North 2781
Asia 2777
money 2775
toward 2774
little 2766
Israel 2754
next 2753
oil 2753
human 2751
however 2739
education 2731
especially 2717
needs 2709
private 2705
monetary 2693
women 2679
thus 2674
developing 2662
down 2644
case 2618
needed 2616
domestic 2593
second 2591
clear 2574
process 2569
rise 2562
others 2559
democracy 2557
problems 2554
spending 2544
remains 2526
come 2525
almost 2518
strong 2518
means 2513
costs 2495
France 2475
inflation 2473
reforms 2464
business 2451
efforts 2445
within 2444
further 2442
election 2439
decades 2433
continue 2420
despite 2403
you 2397
potential 2392
reform 2391
key 2390
sector 2375
different 2367
point 2367
long-term 2359
seems 2356
benefits 2352
particularly 2343
remain 2335
West 2327
citizens 2313
growing 2310
agreement 2309
ago 2307
every 2304
increasingly 2303
workers 2302
put 2280
recently 2279
services 2278
population 2267
price 2267
used 2262
poor 2256
Iraq 2255
each 2253
labor 2252
her 2250
The 2239
emerging 2216
enough 2212
question 2212
share 2210
difficult 2209
members 2193
currency 2189
itself 2186
best 2183
control 2178
able 2177
level 2160
administration 2155
low 2152
greater 2150
provide 2149
regime 2144
interests 2141
set 2140
&apos;s 2139
former 2135
terms 2132
led 2121
number 2118
peace 2118
rights 2118
Putin 2116
longer 2113
Turkey 2107
politics 2101
regional 2099
children 2096
according 2095
law 2093
never 2092
my 2090
resources 2089
access 2083
progress 2078
infrastructure 2076
War 2068
say 2068
once 2067
history 2064
instead 2061
Middle 2044
based 2043
small 2035
reduce 2034
investors 2033
jobs 2032
risks 2027
possible 2012
place 2004
per 2001
challenges 1997
life 1994
impact 1987
free 1983
Syria 1979
effective 1976
making 1976
off 1976
perhaps 1976
face 1974
cost 1971
Greece 1967
reason 1966
strategy 1959
Western 1945
again 1936
force 1934
research 1934
create 1933
local 1927
president 1924
issues 1923
rising 1923
together 1909
true 1900
value 1898
technology 1896
him 1895
data 1890
lead 1880
want 1876
leadership 1874
member 1871
simply 1871
society 1865
common 1863
left 1853
stability 1853
action 1849
significant 1848
serious 1845
bank 1840
democratic 1838
forces 1836
Russian 1828
rules 1818
great 1816
themselves 1814
until 1809
ensure 1807
conflict 1805
levels 1804
re@@ 1801
across 1800
view 1799
unemployment 1797
go 1794
lower 1793
Minister 1791
early 1791
know 1791
Arab 1790
sense 1790
beyond 1788
finance 1788
believe 1782
get 1781
un@@ 1778
measures 1769
increased 1765
see 1765
deal 1759
systems 1754
community 1746
firms 1745
program 1745
poverty 1744
similar 1732
French 1725
require 1725
challenge 1715
Ukraine 1703
home 1703
2008 1702
issue 1697
British 1696
find 1687
always 1686
threat 1686
dollar 1685
address 1684
euro 1680
ever 1675
credit 1664
hard 1659
times 1658
century 1657
employment 1636
German 1633
UN 1632
party 1628
young 1627
parties 1618
decade 1617
pay 1608
seem 1608
areas 1606
response 1606
she 1605
success 1605
developed 1602
Britain 1599
turn 1599
policymakers 1591
Party 1590
information 1590
conditions 1585
Fed 1580
lack 1578
move 1578
budget 1576
UK 1574
several 1567
open 1563
rule 1562
International 1559
food 1559
average 1558
called 1552
deficit 1552
-@@ 1546
model 1545
having 1543
consider 1538
politicians 1536
production 1535
five 1533
media 1531
opportunity 1531
focus 1528
officials 1528
cooperation 1527
New 1526
exchange 1526
advanced 1522
productivity 1521
pressure 1520
position 1516
voters 1515
Bush 1514
IMF 1512
done 1511
campaign 1509
big 1506
Americans 1505
inequality 1496
said 1496
half 1494
short 1485
groups 1483
whose 1483
leading 1481
hope 1479
changes 1475
balance 1474
created 1472
Italy 1471
ways 1469
assets 1467
effort 1462
strategic 1461
taken 1461
annual 1460
consequences 1460
finally 1457
effects 1455
largely 1455
leader 1455
requires 1455
goods 1452
run 1450
water 1450
weapons 1449
term 1447
day 1444
industry 1437
Pakistan 1435
largest 1431
months 1428
third 1428
return 1427
care 1426
ability 1421
structural 1417
rest 1415
think 1414
20 1409
although 1409
massive 1408
failed 1407
Prime 1406
full 1406
doing 1405
alone 1404
influence 1403
opposition 1397
nearly 1393
Council 1387
consumption 1386
programs 1385
four 1381
top 1378
wealth 1378
capacity 1377
form 1377
banking 1376
main 1372
period 1372
cause 1366
economists 1365
powerful 1365
fall 1361
either 1360
majority 1359
start 1359
exports 1357
away 1351
Asian 1348
shift 1348
makes 1346
emissions 1345
prevent 1339
Nations 1338
debate 1338
working 1338
achieve 1335
old 1335
particular 1333
failure 1332
bring 1331
sustainable 1330
Fund 1325
relations 1324
expected 1322
worse 1322
decline 1319
lives 1318
job 1315
owing 1315
benefit 1313
increasing 1313
began 1312
later 1309
news 1308
funds 1305
lost 1305
improve 1303
keep 1303
violence 1303
globalization 1301
plan 1299
using 1297
close 1295
sure 1294
supply 1290
rich 1288
living 1286
Central 1285
idea 1285
innovation 1283
aid 1281
taking 1277
age 1275
negotiations 1275
month 1274
natural 1274
official 1274
total 1274
experience 1273
nothing 1273
single 1273
ECB 1272
nor 1270
found 1269
bad 1264
decision 1264
elections 1262
following 1261
governance 1259
give 1258
taxes 1256
report 1255
necessary 1252
Kingdom 1248
S@@ 1248
seen 1244
evidence 1240
group 1238
modern 1238
recovery 1236
comes 1229
fear 1229
Egypt 1227
Islamic 1227
environment 1227
London 1219
opportunities 1218
play 1217
actually 1216
probably 1214
trillion 1213
behind 1212
civil 1207
solution 1207
&quot; 1205
became 1203
something 1202
Congress 1201
environmental 1200
Brazil 1199
build 1198
Japanese 1197
things 1195
Saudi 1192
agenda 1186
effect 1184
highly 1184
look 1184
goal 1182
act 1181
traditional 1181
50 1178
cities 1171
2015 1170
investments 1170
values 1169
really 1168
rapid 1167
technologies 1166
avoid 1164
clearly 1163
soon 1163
hold 1162
boost 1161
kind 1161
union 1161
allow 1160
protect 1157
authorities 1156
vote 1152
presidential 1148
legal 1145
Commission 1144
cases 1143
situation 1143
popular 1141
certainly 1139
reality 1138
1 1137
account 1136
side 1136
step 1133
status 1131
huge 1130
Mexico 1129
Soviet 1127
bonds 1126
above 1125
attention 1122
integration 1122
contrast 1121
known 1121
individual 1120
deficits 1119
coming 1116
sanctions 1113
powers 1112
2010 1111
fundamental 1110
reducing 1110
currently 1109
held 1108
Afghanistan 1107
live 1107
competition 1105
call 1104
land 1104
larger 1103
limited 1102
30 1091
gas 1091
successful 1090
line 1089
late 1088
include 1086
took 1085
defense 1082
standards 1080
matter 1078
reach 1077
2 1076
African 1075
collapse 1074
outcome 1074
Security 1073
behavior 1070
here 1070
millions 1070
relationship 1070
creating 1062
concerns 1061
produce 1056
corruption 1055
relatively 1053
NATO 1052
Palestinian 1051
building 1051
mean 1049
financing 1048
commitment 1047
easy 1047
corporate 1046
meanwhile 1046
understand 1046
established 1045
words 1045
minister 1044
wrong 1044
State 1043
decisions 1043
direct 1043
products 1043
/ 1042
10 1041
Donald 1040
along 1038
cut 1035
critical 1033
everyone 1032
elsewhere 1030
develop 1029
projects 1029
freedom 1028
Development 1027
quickly 1020
refugees 1019
offer 1018
recession 1018
entire 1015
Paris 1013
meet 1010
Latin 1009
cuts 1007
businesses 1006
meeting 1006
so-called 1006
in@@ 1003
external 999
weak 998
came 996
similarly 995
confidence 994
results 994
unlikely 993
worldwide 992
allies 991
movement 991
hand 989
men 988
Muslim 987
responsibility 987
Brexit 985
organizations 985
National 984
Washington 983
religious 983
let 982
recognize 979
becoming 978
Internet 973
continued 973
fight 972
thing 972
beginning 971
ten 971
show 970
caused 966
general 966
dangerous 964
relative 964
attacks 963
stop 963
- 962
existing 961
reasons 960
Barack 959
raise 958
essential 954
A@@ 953
2013 952
alternative 952
science 949
technological 948
basic 946
certain 946
helped 946
performance 945
roughly 945
path 941
2012 940
fully 939
claim 938
funding 938
overall 936
days 935
forced 935
non-@@ 935
proposed 934
outside 931
output 930
won 930
gains 929
reserves 929
maintain 927
2014 926
ultimately 926
Great 924
brought 923
Europeans 922
source 922
asset 918
management 918
target 918
factors 916
eventually 915
negative 914
victory 914
industrial 913
advantage 911
deep 911
Spain 909
choice 905
intervention 903
me 902
additional 901
Arabia 900
death 899
below 898
creation 898
unfortunately 897
company 896
complex 896
liberal 896
continues 895
positive 895
prosperity 893
solutions 892
accept 891
leave 890
i 889
scale 886
stock 886
P@@ 885
framework 883
personal 883
available 882
manufacturing 880
claims 879
office 879
allowed 878
answer 875
Indian 874
basis 874
thereby 873
stimulus 872
Federal 871
man 871
ahead 870
2011 868
family 868
independent 868
attack 866
flows 866
moral 866
generation 865
knowledge 864
amount 863
crises 862
provided 862
short-term 862
independence 861
15 860
required 860
individuals 859
Monetary 858
Xi 857
consumers 857
sectors 857
austerity 856
Republican 855
era 855
disease 854
effectively 854
May 853
societies 853
carbon 852
shared 851
40 850
skills 850
neither 849
2009 848
Greek 848
Korean 848
increases 848
E@@ 847
insurance 847
II 845
agreed 845
matters 844
stronger 844
willing 844
concern 843
industries 843
savings 843
September 841
economics 840
facing 838
communities 837
likewise 837
points 837
quality 836
rapidly 836
wages 836
partners 835
damage 834
ideas 834
throughout 832
transition 832
argue 831
export 830
don 828
study 828
activities 825
incentives 825
dollars 824
households 824
project 824
contrary 823
impossible 823
providing 823
reached 823
aimed 822
de 822
grow 821
questions 820
T@@ 818
B@@ 817
net 815
protection 815
extreme 814
politically 814
federal 813
talks 813
er 811
service 811
forward 810
surplus 809
goals 807
bilateral 806
institutional 806
loss 806
2016 805
sometimes 805
thinking 805
revolution 804
stable 804
Israeli 802
diplomatic 802
vision 802
moment 801
F@@ 800
pursue 800
reduced 800
expect 799
widely 799
1990 798
suggests 798
borders 797
loans 796
saving 796
events 794
gain 794
school 794
L@@ 792
obvious 791
actions 787
previous 787
agreements 786
authority 786
regulation 785
six 785
parts 784
trying 781
internal 780
simple 780
G@@ 779
elected 779
compared 777
focused 777
nature 777
gap 776
competitive 775
housing 775
crucial 774
turned 774
follow 773
o 773
significantly 773
appears 772
reduction 772
YORK 771
Reserve 770
driven 770
Trade 769
city 769
culture 769
responsible 769
wants 769
D@@ 768
area 768
expansion 768
slow 766
Global 765
earlier 765
losses 765
House 764
thought 763
unless 763
border 761
25 760
class 760
plans 760
seeking 760
vulnerable 760
secure 759
followed 758
seek 756
summit 756
cultural 755
understanding 755
whole 754
digital 753
terrorism 753
worth 753
directly 751
C@@ 749
anti-@@ 749
core 749
consensus 748
shows 748
strengthen 748
populist 746
committed 743
going 743
air 741
produced 740
easily 738
equity 738
excessive 738
trust 737
100 735
partly 735
try 735
imports 734
record 734
regions 734
3 733
liquidity 733
difference 732
neighbors 732
scientific 732
K@@ 730
therefore 729
treatment 727
2007 726
establish 725
begin 724
paid 723
students 723
demands 722
H@@ 721
burden 721
models 721
serve 721
R@@ 719
feel 719
presidency 719
respect 719
wage 719
warming 719
agree 718
historical 718
immigration 718
unlike 718
Clinton 717
property 717
regulatory 717
book 716
Republicans 715
Syrian 715
chance 715
coalition 715
promote 714
sides 714
direction 712
invest 712
size 712
trend 712
anything 711
fail 711
prime 711
argument 710
primary 710
argued 709
announced 708
b@@ 708
your 708
reflects 706
related 706
seemed 706
encourage 705
uncertainty 705
whatever 705
faster 704
lose 704
steps 704
targets 704
manage 703
wars 703
N@@ 702
sources 702
vital 702
subsidies 701
push 700
ground 699
k@@ 698
trading 698
extent 697
biggest 696
expectations 696
importance 696
threats 694
am 693
implement 692
M@@ 691
falling 691
himself 691
Palestinians 690
December 689
November 689
assistance 689
ate 689
save 689
win 689
Economic 687
consumer 687
latest 686
intelligence 685
whom 685
deliver 684
provides 684
substantial 684
multilateral 683
sovereign 683
calls 682
game 682
otherwise 682
Hamas 680
takes 680
abroad 679
anyone 679
shown 679
referendum 678
terrorist 678
60 677
child 677
immediate 677
principle 677
es 676
Kim 675
Poland 675
limits 674
option 674
story 674
supported 674
doubt 673
legitimacy 673
5 672
middle 672
achieved 671
adopted 671
ties 671
training 671
renminbi 670
s@@ 670
specific 670
vast 669
faces 668
farmers 668
tend 668
standard 667
health-care 666
various 666
center 664
lending 664
Merkel 663
profits 663
George 662
ating 662
becomes 662
favor 662
safety 662
truth 662
ensuring 661
laws 660
changed 659
none 659
2@@ 658
managed 658
migration 658
respond 658
competitiveness 657
Organization 656
prospects 656
range 656
precisely 654
suggest 654
raising 653
happen 652
improved 652
safe 652
thousands 652
limit 650
urban 650
commercial 649
drug 649
spent 649
current-account 648
theory 648
Iranian 647
self-@@ 647
unable 647
University 645
reflect 645
speech 645
incomes 644
tools 644
merely 643
spread 643
Secretary 642
else 642
whereas 642
enable 641
severe 641
tariffs 641
promise 639
Argentina 638
fighting 638
leaving 636
accounts 635
built 635
ed 635
initiative 635
June 634
York 634
ts 634
11 633
Cold 633
activity 633
ates 633
lies 631
mass 631
context 630
efficient 628
press 628
fund 627
macroeconomic 627
principles 626
special 626
membership 624
sovereignty 623
started 622
o@@ 621
re-@@ 621
test 620
broader 619
launched 619
week 619
changing 618
improving 618
running 618
ated 617
W@@ 616
outcomes 616
€ 616
John 614
capita 614
designed 614
ing 614
base 613
easing 613
legislation 612
normal 612
spend 612
drive 611
lot 611
widespread 611
Lebanon 610
de@@ 610
2000 609
General 609
creditors 609
regulations 609
diseases 608
estimated 605
possibility 605
received 605
happened 604
resulting 604
schools 604
efficiency 603
giving 603
space 603
went 603
buy 602
generally 602
head 602
Libya 601
helping 601
promises 601
democracies 600
ers 600
getting 600
stand 600
Islam 599
O@@ 599
attempt 599
continent 599
rural 599
differences 598
faced 598
near 598
DC 597
regard 597
2005 596
absence 595
addition 595
candidates 595
allowing 594
causes 594
hit 594
operations 594
prove 594
Abe 593
appear 593
experts 593
families 593
over@@ 593
enormous 592
structure 592
household 591
views 591
hundreds 590
message 590
tensions 590
circumstances 589
t@@ 589
collective 588
construction 588
k 588
welfare 588
Democratic 587
Eastern 587
considered 587
drugs 587
fuel 587
opinion 587
depends 586
12 585
currencies 585
sustained 584
revenues 583
scientists 583
In 582
goes 582
4 581
asked 581
police 581
treaty 581
associated 580
barriers 580
boom 580
deeply 580
resistance 580
final 579
mind 579
struggle 579
radical 578
A 577
mostly 577
undermine 576
name 575
permanent 575
depend 574
g@@ 574
geopolitical 574
agricultural 573
declared 573
everything 573
tried 573
economist 572
usually 572
considerable 571
danger 571
practices 571
remained 571
conflicts 570
identity 570
e 569
2001 568
fell 568
returns 568
y@@ 568
fair 567
succeed 567
dis@@ 566
entirely 566
ratio 565
stage 565
supposed 565
upon 565
Erdoğan 564
Treaty 564
met 564
unprecedented 564
d@@ 563
closer 562
e@@ 562
highest 562
present 562
raised 562
viewed 562
worked 562
factor 561
capitalism 560
electoral 560
smaller 560
forms 559
hardly 559
broad 558
equal 558
initiatives 558
medical 558
subject 558
Cambridge 556
agencies 556
bankers 556
comprehensive 556
credibility 556
borrowing 555
instability 555
justice 555
cash 554
disaster 554
strategies 554
70 553
Democrats 553
deaths 553
migrants 553
moving 553
worst 553
estimates 552
ethnic 552
Kremlin 551
person 551
potentially 551
ended 550
learn 550
zero 550
Hong 549
due 549
nationalism 549
task 548
ongoing 547
revenue 547
Muslims 546
candidate 546
establishment 546
choose 545
productive 545
told 545
emerged 543
stands 543
diplomacy 542
distribution 542
receive 542
suffering 542
involved 541
1980 540
advance 540
hands 540
positions 539
commodity 538
rhetoric 538
conventional 537
nonetheless 537
organization 537
overcome 537
soft 537
expand 536
p@@ 535
electricity 534
generate 534
includes 534
greatest 533
supporters 533
Gaza 532
measure 532
weeks 532
equally 531
Macron 530
July 529
achieving 529
analysis 529
combined 529
offered 529
recognized 529
Revolution 528
al 528
ally 528
contribute 528
en@@ 528
places 528
type 528
Sea 527
addressing 527
agriculture 527
lines 527
played 527
sound 527
sufficient 527
alliance 526
army 526
explain 526
impose 526
mainly 526
payments 526
practice 526
scenario 526
80 525
priority 525
an@@ 524
fallen 524
slowdown 524
body 523
sought 523
transformation 523
ordinary 522
rely 522
March 521
controls 521
ation 520
planet 520
percentage 519
commitments 518
heart 518
proved 518
Court 517
territory 517
troops 517
Ireland 516
quite 515
trends 515
2006 514
gone 514
implemented 514
easier 513
populations 513
proposal 513
universal 513
everywhere 512
protests 512
January 511
Republic 511
afford 511
implies 511
participation 511
killed 510
lesson 510
restore 510
add 509
amounts 509
experienced 509
suffer 509
Vladimir 508
southern 508
adjustment 507
mechanisms 507
regimes 507
3@@ 506
break 506
conservative 506
fears 506
implications 506
options 506
perspective 506
pace 504
y 504
expensive 503
immigrants 503
actors 502
2017 501
decided 501
regulators 501
road 501
Venezuela 500
affairs 500
imbalances 500
leverage 499
conference 498
enterprises 498
online 498
strength 498
Assad 497
appropriate 497
armed 497
belief 496
intellectual 496
ruling 496
strengthening 496
degree 495
imposed 495
inclusive 495
join 495
nation 495
inevitable 494
Treasury 493
truly 493
virtually 493
arms 492
room 492
round 492
cancer 491
corporations 491
debts 491
gold 491
sharp 491
visit 491
green 490
pursuing 489
underlying 489
dynamic 488
refugee 488
active 487
bringing 487
objectives 487
sharply 487
affect 486
immediately 486
list 486
numbers 486
continuing 485
cycle 485
seven 485
sign 485
typically 485
Beijing 484
coal 484
works 484
wanted 483
declining 482
default 482
bond 481
economically 481
learned 481
senior 481
blame 480
constitution 480
elites 480
talk 480
ask 479
critics 479
1@@ 478
believed 478
driving 478
al-@@ 477
hopes 477
patients 477
poorest 477
developments 475
girls 475
learning 475
lessons 475
studies 475
violent 475
networks 474
promised 474
sustain 474
Turkish 473
aggregate 473
authoritarian 473
maintaining 473
opponents 473
quarter 473
Islamist 472
credible 472
desire 472
causing 471
combination 471
secular 471
Vietnam 470
engage 470
keeping 470
ones 470
peaceful 470
reflected 470
starting 470
yes 470
G-20 469
movements 469
physical 469
regardless 468
nations 467
prospect 467
fuels 466
language 466
red 466
investing 465
looking 465
playing 465
resolve 465
affected 464
deeper 464
fortunately 464
producers 464
proposals 464
figure 463
gender 463
guarantee 463
knows 463
Re@@ 462
cutting 462
parliament 462
turning 462
CO2 461
Sunni 461
described 461
determine 461
objective 461
supporting 461
m 459
nationalist 459
offers 459
promoting 459
Kong 458
constitutional 458
holding 458
planning 458
prepared 458
putting 458
October 457
event 457
heavily 457
published 457
starters 457
a@@ 456
gave 456
resolution 456
determined 455
shape 455
eight 454
expanding 454
losing 454
mistake 454
Canada 453
fast 453
field 453
parliamentary 453
surely 453
carry 452
Communist 451
destruction 451
generations 451
quantitative 451
apparent 450
firm 450
mechanism 450
observers 450
7 449
Indonesia 448
assume 448
backed 447
complete 447
exactly 447
robust 447
technical 447
6 446
represents 446
setting 446
relevant 445
team 445
transfer 445
occurred 444
imagine 443
leads 443
ted 443
2004 442
Australia 442
front 441
opening 441
ready 441
temporary 441
I@@ 440
aim 440
looks 440
ministers 440
decide 439
light 439
transparency 439
worry 439
Jewish 438
Parliament 437
bear 437
deflation 437
divided 437
equivalent 437
fueled 437
&amp; 436
90 436
April 436
defend 436
n@@ 436
partner 436
concerned 435
gained 435
issued 435
bubble 434
court 434
territorial 434
excess 433
wide 433
Singapore 432
decision-making 432
l@@ 432
18@@ 431
choices 431
defined 431
essentially 431
formal 431
minority 431
dramatically 430
exit 430
fewer 430
seriously 430
accepted 429
bound 429
relief 429
summer 429
adopt 428
discussion 428
m@@ 428
northern 428
Al 427
mention 427
previously 427
useful 427
opposite 426
encouraging 424
liberalization 424
paying 424
sell 424
signed 424
moved 423
necessarily 423
thanks 423
J@@ 422
Modi 422
People 422
defeat 422
establishing 422
failing 422
grown 422
innovative 422
race 422
annually 421
healthy 421
purpose 421
victims 421
2003 420
W. 420
ending 420
joint 420
meant 420
universities 420
arrangements 419
humanitarian 419
pollution 419
z@@ 419
demonstrated 418
journalists 418
possibly 418
unique 418
ASEAN 417
f@@ 417
friends 417
structures 417
willingness 417
house 416
i@@ 416
processes 416
requirements 416
showed 416
added 415
elite 415
figures 415
hours 415
surprise 414
targeted 414
contributed 413
dramatic 413
on@@ 413
D 412
Italian 412
billions 412
purchases 412
compromise 411
signs 411
stagnation 411
urgent 411
Health 410
d 410
players 410
Taiwan 409
ambitious 409
happens 409
included 409
priorities 409
solve 409
Taliban 408
integrated 408
represent 408
employees 407
occur 407
host 406
intended 406
says 406
twentieth 406
volatility 406
August 405
ar@@ 405
equality 405
inadequate 405
large-scale 405
presence 405
remaining 405
9 404
dialogue 404
pension 404
reported 404
restructuring 404
begun 403
under@@ 403
understood 403
aging 402
perceived 402
shocks 402
constraints 401
emerging-market 401
served 401
towards 401
enabled 400
extremely 400
launch 400
remarkable 400
calling 399
design 399
introduced 399
8 398
Nobel 398
crimes 398
embrace 398
sharing 398
sustainability 398
trouble 398
2030 397
Berlin 397
closely 397
promising 397
unsustainable 397
bill 396
legacy 396
standing 396
! 395
Financial 395
born 395
chief 395
er@@ 395
genuine 395
mandate 395
product 395
scope 395
solidarity 395
track 395
Depression 394
clean 394
flow 394
historic 394
humans 394
identify 394
legitimate 394
pattern 394
protecting 394
reports 394
restrictions 394
survival 394
dependent 393
implementation 393
moderate 393
paper 393
TPP 392
emerge 392
boosting 391
engagement 391
heavy 391
suffered 391
threatened 391
Chancellor 390
Committee 390
QE 390
gradually 390
it@@ 390
approaches 389
grew 389
quo 389
terrorists 389
Climate 388
OECD 388
Russians 388
battle 388
be@@ 388
di@@ 388
addressed 387
capable 387
exchange-rate 387
kept 387
post-@@ 387
4@@ 386
Brussels 386
adequate 386
aggressive 386
board 386
eliminate 386
pushing 386
votes 386
Sarkozy 385
criticism 385
religion 385
researchers 385
costly 384
undermining 384
am@@ 383
capabilities 383
globally 383
recognition 383
ting 383
youth 383
harm 382
saw 382
stake 382
18 381
concluded 381
transactions 381
co@@ 380
educational 380
incentive 380
linked 380
norms 380
Gulf 379
White 379
ab@@ 379
double 379
meaning 379
emergence 378
ideological 378
reaching 378
st@@ 378
wave 378
al@@ 377
cheap 377
dominated 377
mis@@ 377
sh@@ 376
C 375
ations 375
ch@@ 375
faith 375
u 375
compete 374
fossil 374
England 373
Partnership 373
fourth 373
humanity 373
pushed 373
Netanyahu 372
finding 372
institution 372
opposed 372
producing 372
risky 372
someone 372
stance 372
5@@ 371
HIV 371
contracts 371
logic 371
shock 371
centuries 370
plants 370
reserve 370
series 370
2020 369
confront 369
via 369
w@@ 369
Jews 368
surprising 368
weakness 368
V@@ 367
doesn 367
preventing 367
tell 367
carried 366
con@@ 366
le 366
private-sector 366
replace 366
strike 366
Palestine 365
Shia 365
accounting 365
civilian 365
modest 365
Wall 364
drop 363
exception 363
homes 363
operating 363
repeatedly 363
users 363
bottom 362
cover 362
exposed 362
n 362
populism 362
pressures 362
rejected 362
apply 361
ignore 361
managing 361
network 361
ti@@ 361
withdrawal 361
wrote 361
U@@ 360
nowadays 360
profound 360
securities 360
woman 360
Chile 359
R 359
u@@ 359
le@@ 358
primarily 358
son 358
statement 358
advances 357
import 357
settlement 357
substantially 357
17 356
sentiment 356
v@@ 356
completely 355
negotiating 355
realize 355
state-owned 355
tough 355
transfers 355
13 354
concept 354
crime 354
deals 354
explanation 354
polls 354
welcome 354
Assembly 353
Nigeria 353
borrow 353
exist 353
ri@@ 353
speak 353
Act 352
David 352
Senate 352
appeal 352
delivered 352
emergency 352
obviously 352
survive 352
t-@@ 352
expense 351
holds 351
implementing 351
j@@ 351
notably 351
accompanied 350
attractive 350
educated 350
harder 350
im@@ 350
offset 350
package 350
taxpayers 350
weight 350
Paul 349
conducted 349
fate 349
We 348
alike 348
appreciation 348
failures 348
malaria 348
strongly 348
suggested 348
AIDS 347
elements 347
reverse 347
sales 347
solar 347
February 346
Sweden 346
mere 346
attempts 345
species 345
uses 345
aside 344
earnings 344
innovations 344
Georgia 343
charge 343
facts 343
link 343
mo@@ 343
narrative 343
warned 343
wealthy 343
daily 342
died 342
illegal 342
mobile 342
obligations 342
yield 342
Y@@ 341
allows 341
budgets 341
engaged 341
ideology 341
minimum 341
regarded 341
sort 341
supplies 341
threatening 341
California 340
expanded 340
ownership 340
Agreement 339
felt 339
practical 339
reasonable 339
1990s 338
ans 338
invasion 338
latter 338
ro@@ 338
smart 338
table 338
weaker 338
1970 337
attract 337
discussions 337
turmoil 337
at@@ 336
enabling 336
enter 336
generated 336
initial 336
mainstream 336
parents 336
se@@ 336
sea 336
voted 336
In@@ 335
consistent 335
genetic 335
mission 335
search 335
uncertain 335
wind 335
200 334
claimed 334
disputes 334
released 334
subsequent 334
actual 333
cross-border 333
en 333
h@@ 333
material 333
resource 333
stay 333
die 332
fire 332
nominal 332
operate 332
publicly 332
weaken 332
wider 332
Iraqi 331
Supreme 331
als 331
coordination 331
counterparts 331
posed 331
arguments 330
convinced 330
enhance 330
inevitably 330
inflows 330
or@@ 330
14 329
effectiveness 329
managers 329
offering 329
undoubtedly 329
WTO 328
acting 328
contain 328
creates 328
king 328
p 328
purchase 328
unity 328
barely 327
controlled 327
executive 327
passed 327
placed 327
slowly 327
threaten 327
ad@@ 326
balanced 326
bold 326
one-third 326
rose 326
ruled 326
terror 326
Cameron 325
devastating 325
fundamentally 325
newly 325
renewable 325
1.5 324
Social 324
accountability 324
interventions 324
killing 324
mutual 324
professional 324
Moscow 323
applied 323
contributions 323
demographic 323
flexibility 323
progressive 323
16 322
fragile 322
sp@@ 322
Colombia 321
Israelis 321
apparently 321
coverage 321
gives 321
got 321
joined 321
leaves 321
word 321
bankruptcy 320
chains 320
declined 320
examples 320
transport 320
wake 320
Christian 319
Street 319
ambitions 319
broadly 319
participants 319
systemic 319
Plan 318
bubbles 318
measured 318
momentum 318
refused 318
Department 317
Institute 317
financed 317
television 317
35 316
It 316
Jordan 316
ding 316
dominant 316
rarely 316
seemingly 316
version 316
donors 315
facilities 315
initially 315
li@@ 315
pointed 315
style 315
viable 315
voting 315
approval 314
bailout 314
buying 314
corrupt 314
cyber 314
escape 314
negotiate 314
ons 314
replaced 314
Hezbollah 313
ISIS 313
closed 313
conclusion 313
contribution 313
far-reaching 313
returned 313
surpluses 313
twice 313
1980s 312
Kenya 312
expressed 312
father 312
female 312
flexible 312
populists 312
l 311
shifting 311
displaced 310
protectionism 310
pursued 310
renewed 310
valuable 310
variety 310
Hungary 309
customers 309
diverse 309
ra@@ 309
steel 309
Yemen 308
block 308
encouraged 308
extend 308
g 308
patterns 308
successfully 308
academic 307
criminal 307
periphery 307
right-wing 307
500 306
Defense 306
Pakistani 306
TB 306
centers 306
decisive 306
demanding 306
demonstrate 306
exercise 306
narrow 306
pre-@@ 306
se 306
2002 305
facilitate 305
missile 305
mobility 305
partnership 305
plenty 305
provision 305
revealed 305
soldiers 305
stories 305
struggling 305
yields 305
&#91; 304
&#93; 304
foreign-policy 304
older 304
presidents 304
specifically 304
2018 303
chronic 303
relationships 303
retirement 303
saying 303
successor 303
weakened 303
Angela 302
divide 302
function 302
furthermore 302
improvement 302
nine 302
responses 302
taxation 302
tests 302
6@@ 301
Philippines 301
concerning 301
helps 301
high-@@ 301
platform 301
predict 301
review 301
sent 301
surge 301
Investment 300
Jinping 300
coup 300
instruments 300
policymaking 300
protest 300
frequently 299
ly 299
pose 299
sexual 299
to@@ 299
except 298
foreign-exchange 298
lacks 298
damaging 297
e-@@ 297
fixed 297
focusing 297
raises 297
selling 297
wisdom 297
Netherlands 296
ag@@ 296
destroy 296
multiple 296
organized 296
sheets 296
simultaneously 296
suddenly 296
ar 295
c@@ 295
happening 295
ideal 295
interest-rate 295
nevertheless 295
out@@ 295
resulted 295
rulers 295
stress 295
weakening 295
Keynes 294
ant 294
correct 294
depression 294
marked 294
painful 294
Egyptian 293
Portugal 293
apart 293
chemical 293
diversity 293
ous 293
over-@@ 293
phase 293
pre@@ 293
white 293
24 292
Goals 292
abandon 292
ends 292
extended 292
mark 292
shareholders 292
trial 292
… 292
advantages 291
advocates 291
cars 291
condition 291
consequence 291
do@@ 291
statements 291
supposedly 291
Bangladesh 290
Spring 290
participate 290
reliable 290
two-thirds 290
bigger 289
guide 289
knew 289
peak 289
united 289
waste 289
aftermath 288
ban 288
charges 288
downturn 288
middle-income 288
Facebook 287
Robert 287
abuse 287
adverse 287
badly 287
capture 287
computer 287
courts 287
dealing 287
debates 287
heads 287
image 287
transform 287
SDGs 286
advice 286
ic 286
identified 286
meaningful 286
methods 286
properly 286
rational 286
stopped 286
twenty-first 286
warning 286
1989 285
accelerate 285
alternatives 285
assessment 285
engineering 285
forcing 285
reaction 285
showing 285
vaccines 285
Google 284
believes 284
borrowers 284
dream 284
eastern 284
platforms 284
profit 284
read 284
shares 284
talent 284
Reagan 283
chaos 283
dead 283
entrepreneurs 283
gets 283
historically 283
imposing 283
mistakes 283
regarding 283
surprisingly 283
travel 283
treat 283
triggered 283
· 283
challenging 282
depreciation 282
guarantees 282
imperative 282
lie 282
worried 282
Sustainable 281
attempting 281
complicated 281
extra 281
ha@@ 281
neighboring 281
runs 281
send 281
voice 281
weather 281
Forum 280
Germans 280
Z@@ 280
downward 280
kinds 280
limiting 280
materials 280
resilience 280
shifts 280
transparent 280
winning 280
Agency 279
Harvard 279
Pacific 279
aware 279
benefited 279
compensation 279
component 279
ethical 279
generating 279
grounds 279
impressive 279
improvements 279
original 279
proportion 279
r@@ 279
staff 279
unconventional 279
argues 278
black 278
confrontation 278
consistently 278
dispute 278
free-trade 278
justify 278
ks 278
rescue 278
ultimate 278
written 278
Rights 277
aims 277
carefully 277
combat 277
dependence 277
openness 277
prosperous 277
streets 277
Foreign 276
Justice 276
P 276
brings 276
fueling 276
governing 276
indicators 276
minorities 276
occupation 276
proven 276
strengthened 276
tool 276
treated 276
characterized 275
concrete 275
false 275
hunger 275
mid-@@ 275
pain 275
representatives 275
responsibilities 275
somewhat 275
stimulate 275
tradition 275
zone 275
consolidation 274
eyes 274
ignored 274
inclusion 274
lo@@ 274
maintained 274
recognizing 274
types 274
university 274
22 273
As 273
assumed 273
atmosphere 273
bodies 273
ism 273
obstacles 273
perfect 273
prefer 273
threatens 273
S 272
brutal 272
civilians 272
colleagues 272
equipment 272
manner 272
opened 272
sophisticated 272
ve 272
Copenhagen 271
anniversary 271
b 271
enemies 271
gaining 271
invested 271
mortgage 271
partnerships 271
phenomenon 271
south 271
City 270
Spanish 270
Tunisia 270
draw 270
fails 270
monopoly 270
overwhelming 270
predicted 270
unions 270
brain 269
congressional 269
foundation 269
residents 269
considerably 268
ds 268
moves 268
succeeded 268
Kosovo 267
Myanmar 267
Thailand 267
car 267
greatly 267
index 267
ling 267
low-income 267
minds 267
persistent 267
responded 267
st 267
undermined 267
Saddam 266
didn 266
discipline 266
doctors 266
rightly 266
surveillance 266
famous 265
noted 265
outright 265
proper 265
purchasing 265
root 265
secret 265
separate 265
survey 265
trigger 265
Blair 264
Mubarak 264
Polish 264
acts 264
considering 264
counter 264
exporters 264
extraordinary 264
slightly 264
Change 263
Growth 263
avoiding 263
conduct 263
enjoy 263
funded 263
ine 263
planned 263
plant 263
protected 263
transformed 263
vehicles 263
ad 262
adapt 262
appeared 262
content 262
contract 262
pressing 262
wonder 262
workforce 262
accused 261
el@@ 261
employers 261
resist 261
revolutionary 261
scheme 261
secondary 261
Policy 260
US-@@ 260
activists 260
avoided 260
creative 260
enemy 260
payment 260
preserve 260
remember 260
Bill 259
bo@@ 259
drawn 259
negotiated 259
presented 259
real-estate 259
1960 258
2050 258
Cuba 258
discrimination 258
informal 258
insist 258
meetings 258
spirit 258
stem 258
artificial 257
commit 257
longer-term 257
notion 257
severely 257
collapsed 256
connected 256
stocks 256
1930 255
anger 255
communication 255
oppose 255
represented 255
repression 255
ze 255
2.5 254
7@@ 254
birth 254
earn 254
emphasis 254
estate 254
experiencing 254
heard 254
usual 254
1999 253
Energy 253
actively 253
assumption 253
estimate 253
fields 253
functioning 253
prison 253
recover 253
analysts 252
blood 252
expenditures 252
ho@@ 252
operation 252
spur 252
wait 252
Crimea 251
Peace 251
Sudan 251
careful 251
involve 251
links 251
manipulation 251
z 251
agency 250
dangers 250
entered 250
happy 250
headed 250
missing 250
poorer 250
prolonged 250
sensible 250
si@@ 250
slowing 250
statistics 250
tackle 250
Atlantic 249
caught 249
insufficient 249
involvement 249
realistic 249
reliance 249
retain 249
unemployed 249
Brotherhood 248
approved 248
backing 248
dominance 248
influential 248
island 248
perception 248
risen 248
slower 248
well-@@ 248
75 247
Malaysia 247
Mediterranean 247
poorly 247
urgently 247
vaccine 247
dropped 246
extremists 246
motivated 246
trials 246
28 245
Qaeda 245
communism 245
compelling 245
contributing 245
isolation 245
lasting 245
mounting 245
prepare 245
sudden 245
21 244
Conference 244
deposits 244
enforcement 244
expertise 244
poses 244
pro-@@ 244
requiring 244
tightening 244
ul@@ 244
wellbeing 244
AI 243
Tokyo 243
destroyed 243
pass 243
testing 243
wish 243
Berkeley 242
Kurdish 242
broken 242
confronting 242
granted 242
les 242
ously 242
tens 242
300 241
T 241
as@@ 241
inside 241
protectionist 241
sold 241
27 240
Labour 240
Mexican 240
feeling 240
patient 240
prior 240
rebalancing 240
reductions 240
sets 240
Bashar 239
Hitler 239
bu@@ 239
co-@@ 239
competing 239
features 239
fulfill 239
guaranteed 239
involving 239
is@@ 239
labor-market 239
ourselves 239
rooted 239
speed 239
Free 238
Qatar 238
acknowledge 238
count 238
ded 238
directed 238
for@@ 238
machines 238
mental 238
pharmaceutical 238
s-@@ 238
turns 238
Dutch 237
When 237
backlash 237
date 237
dictatorship 237
explained 237
mitigate 237
numerous 237
openly 237
reluctant 237
rival 237
sooner 237
Board 236
Jerusalem 236
Southeast 236
awareness 236
eager 236
ne@@ 236
par@@ 236
provisions 236
skilled 236
traditionally 236
Human 235
Times 235
albeit 235
animals 235
eliminating 235
ent 235
favorable 235
foreigners 235
internationally 235
kill 235
liabilities 235
picture 235
tragedy 235
underway 235
y-@@ 235
BRICS 234
Madrid 234
abandoned 234
affordable 234
catastrophe 234
falls 234
feature 234
foster 234
loan 234
seats 234
seeks 234
targeting 234
tions 234
trap 234
Group 233
al-Assad 233
couple 233
enacted 233
evolution 233
executives 233
prominent 233
rare 233
removed 233
te@@ 233
th@@ 233
Le 232
deepening 232
define 232
engine 232
match 232
missiles 232
reject 232
restoring 232
Chávez 231
Convention 231
ac@@ 231
attitudes 231
comparable 231
crash 231
expenditure 231
imply 231
proliferation 231
saved 231
transportation 231
1970s 230
Shanghai 230
achievement 230
adopting 230
autonomy 230
balances 230
constant 230
expression 230
feed 230
gradual 230
low-carbon 230
monitoring 230
nowhere 230
sensitive 230
stabilize 230
Abbas 229
background 229
difficulties 229
ease 229
medicine 229
north 229
E 228
accountable 228
chain 228
controversial 228
es@@ 228
extremism 228
hurt 228
intervene 228
no@@ 228
vulnerability 228
waiting 228
Keynesian 227
Stability 227
anywhere 227
ap@@ 227
books 227
communications 227
indicate 227
naturally 227
politician 227
quick 227
resolved 227
resort 227
ter 227
absolute 226
art 226
cells 226
chose 226
erupted 226
fill 226
memory 226
pursuit 226
roads 226
strikes 226
struck 226
45 225
Ar@@ 225
Ro@@ 225
campaigns 225
finances 225
grand 225
projected 225
sites 225
stood 225
volatile 225
Bernanke 224
Constitution 224
Deng 224
English 224
G20 224
acceptable 224
adding 224
concentrated 224
coordinated 224
ic@@ 224
outlook 224
puts 224
re 224
repeated 224
reversed 224
withdraw 224
23 223
asking 223
dominate 223
fresh 223
inability 223
interested 223
problematic 223
shed 223
unfair 223
beneficial 222
delay 222
fossil-fuel 222
inter@@ 222
optimistic 222
persuade 222
pricing 222
reputation 222
stated 222
-based 221
Afghan 221
De@@ 221
Scotland 221
Sub-Saharan 221
cheaper 221
disasters 221
discuss 221
existence 221
extensive 221
foundations 221
imperial 221
inefficient 221
modernization 221
Big 220
Con@@ 220
Kurds 220
Norway 220
a-@@ 220
adoption 220
announcement 220
facto 220
generous 220
importantly 220
prevented 220
release 220
tons 220
Hillary 219
Kennedy 219
Morsi 219
acute 219
closing 219
code 219
ge@@ 219
legislative 219
onto 219
ranks 219
respectively 219
ve@@ 219
1991 218
1997 218
alliances 218
begins 218
bit 218
fundamentals 218
halt 218
mortgages 218
plays 218
signal 218
upcoming 218
yen 218
Stalin 217
assuming 217
collaboration 217
electorate 217
exists 217
inflationary 217
judicial 217
looked 217
mix 217
Foundation 216
Northern 216
assess 216
cabinet 216
constructive 216
dynamics 216
formed 216
hour 216
insecurity 216
speaking 216
supports 216
te 216
visible 216
volume 216
19 215
Al@@ 215
Denmark 215
Princeton 215
arguing 215
convergence 215
details 215
lenders 215
reinforced 215
spring 215
striking 215
Authority 214
enforce 214
greenhouse-gas 214
inspired 214
mortality 214
optimism 214
pe@@ 214
retail 214
toxic 214
Hollande 213
chances 213
discussed 213
evident 213
fit 213
ings 213
sc@@ 213
vi@@ 213
alongside 212
claiming 212
crops 212
delivering 212
divisions 212
famously 212
judgment 212
murder 212
periods 212
qu@@ 212
sufficiently 212
Ch@@ 211
Ebola 211
Ukrainian 211
adjust 211
communist 211
constrained 211
enhanced 211
human-rights 211
integrity 211
lay 211
owners 211
predictable 211
shifted 211
software 211
unwilling 211
Burma 210
Center 210
Earth 210
advisers 210
anxiety 210
conclude 210
delivery 210
desperate 210
explains 210
ill 210
judges 210
male 210
pro@@ 210
realized 210
Army 209
accession 209
achievements 209
ancient 209
classes 209
flight 209
forecast 209
hence 209
ir@@ 209
joining 209
lowering 209
plus 209
propaganda 209
public-sector 209
purposes 209
relying 209
tactics 209
accelerating 208
division 208
familiar 208
informed 208
justified 208
pensions 208
steady 208
weaknesses 208
65 207
Mar@@ 207
Serbia 207
affecting 207
convince 207
destructive 207
doctrine 207
he@@ 207
nineteenth 207
ratios 207
ter@@ 207
treaties 207
unit 207
Finance 206
Islamists 206
breaking 206
peoples 206
procedures 206
richer 206
shortages 206
younger 206
An@@ 205
arise 205
attempted 205
blow 205
de-@@ 205
lived 205
machine 205
observed 205
rating 205
teachers 205
.@@ 204
Arabs 204
aspirations 204
bi@@ 204
dark 204
foremost 204
giant 204
introduce 204
ked 204
multi-@@ 204
seeing 204
x 204
8@@ 203
channels 203
considerations 203
definition 203
disastrous 203
doubts 203
embraced 203
love 203
note 203
po@@ 203
reconciliation 203
sub@@ 203
to-@@ 203
unstable 203
catastrophic 202
challenged 202
gaps 202
isn 202
prevention 202
tariff 202
wall 202
1979 201
Indians 201
circle 201
declaration 201
entering 201
exposure 201
fellow 201
intense 201
low-@@ 201
marriage 201
produces 201
res 201
securing 201
somehow 201
talking 201
Chairman 200
Road 200
accurate 200
arrangement 200
binding 200
criteria 200
distant 200
lend 200
mobilize 200
near-@@ 200
tic 200
King 199
League 199
Twitter 199
career 199
commodities 199
flawed 199
realities 199
reduces 199
reinforce 199
telling 199
Pen 198
bloc 198
components 198
devaluation 198
likelihood 198
lowest 198
ness 198
regular 198
resilient 198
route 198
tech 198
watch 198
Africans 197
F 197
accordingly 197
chosen 197
committee 197
competitors 197
differently 197
door 197
exceed 197
findings 197
friend 197
op@@ 197
regularly 197
shaped 197
solid 197
steadily 197
student 197
tends 197
upward 197
Mo@@ 196
amid 196
cooperative 196
cope 196
entry 196
ingly 196
principal 196
ps 196
shadow 196
Alliance 195
Ethiopia 195
aspects 195
bolster 195
d-@@ 195
deny 195
multinational 195
reporting 195
slowed 195
threshold 195
um 195
Law 194
Office 194
One 194
SOEs 194
Trans-Pacific 194
arguably 194
cast 194
dire 194
driver 194
enables 194
equilibrium 194
middle-class 194
providers 194
remove 194
Geneva 193
altogether 193
antibiotics 193
concessions 193
contemporary 193
dilemma 193
empire 193
farm 193
friendly 193
heat 193
ma@@ 193
receiving 193
revive 193
schemes 193
sex 193
tension 193
unilateral 193
26 192
Switzerland 192
appointed 192
command 192
deserve 192
dignity 192
element 192
feasible 192
finds 192
namely 192
ran 192
representative 192
sectarian 192
tendency 192
underpinned 192
Ahmadinejad 191
Musharraf 191
adjustments 191
au@@ 191
automation 191
bureaucracy 191
ch 191
computers 191
cooperate 191
demanded 191
eliminated 191
fine 191
fix 191
ing@@ 191
ity 191
on-@@ 191
rejection 191
typical 191
urbanization 191
9@@ 190
Irish 190
assumptions 190
denied 190
difficulty 190
discovered 190
donor 190
em@@ 190
expansionary 190
experiment 190
fe@@ 190
fought 190
founded 190
greenhouse 190
half-century 190
ineffective 190
marginal 190
refuse 190
surrounding 190
temperatures 190
B 189
DELHI 189
Front 189
Nazi 189
asylum 189
bomb 189
existential 189
genes 189
h 189
ia 189
initiated 189
introduction 189
lacking 189
newspaper 189
predecessor 189
predecessors 189
resolving 189
Khamenei 188
accounted 188
advocate 188
ages 188
charged 188
comparison 188
criticized 188
investigation 188
ists 188
laureate 188
meantime 188
owned 188
professionals 188
responding 188
serving 188
territories 188
understandable 188
1,000 187
Berlusconi 187
Somalia 187
bills 187
camp 187
desirable 187
enterprise 187
eye 187
fairly 187
hoped 187
losers 187
mutually 187
om@@ 187
pledged 187
pragmatic 187
ton 187
write 187
Nuclear 186
Peninsula 186
Summit 186
animal 186
citizen 186
concentration 186
defending 186
ex@@ 186
hospitals 186
houses 186
popularity 186
pull 186
selection 186
stakes 186
th 186
tion 186
virus 186
worrying 186
Cooperation 185
Davos 185
Mao 185
cell 185
confident 185
confronted 185
constitute 185
destabilizing 185
emphasized 185
experiences 185
high-income 185
maybe 185
nobody 185
refusal 185
significance 185
worker 185
Nixon 184
Un@@ 184
accord 184
ator 184
forests 184
judge 184
monetary-policy 184
nutrition 184
officially 184
prevailing 184
waves 184
‘ 184
Draghi 183
Rouhani 183
bargaining 183
decent 183
dynamism 183
emphasize 183
evil 183
explicit 183
hostile 183
in-@@ 183
lift 183
long-@@ 183
ren@@ 183
strongest 183
trip 183
weapon 183
Association 182
Economy 182
Romney 182
article 182
ble 182
camps 182
cycles 182
followers 182
gu@@ 182
implying 182
intention 182
investor 182
map 182
oriented 182
preferred 182
reflecting 182
relies 182
ses 182
sight 182
straightforward 182
supervision 182
Ben 181
Ex@@ 181
Fatah 181
Lehman 181
bid 181
disruption 181
exacerbated 181
explicitly 181
follows 181
genocide 181
imported 181
overseas 181
ranging 181
recognizes 181
revolutions 181
whereby 181
Hussein 180
Millennium 180
alleged 180
appreciate 180
attitude 180
earned 180
frequent 180
integrate 180
interpretation 180
involves 180
islands 180
isolated 180
ist 180
shaping 180
socially 180
street 180
train 180
tu@@ 180
unrest 180
&apos; 179
Gates 179
Industrial 179
James 179
acknowledged 179
adults 179
ance 179
character 179
customs 179
engaging 179
ens 179
fish 179
fold 179
forecasts 179
ge 179
judiciary 179
ke 179
obtain 179
occupied 179
returning 179
suicide 179
tested 179
1992 178
Austria 178
CEO 178
Crisis 178
Cyprus 178
Rwanda 178
abuses 178
checks 178
diplomats 178
employed 178
me@@ 178
mother 178
ors 178
plausible 178
r 178
transatlantic 178
wise 178
zones 178
acceptance 177
applications 177
crop 177
hear 177
man@@ 177
newspapers 177
remote 177
ru@@ 177
settle 177
stakeholders 177
town 177
trained 177
widening 177
1998 176
Brothers 176
Governor 176
NAFTA 176
Per@@ 176
absorb 176
convincing 176
desperately 176
ec@@ 176
ence 176
exploit 176
extremist 176
high-quality 176
id@@ 176
il@@ 176
origin 176
pledge 176
preparing 176
serves 176
tasks 176
tourism 176
zing 176
Richard 175
ably 175
acquire 175
bias 175
coherent 175
holdings 175
ratings 175
sheet 175
Bretton 174
Co@@ 174
ality 174
ative 174
determination 174
disruptive 174
favored 174
grave 174
honor 174
medicines 174
negotiation 174
panic 174
recorded 174
redistribution 174
trajectory 174
versus 174
wife 174
1995 173
This 173
Woods 173
ambition 173
back@@ 173
declines 173
der 173
earth 173
enhancing 173
forget 173
founding 173
gross 173
implicit 173
implied 173
minimize 173
safer 173
seize 173
skill 173
suggesting 173
under-@@ 173
winners 173
0.@@ 172
DNA 172
Koreans 172
Morocco 172
blamed 172
channel 172
complexity 172
diminished 172
doubled 172
express 172
liberals 172
livelihoods 172
margin 172
mothers 172
parallel 172
ship 172
shortage 172
site 172
suit 172
ters 172
treatments 172
unexpected 172
En@@ 171
First 171
Francis 171
Recession 171
Ronald 171
accumulation 171
allocation 171
appealing 171
cold 171
colonial 171
cyclical 171
deemed 171
disorder 171
focuses 171
happiness 171
interesting 171
median 171
ocean 171
odds 171
ph@@ 171
preferences 171
violations 171
voluntary 171
1930s 170
1950 170
20@@ 170
Be@@ 170
For 170
Le@@ 170
TV 170
administrative 170
ary 170
bought 170
check 170
creditor 170
deployed 170
dioxide 170
el 170
govern 170
governed 170
highlighted 170
ig@@ 170
images 170
innocent 170
intentions 170
lands 170
patent 170
perform 170
player 170
precedent 170
richest 170
ta@@ 170
troubled 170
waters 170
whenever 170
Day 169
Roosevelt 169
San 169
alism 169
attend 169
consideration 169
constantly 169
degrees 169
deregulation 169
looming 169
ned 169
ni@@ 169
non@@ 169
pride 169
roots 169
situations 169
temperature 169
ur@@ 169
visited 169
Education 168
Summers 168
contraction 168
cultures 168
devices 168
devoted 168
enjoyed 168
logical 168
ment 168
mood 168
post 168
post-war 168
successes 168
vicious 168
voices 168
x@@ 168
+ 167
Greenspan 167
PBOC 167
Shinzo 167
accepting 167
breakthrough 167
confirmed 167
detailed 167
drivers 167
expectancy 167
frameworks 167
functions 167
landscape 167
obstacle 167
ou@@ 167
phone 167
privacy 167
protesters 167
revival 167
stuck 167
toll 167
w 167
Conservative 166
Mario 166
Me@@ 166
School 166
aged 166
ard 166
captured 166
courage 166
describe 166
equipped 166
ethics 166
fifth 166
freely 166
headlines 166
liberty 166
named 166
outbreak 166
proof 166
protections 166
seat 166
settlements 166
ves 166
1994 165
accelerated 165
ali@@ 165
anemic 165
ars 165
classic 165
er-@@ 165
film 165
hundred 165
indicates 165
la@@ 165
neighborhood 165
per@@ 165
sake 165
sending 165
surface 165
warfare 165
Bo@@ 164
Kyoto 164
Park 164
Rome 164
c 164
capitalist 164
defeated 164
des 164
enduring 164
epidemic 164
forest 164
highlights 164
mixed 164
occurring 164
pays 164
rebuild 164
representation 164
spoke 164
tied 164
tri@@ 164
triumph 164
writing 164
1.@@ 163
Third 163
absent 163
acted 163
arrest 163
ators 163
foreseeable 163
governor 163
illiberal 163
ler 163
nets 163
polarization 163
roles 163
sphere 163
sum 163
teams 163
Initiative 162
affects 162
aggression 162
availability 162
buildings 162
can@@ 162
ci@@ 162
electric 162
expert 162
factories 162
feared 162
fraction 162
harsh 162
immense 162
ironically 162
locked 162
officers 162
pa@@ 162
permit 162
portfolio 162
tiny 162
tobacco 162
1.3 161
Mahmoud 161
alist 161
arrested 161
car@@ 161
elderly 161
fashion 161
globalized 161
infectious 161
low-cost 161
reading 161
regulated 161
sees 161
signals 161
speculation 161
stabilizing 161
tolerance 161
tomorrow 161
tsunami 161
year-old 161
bridge 160
broke 160
carrying 160
clinical 160
completed 160
distributed 160
emotional 160
entrenched 160
fairness 160
hedge 160
id 160
ignoring 160
laid 160
lawyers 160
ministry 160
quest 160
split 160
zed 160
agents 159
director 159
ecosystems 159
excessively 159
frustration 159
hot 159
landing 159
monitor 159
persist 159
psychological 159
shot 159
solely 159
temporarily 159
BJP 158
If 158
Research 158
bet 158
civilization 158
contained 158
ering 158
far-right 158
football 158
generals 158
guidance 158
hostility 158
magnitude 158
meltdown 158
pre-crisis 158
restored 158
run-up 158
storm 158
— 158
No 157
an-@@ 157
applies 157
biodiversity 157
cohesion 157
deleveraging 157
disarmament 157
draft 157
exclusively 157
medium-size 157
polio 157
privatization 157
recall 157
stems 157
traffic 157
undertake 157
vice 157
Ali 156
He@@ 156
Piketty 156
Thatcher 156
aircraft 156
angry 156
civil-society 156
collateral 156
connection 156
depending 156
distinct 156
drove 156
edge 156
endorsed 156
eventual 156
industrialization 156
legally 156
multilateralism 156
overwhelmingly 156
presumably 156
raw 156
regulate 156
requirement 156
rivals 156
sovereign-debt 156
speculative 156
unacceptable 156
undermines 156
veto 156
1945 155
Cup 155
Seoul 155
alive 155
answers 155
architecture 155
assault 155
bureaucratic 155
commentators 155
dying 155
entities 155
forever 155
hegemony 155
ies 155
illness 155
maximize 155
medium 155
method 155
negotiators 155
sa@@ 155
scenarios 155
spreading 155
storage 155
strict 155
tide 155
transmission 155
Apple 154
Ocean 154
St@@ 154
With 154
arrived 154
attacked 154
consume 154
firmly 154
lu@@ 154
occurs 154
orders 154
scarce 154
soared 154
ste@@ 154
su@@ 154
terrible 154
transforming 154
vis-à-vis 154
-led 153
16@@ 153
400 153
CCP 153
Doha 153
Lisbon 153
NPT 153
collection 153
comparative 153
deflationary 153
drawing 153
duty 153
farming 153
flaws 153
inputs 153
instrument 153
maritime 153
marks 153
meat 153
novel 153
reversal 153
shortcomings 153
starts 153
tight 153
two-@@ 153
western 153
Chicago 152
François 152
NGOs 152
On 152
Prize 152
adjusted 152
advancing 152
ample 152
attracted 152
ber@@ 152
bombing 152
chairman 152
declare 152
defining 152
demonstrations 152
engineers 152
enlargement 152
irrelevant 152
letter 152
poll 152
prisoners 152
racial 152
reconstruction 152
shortfall 152
tradable 152
vested 152
150 151
Emmanuel 151
Juncker 151
Krugman 151
anticipated 151
departure 151
earthquake 151
exacerbate 151
fishing 151
parity 151
prevailed 151
promotion 151
regain 151
replacing 151
shut 151
stemming 151
supply-side 151
virtual 151
FDI 150
God 150
Munich 150
Senator 150
ban@@ 150
behave 150
brand 150
compensate 150
connections 150
conservatives 150
contagion 150
controlling 150
deterrence 150
discontent 150
disintegration 150
dysfunctional 150
ev@@ 150
filled 150
fl@@ 150
hike 150
imbalance 150
intent 150
malaise 150
notable 150
offensive 150
pool 150
qualified 150
reckless 150
representing 150
scandal 150
soil 150
we@@ 150
100,000 149
Peru 149
Pro@@ 149
bin 149
blocked 149
consolidate 149
diminishing 149
dismissed 149
display 149
evolved 149
indispensable 149
ins 149
neighbor 149
night 149
orderly 149
ought 149
pi@@ 149
predictions 149
rebels 149
sit 149
units 149
worries 149
10@@ 148
Asia-Pacific 148
Di@@ 148
Empire 148
Oxford 148
SDR 148
Sri 148
admit 148
application 148
biology 148
choosing 148
college 148
combine 148
deepen 148
demonstrates 148
deployment 148
lately 148
notes 148
obligation 148
oversight 148
respected 148
safeguard 148
sanitation 148
shale 148
shrinking 148
spurred 148
ty 148
Czech 147
High 147
Power 147
acquired 147
benefiting 147
catch 147
closest 147
collectively 147
discovery 147
distinction 147
forgotten 147
gases 147
ical 147
ized 147
ke@@ 147
manufacturers 147
miles 147
os 147
promoted 147
proud 147
punishment 147
reinforcing 147
scholars 147
spiral 147
the@@ 147
translate 147
tremendous 147
unified 147
unpopular 147
ving 147
2025 146
AKP 146
Abenomics 146
Age 146
Green 146
O 146
Square 146
Yanukovych 146
allocated 146
balance-sheet 146
bed 146
consent 146
countless 146
delayed 146
derivatives 146
fighters 146
go@@ 146
harmful 146
ically 146
insisted 146
o-@@ 146
one-@@ 146
phones 146
reasonably 146
reforming 146
rein 146
warnings 146
Is 145
Last 145
Lee 145
accumulated 145
approaching 145
compliance 145
ecological 145
f 145
ful 145
honest 145
ker 145
liberalism 145
opposing 145
performing 145
purely 145
routine 145
socialist 145
surprised 145
tempted 145
thousand 145
uphold 145
Business 144
Chief 144
Food 144
Olympic 144
Valley 144
beliefs 144
counter-@@ 144
demise 144
deposit 144
disparities 144
downside 144
entails 144
equitable 144
gene 144
located 144
midst 144
minimal 144
normally 144
originally 144
passing 144
post-crisis 144
recovered 144
reward 144
so@@ 144
soaring 144
struggles 144
suspicion 144
sustaining 144
symptoms 144
transnational 144
unknown 144
venture 144
° 144
1993 143
19@@ 143
29 143
Finland 143
Islands 143
Saudis 143
Tony 143
US-led 143
blind 143
boundaries 143
carries 143
cu@@ 143
destroying 143
determining 143
discourse 143
dozens 143
excluded 143
fragmentation 143
hidden 143
inflation-adjusted 143
long-run 143
philosophy 143
pound 143
printing 143
profitable 143
ships 143
solving 143
stabilization 143
temptation 143
thrive 143
tribal 143
unnecessary 143
unpredictable 143
¥ 143
Catholic 142
Viktor 142
accident 142
association 142
ati@@ 142
bargain 142
censorship 142
centralized 142
gen@@ 142
grows 142
guided 142
missed 142
norm 142
operational 142
pick 142
prevail 142
prone 142
relied 142
reportedly 142
robots 142
sed 142
store 142
subsequently 142
taught 142
value-added 142
victim 142
Churchill 141
Gu@@ 141
Holocaust 141
Jong-un 141
ats 141
biological 141
bulk 141
compare 141
debt-@@ 141
degradation 141
differ 141
eat 141
end@@ 141
factory 141
guard 141
hi@@ 141
indicator 141
inherited 141
issuing 141
medium-term 141
minor 141
precise 141
recessions 141
resentment 141
reveal 141
silence 141
stagnant 141
sts 141
substitute 141
tragic 141
3.5 140
IC@@ 140
M 140
approximately 140
aspect 140
conservation 140
creativity 140
damaged 140
efficiently 140
entitled 140
free-market 140
gathering 140
genuinely 140
il 140
impede 140
knowing 140
naval 140
remarkably 140
retreat 140
stark 140
traders 140
up@@ 140
us@@ 140
Economics 139
Israeli-Palestinian 139
arsenal 139
assumes 139
ceiling 139
ched 139
facilitating 139
grievances 139
interference 139
irresponsible 139
liability 139
loyalty 139
partisan 139
ten-year 139
timing 139
undertaken 139
600 138
Brazilian 138
Cairo 138
Cambodia 138
Corporation 138
Games 138
Strategy 138
There 138
ak 138
bailouts 138
bureaucrats 138
childhood 138
comfortable 138
comprise 138
dimension 138
disruptions 138
distortions 138
embedded 138
encourages 138
engines 138
enthusiasm 138
exchanges 138
extending 138
financially 138
myriad 138
participating 138
premature 138
preserving 138
public-health 138
sports 138
techniques 138
Michael 137
X@@ 137
abandoning 137
accomplished 137
amounted 137
entrepreneurship 137
escalating 137
facility 137
fi@@ 137
formation 137
fu@@ 137
hire 137
incumbent 137
indigenous 137
intellectuals 137
overnight 137
pipeline 137
recommendations 137
removing 137
superpower 137
surveys 137
tackling 137
tor@@ 137
unclear 137
uranium 137
é 137
2008-2009 136
85 136
Charles 136
Mon@@ 136
Movement 136
Program 136
Qaddafi 136
Report 136
Roma 136
assessing 136
authors 136
automatic 136
behalf 136
boosted 136
cha@@ 136
condemned 136
covered 136
distance 136
graduates 136
identities 136
introducing 136
nationalists 136
overly 136
quarters 136
restraint 136
rises 136
ry 136
sacrifice 136
seized 136
suppliers 136
theories 136
vacuum 136
village 136
Congressional 135
Dis@@ 135
Representatives 135
Secretary-General 135
adviser 135
bloody 135
box 135
capability 135
distinguish 135
du@@ 135
et 135
excuse 135
hospital 135
justification 135
launching 135
likes 135
performed 135
piece 135
placing 135
roll 135
stations 135
tes 135
topic 135
traditions 135
upper 135
é@@ 135
1.2 134
Article 134
Gordon 134
Johnson 134
MDGs 134
Nicolas 134
Thomas 134
We@@ 134
ah 134
ak@@ 134
alarming 134
confined 134
cure 134
deadly 134
erosion 134
fragmented 134
frontier 134
ice 134
insurgency 134
kilometers 134
ordered 134
projections 134
quarter-century 134
ran@@ 134
rec@@ 134
request 134
scrutiny 134
welcomed 134
1996 133
Declaration 133
Iranians 133
Protocol 133
Vice 133
ay@@ 133
citizenship 133
cognitive 133
constitutes 133
containment 133
crude 133
decisively 133
deploy 133
discourage 133
ever-@@ 133
exceeds 133
expectation 133
heading 133
invited 133
rally 133
repeat 133
subjects 133
vary 133
watching 133
17@@ 132
Algeria 132
Joseph 132
McKinsey 132
Pact 132
What 132
bar@@ 132
calm 132
centered 132
cited 132
democratically 132
ent@@ 132
escalation 132
formally 132
holders 132
liquid 132
mining 132
misguided 132
ms 132
outflows 132
outlets 132
phrase 132
rice 132
scientist 132
sole 132
strain 132
tra@@ 132
traded 132
treating 132
automatically 131
ballot 131
champion 131
characteristics 131
com@@ 131
commission 131
diagnosis 131
distress 131
ecosystem 131
emerges 131
entail 131
exclusion 131
fake 131
frustrated 131
gi@@ 131
hikes 131
infected 131
interim 131
listen 131
makers 131
militants 131
misleading 131
neo-@@ 131
overcoming 131
ports 131
professor 131
province 131
savers 131
str@@ 131
superior 131
suspect 131
triggering 131
unusual 131
villages 131
wins 131
Consensus 130
Constitutional 130
Friedman 130
G-8 130
HAVEN 130
Lo@@ 130
adaptation 130
adequately 130
advocated 130
brink 130
ce@@ 130
climate-change 130
coastal 130
distrust 130
entity 130
error 130
exclusive 130
experiments 130
fertility 130
forge 130
high-level 130
immune 130
indebted 130
literally 130
mu@@ 130
normalization 130
premium 130
reminder 130
routinely 130
silent 130
spectrum 130
spreads 130
suffers 130
thinks 130
torture 130
unite 130
Charter 129
Christians 129
Delhi 129
Lanka 129
Singh 129
Web 129
actor 129
aggressively 129
alization 129
anti-corruption 129
basket 129
deliberately 129
depressed 129
diminish 129
feelings 129
gotten 129
haven 129
hoping 129
infections 129
izing 129
marginalized 129
migrant 129
paradigm 129
paradox 129
skeptical 129
stock-market 129
ty-@@ 129
Ghana 128
Hu 128
Kerry 128
Sanders 128
Sh@@ 128
breakdown 128
brief 128
burdens 128
cap 128
cards 128
connect 128
curb 128
deter 128
drag 128
dubious 128
exceptions 128
extension 128
favors 128
fees 128
grasp 128
gun 128
har@@ 128
high-tech 128
irrational 128
lifted 128
reflection 128
sale 128
succession 128
symbolic 128
well-being 128
window 128
Bolivia 127
Brown 127
Iraqis 127
Marine 127
Market 127
N 127
Orbán 127
Silicon 127
autocratic 127
ca@@ 127
cautious 127
disrupt 127
empowered 127
est@@ 127
evolutionary 127
exporting 127
fa@@ 127
five-year 127
foods 127
forth 127
ger 127
habits 127
hiring 127
ignorance 127
inaction 127
left-wing 127
micro@@ 127
nation-state 127
organize 127
partial 127
propose 127
records 127
reference 127
repay 127
revived 127
rewards 127
skeptics 127
statistical 127
stick 127
ya 127
WHO 126
barrel 126
benign 126
bondholders 126
budgetary 126
continental 126
covering 126
daunting 126
dozen 126
electronic 126
extends 126
freedoms 126
inequalities 126
intensity 126
keeps 126
mentioned 126
merit 126
much-needed 126
ner 126
object 126
poised 126
possibilities 126
receives 126
renewables 126
seeds 126
sugar 126
unilaterally 126
Community 125
Democracy 125
Recep 125
Sachs 125
Tayyip 125
alized 125
anti@@ 125
bearing 125
borrowed 125
burning 125
conviction 125
debtors 125
fault 125
fraud 125
grant 125
inspire 125
intensive 125
interconnected 125
ization 125
lender 125
luck 125
ning 125
ol@@ 125
reconcile 125
secured 125
shing 125
skepticism 125
solved 125
teaching 125
tenure 125
1967 124
5,000 124
Balkans 124
Bosnia 124
Director 124
Freedom 124
Maduro 124
Tibet 124
calculations 124
clash 124
comprising 124
cor@@ 124
cre@@ 124
denial 124
embracing 124
games 124
guidelines 124
horizon 124
permitted 124
port 124
pri@@ 124
proxy 124
spends 124
systematic 124
tactical 124
ten@@ 124
unequal 124
urgency 124
vibrant 124
ying 124
Bar@@ 123
CIA 123
Ma@@ 123
Qu@@ 123
Sa@@ 123
accessible 123
assert 123
bases 123
burst 123
conclusions 123
ged 123
insights 123
mon@@ 123
motivation 123
notwithstanding 123
pen@@ 123
revised 123
soccer 123
spectacular 123
tanks 123
transaction 123
unification 123
250 122
Action 122
Belgium 122
Lebanese 122
Medvedev 122
Q@@ 122
Southern 122
alter 122
central-bank 122
contains 122
diabetes 122
domestically 122
elimination 122
empower 122
evolving 122
exemplified 122
favorite 122
formidable 122
impression 122
intensified 122
neglect 122
ot 122
producer 122
reveals 122
satisfy 122
semi-@@ 122
sounds 122
tive 122
wary 122
44 121
Basel 121
Chair 121
Index 121
Special 121
Sunnis 121
Thaksin 121
clients 121
counterproductive 121
denying 121
feels 121
hate 121
ian 121
impoverished 121
incomplete 121
industrialized 121
inherent 121
ley 121
longstanding 121
miss 121
perfectly 121
physics 121
profitability 121
protracted 121
scheduled 121
stages 121
After 120
Zealand 120
academics 120
agendas 120
and-@@ 120
applying 120
attracting 120
audience 120
composition 120
connectivity 120
criminals 120
da 120
debtor 120
devise 120
east 120
ed@@ 120
enrichment 120
exceptional 120
exercises 120
highlight 120
ites 120
ize 120
lifting 120
long-standing 120
occasion 120
outsiders 120
pact 120
paralysis 120
portion 120
proponents 120
recommended 120
resistant 120
restrict 120
secretary 120
square 120
symbol 120
upgrading 120
voter 120
winner 120
worsening 120
Greeks 119
News 119
Obamacare 119
Vienna 119
already-@@ 119
arbitrary 119
assembly 119
banned 119
beat 119
contest 119
disagree 119
disturbing 119
dividends 119
empirical 119
environmentally 119
fo@@ 119
futures 119
ges 119
grants 119
hatred 119
influenced 119
ir 119
iting 119
names 119
nineteenth-century 119
perceptions 119
repair 119
repeal 119
rules-based 119
separation 119
worsen 119
1960s 118
Affairs 118
Ban 118
Puerto 118
Uganda 118
Xiaoping 118
Zimbabwe 118
abundant 118
advertising 118
aren 118
autonomous 118
blocking 118
buyers 118
center-left 118
coast 118
concerted 118
dec@@ 118
demonstrating 118
dictator 118
episode 118
fac@@ 118
factions 118
formula 118
grip 118
hide 118
imagined 118
indicated 118
indication 118
induced 118
la 118
lacked 118
min@@ 118
morality 118
opponent 118
personnel 118
postwar 118
pu@@ 118
pundits 118
radically 118
refusing 118
two-state 118
understands 118
15@@ 117
55 117
800 117
95 117
Future 117
Henry 117
Ministry 117
Pope 117
admitted 117
appetite 117
averaged 117
che@@ 117
complacency 117
continuous 117
dangerously 117
defaults 117
disappointing 117
discredited 117
disputed 117
documented 117
ening 117
enlightened 117
examine 117
freeze 117
generates 117
handful 117
heightened 117
items 117
journalist 117
keen 117
luxury 117
maintains 117
militias 117
nomination 117
profession 117
psychology 117
rationale 117
recipe 117
removal 117
resisted 117
respective 117
sheer 117
sitting 117
tells 117
tors 117
tougher 117
v 117
13@@ 116
36 116
Amazon 116
IPCC 116
Kazakhstan 116
Round 116
Yeltsin 116
alizing 116
arm 116
array 116
attributed 116
certainty 116
ching 116
clout 116
collect 116
considers 116
disappear 116
errors 116
flowing 116
fostering 116
impunity 116
ite 116
linking 116
narratives 116
offshore 116
permanently 116
philosopher 116
pretty 116
proceed 116
suppose 116
teach 116
three-@@ 116
wherever 116
0.5 115
1.4 115
1.6 115
32 115
Go@@ 115
L 115
Labor 115
Microsoft 115
Panel 115
activist 115
allegedly 115
ants 115
avert 115
beings 115
bipartisan 115
counterpart 115
dly 115
drought 115
fired 115
gra@@ 115
indirect 115
location 115
maternal 115
monthly 115
neutral 115
notice 115
pivot 115
provinces 115
pure 115
subsidy 115
trapped 115
vulnerabilities 115
31 114
34 114
5-@@ 114
Dodd-Frank 114
Mark 114
PiS 114
Stanford 114
Swedish 114
Venezuelan 114
Year 114
addresses 114
af@@ 114
ang 114
benchmark 114
center-right 114
coalitions 114
deliberate 114
disproportionate 114
enforced 114
exploited 114
imminent 114
inter-@@ 114
lifetime 114
market-based 114
ob@@ 114
probability 114
rage 114
rejecting 114
replacement 114
self-interest 114
settled 114
tor 114
vastly 114
wa@@ 114
1982 113
Abu 113
Haiti 113
Li 113
Premier 113
Swiss 113
System 113
TTIP 113
annexation 113
booming 113
combating 113
containing 113
depth 113
deserves 113
disappeared 113
disproportionately 113
doubling 113
fied 113
gather 113
giants 113
historian 113
insight 113
invented 113
journalism 113
mar@@ 113
mindset 113
overthrow 113
ped 113
peripheral 113
practically 113
quiet 113
readily 113
reluctance 113
rigid 113
sadly 113
sing 113
strange 113
tangible 113
technocratic 113
2019 112
Leader 112
abortion 112
az@@ 112
bombs 112
centrist 112
construct 112
exploitation 112
fires 112
first-@@ 112
fluctuations 112
fronts 112
government-@@ 112
historians 112
illusion 112
intensify 112
massacre 112
outrage 112
pervasive 112
punish 112
towns 112
trusted 112
unintended 112
violation 112
-- 111
33 111
Arafat 111
Goldman 111
Har@@ 111
Infrastructure 111
Moon 111
Ne@@ 111
No@@ 111
Yugoslavia 111
accomplish 111
adult 111
bra@@ 111
breaks 111
bust 111
coordinate 111
deterioration 111
drives 111
droughts 111
earning 111
euros 111
grim 111
identifying 111
invariably 111
loose 111
ments 111
militarily 111
mired 111
possess 111
processing 111
referred 111
remittances 111
stalled 111
successive 111
survived 111
then-@@ 111
underestimated 111
witnessed 111
AMR 110
Ber@@ 110
Chirac 110
Church 110
Gandhi 110
Marshall 110
Maynard 110
Sharon 110
Smith 110
WWII 110
appeals 110
arrive 110
authoritarianism 110
ber 110
caution 110
ches 110
crowd 110
deteriorating 110
doors 110
dy 110
empty 110
endless 110
equ@@ 110
erode 110
expects 110
explosion 110
flood 110
floods 110
ish 110
margins 110
marketing 110
mess 110
music 110
neglected 110
non-state 110
optimal 110
prompted 110
quotas 110
rampant 110
rests 110
slogan 110
speeches 110
staggering 110
sting 110
studied 110
tics 110
trans@@ 110
urge 110
vague 110
2,000 109
37 109
Arctic 109
Australian 109
Franklin 109
Nazis 109
Pe@@ 109
Red 109
Review 109
ads 109
appearance 109
ari@@ 109
bar 109
believing 109
bio@@ 109
bitter 109
breakthroughs 109
chair 109
civic 109
commonly 109
coupled 109
diversification 109
durable 109
facilitated 109
ging 109
healthier 109
helpful 109
iling 109
immunization 109
ines 109
interaction 109
limitations 109
malnutrition 109
pillar 109
preference 109
reasoning 109
restricting 109
reversing 109
shrink 109
suited 109
sweeping 109
trafficking 109
vehicle 109
wasted 109
zero-sum 109
BoE 108
CEOs 108
Forces 108
Protection 108
Sha@@ 108
align 108
arises 108
bail 108
card 108
democratization 108
disagreements 108
enact 108
enti@@ 108
episodes 108
equities 108
essence 108
financial-market 108
geography 108
handle 108
infection 108
insisting 108
iz@@ 108
letting 108
memories 108
outstanding 108
potent 108
prudent 108
restricted 108
tax-@@ 108
troubling 108
1973 107
Cha@@ 107
Istanbul 107
Romania 107
atory 107
author 107
cost-effective 107
declaring 107
dedicated 107
deputy 107
duties 107
eradication 107
founder 107
height 107
hungry 107
municipal 107
obesity 107
rethink 107
smooth 107
tr@@ 107
­ 107
10,000 106
48 106
Care 106
Cuban 106
Deal 106
ack 106
adhere 106
baby 106
balancing 106
complaints 106
corner 106
cumulative 106
decrease 106
everybody 106
ideals 106
interdependence 106
missions 106
mistrust 106
overlooked 106
packages 106
pl@@ 106
preventive 106
privileged 106
proposing 106
react 106
reactions 106
reviving 106
scene 106
schooling 106
selected 106
signing 106
sky 106
ss@@ 106
sto@@ 106
tan@@ 106
tolerate 106
ultra-@@ 106
um@@ 106
undergoing 106
zation 106
1914 105
AIIB 105
Asians 105
Athens 105
Government 105
Mali 105
Rico 105
Rio 105
accurately 105
all@@ 105
assessments 105
attacking 105
boards 105
borne 105
bridges 105
category 105
counter@@ 105
credits 105
document 105
emphasizes 105
implication 105
inc@@ 105
incapable 105
judged 105
maximum 105
miracle 105
nuclear-armed 105
parliaments 105
pillars 105
ping 105
pointing 105
prevents 105
proposes 105
ranking 105
ratified 105
reap 105
safeguards 105
satellite 105
sick 105
signaled 105
struggled 105
tended 105
transitions 105
underground 105
ver@@ 105
walk 105
winter 105
Bannon 104
Belt 104
Gazprom 104
Martin 104
Par@@ 104
Reform 104
Royal 104
Science 104
Tri@@ 104
Yellen 104
al-Qaeda 104
beneficiaries 104
cliff 104
daughter 104
deciding 104
dependency 104
dissent 104
eroded 104
interpreted 104
iron 104
lasted 104
ostensibly 104
respects 104
sluggish 104
spoken 104
star 104
thin 104
tighter 104
trillions 104
uncertainties 104
underpin 104
utterly 104
vaccination 104
valid 104
withstand 104
witness 104
wouldn 104
42 103
47 103
700 103
Annan 103
Hindu 103
Hungarian 103
Poles 103
Su@@ 103
Wen 103
air@@ 103
ani 103
clarity 103
compromises 103
conversation 103
counts 103
cynical 103
defensive 103
der@@ 103
dictators 103
disagreement 103
documents 103
employ 103
emulate 103
feet 103
flat 103
grid 103
higher-@@ 103
humiliation 103
induce 103
inherently 103
interactions 103
irony 103
literacy 103
lobbying 103
manufactured 103
necessity 103
ns 103
origins 103
proclaimed 103
public-private 103
risk-taking 103
segments 103
stores 103
ta 103
tation 103
traction 103
unleashed 103
urged 103
wi@@ 103
wild 103
worthy 103
14@@ 102
38 102
Alan 102
Celsius 102
Ecuador 102
Egyptians 102
Italians 102
Laden 102
Olympics 102
Second 102
activism 102
administrations 102
appointment 102
atrocities 102
bears 102
breakup 102
careers 102
confirm 102
despair 102
destination 102
dismiss 102
ents 102
evolve 102
farms 102
heed 102
ing-@@ 102
ist@@ 102
lethal 102
maintenance 102
mandatory 102
offices 102
panel 102
penalty 102
plight 102
plummeted 102
positioned 102
prize 102
ranked 102
regards 102
revelations 102
sha@@ 102
socialism 102
strategically 102
super@@ 102
technocrats 102
working-age 102
1.7 101
1.8 101
Abdullah 101
Baghdad 101
Euro@@ 101
Gorbachev 101
Li@@ 101
Socialist 101
ana 101
assured 101
bli@@ 101
booms 101
contact 101
contentious 101
debt-to-GDP 101
desired 101
down@@ 101
elect 101
emotions 101
ently 101
half-@@ 101
intensifying 101
internally 101
jurisdiction 101
masses 101
patents 101
pockets 101
profile 101
publication 101
quantity 101
reaches 101
resolutions 101
twenty-first-century 101
understandably 101
video 101
wasn 101
... 100
0@@ 100
At 100
Au@@ 100
Baltic 100
III 100
IP 100
Mal@@ 100
Mikhail 100
Mu@@ 100
Project 100
accommodate 100
ambassador 100
backdrop 100
celebrate 100
circles 100
committing 100
cra@@ 100
decentralized 100
destabilize 100
est 100
exceeded 100
feedback 100
ideally 100
ina 100
integral 100
land@@ 100
mainland 100
ministries 100
motion 100
ong 100
radio 100
scarcity 100
sentiments 100
slump 100
spot 100
station 100
strengths 100
suspected 100
43 99
Brexiteers 99
G 99
Lula 99
Mandela 99
Mohamed 99
Roman 99
US-China 99
accusations 99
advocating 99
aligned 99
ballistic 99
behavioral 99
bleak 99
ceasefire 99
collected 99
concentrate 99
conditional 99
courses 99
deforestation 99
examined 99
excellent 99
excesses 99
export-led 99
expose 99
fed 99
forming 99
fruit 99
journey 99
marine 99
native 99
rebel 99
responsive 99
reunification 99
revolt 99
ring 99
rivers 99
sal@@ 99
salaries 99
somewhere 99
sport 99
statehood 99
stepped 99
sums 99
suppress 99
swing 99
text 99
ver 99
For@@ 98
Jo@@ 98
Representative 98
River 98
acy 98
agent 98
assassination 98
cement 98
clearer 98
crackdown 98
distressed 98
drone 98
fulfilling 98
indefinitely 98
initiate 98
intelligent 98
interact 98
judging 98
labor-intensive 98
lowered 98
market-oriented 98
master 98
minutes 98
morally 98
ners 98
oceans 98
opinions 98
page 98
pping 98
reminded 98
safely 98
shi@@ 98
stalemate 98
state-@@ 98
universe 98
ved 98
ys 98
1-@@ 97
2,@@ 97
39 97
Budget 97
Chen 97
Kuwait 97
Liberal 97
Manuel 97
NCDs 97
Next 97
OPEC 97
Ottoman 97
Sch@@ 97
Women 97
ang@@ 97
anyway 97
besides 97
casualties 97
comfort 97
compact 97
compounded 97
contributes 97
controversy 97
describes 97
endured 97
ery 97
existed 97
explanations 97
exploiting 97
forum 97
incremental 97
low- 97
mitigation 97
mobilized 97
modified 97
motives 97
que 97
ra 97
rail 97
relentless 97
sion 97
smoking 97
stream 97
systematically 97
therapy 97
tighten 97
unresolved 97
3,000 96
Boston 96
Gi@@ 96
Scottish 96
Sinai 96
anticipate 96
appreciated 96
assist 96
attraction 96
av@@ 96
bri@@ 96
comments 96
communicate 96
criticize 96
dealt 96
empowerment 96
ensures 96
entrepreneurial 96
exaggerated 96
exhausted 96
finished 96
firing 96
fled 96
forefront 96
ga@@ 96
gathered 96
guilty 96
injustice 96
ll 96
march 96
measuring 96
plagued 96
preceded 96
provoke 96
rebuilding 96
retaliation 96
row 96
sciences 96
sm@@ 96
stressed 96
sur@@ 96
technically 96
throw 96
tone 96
trees 96
west 96
wing 96
Canadian 95
Cor@@ 95
G-7 95
Jacques 95
Ko@@ 95
Leave 95
McCain 95
Mer@@ 95
Narendra 95
Silk 95
Texas 95
Warsaw 95
accumulate 95
agreeing 95
akin 95
boys 95
bro@@ 95
consumed 95
counting 95
da@@ 95
dividend 95
drinking 95
fatal 95
fication 95
fre@@ 95
genetically 95
genome 95
imperfect 95
indirectly 95
leveraged 95
ls 95
maneuver 95
mitigating 95
nightmare 95
ong@@ 95
orthodoxy 95
ot@@ 95
presents 95
ss 95
stone 95
substance 95
theoretical 95
tically 95
uc@@ 95
unlimited 95
ure 95
violate 95
violated 95
0.7 94
1,@@ 94
Ban@@ 94
Bay 94
Binyamin 94
Civil 94
Darfur 94
Hugo 94
Jean-Claude 94
Medicare 94
Mumbai 94
Po@@ 94
Syrians 94
clinics 94
conscious 94
correction 94
crisis-@@ 94
democrats 94
designing 94
districts 94
handed 94
insistence 94
liberties 94
listed 94
militant 94
mine 94
peacefully 94
print 94
realizing 94
recipients 94
reformers 94
regulating 94
residential 94
restoration 94
rivalry 94
scores 94
silver 94
stopping 94
sub-@@ 94
sun 94
surrounded 94
three-quarters 94
tly 94
touch 94
web 94
zes 94
6.5 93
8-@@ 93
Ad@@ 93
Ayatollah 93
Maastricht 93
Peter 93
Revolutionary 93
affair 93
alize 93
allegations 93
assertive 93
broad-based 93
calculated 93
compelled 93
comprises 93
concepts 93
den@@ 93
denuclearization 93
ders 93
displacement 93
disposal 93
drama 93
environments 93
exceeding 93
ff 93
floor 93
forecasting 93
freer 93
hardline 93
hosted 93
insists 93
lest 93
linkages 93
lower-@@ 93
mor@@ 93
occasionally 93
or-@@ 93
persists 93
personality 93
portfolios 93
postpone 93
profoundly 93
proposition 93
recipient 93
rush 93
satisfied 93
spurring 93
st-@@ 93
stimulating 93
suspended 93
tie 93
tries 93
tro@@ 93
viewing 93
war@@ 93
warm 93
120 92
2.3 92
7.5 92
Bitcoin 92
Caribbean 92
Exchange 92
Florida 92
Milan 92
Nepal 92
Oslo 92
axis 92
battles 92
capital-account 92
club 92
commerce 92
compatible 92
doctor 92
evasion 92
geographic 92
gr@@ 92
herself 92
indifference 92
l-@@ 92
much-@@ 92
non-proliferation 92
obsolete 92
organizing 92
outset 92
overhaul 92
owe 92
paradoxically 92
pledges 92
pressed 92
procurement 92
quasi-@@ 92
reacted 92
rebound 92
relevance 92
remembered 92
ride 92
rounds 92
scandals 92
season 92
shareholder 92
storms 92
swept 92
timely 92
troubles 92
turnout 92
2.4 91
Ab@@ 91
BOJ 91
Bundesbank 91
Marx 91
Public 91
Ukrainians 91
anxious 91
approve 91
ation-@@ 91
att@@ 91
beautiful 91
branch 91
complementary 91
conf@@ 91
dimensions 91
discussing 91
distorted 91
evaluate 91
executed 91
execution 91
fallout 91
fortune 91
han@@ 91
insolvency 91
kers 91
laying 91
mega-@@ 91
obliged 91
organizational 91
passage 91
personally 91
preventable 91
public-@@ 91
re-election 91
registered 91
remind 91
sen@@ 91
sentence 91
shouldn 91
steep 91
strictly 91
structured 91
suspicious 91
tap 91
telecommunications 91
theme 91
ther 91
totally 91
unrealistic 91
writer 91
&apos;t 90
1.1 90
1981 90
Administration 90
Agenda 90
Bo 90
El 90
Fukushima 90
G7 90
Renzi 90
Tea 90
Tel 90
absolutely 90
absurd 90
achievable 90
adversaries 90
anytime 90
attended 90
aw@@ 90
belong 90
blueprint 90
businessmen 90
competent 90
confusion 90
constructed 90
dered 90
distribute 90
elusive 90
emphasizing 90
energy-@@ 90
enormously 90
evidently 90
footing 90
golden 90
ignores 90
illnesses 90
imagination 90
inspiration 90
instance 90
intervening 90
k-@@ 90
ka 90
leftist 90
patience 90
perpetrators 90
prediction 90
privilege 90
quietly 90
reformed 90
respondents 90
select 90
speaks 90
specter 90
summits 90
surpassed 90
troika 90
1971 89
Boris 89
Car@@ 89
Costa 89
Liberia 89
Liu 89
Muammar 89
accustomed 89
ade 89
alarm 89
allocate 89
broaden 89
compel 89
constrain 89
corporate-tax 89
cur@@ 89
disregard 89
dreams 89
dry 89
exp@@ 89
explaining 89
exporter 89
forthcoming 89
gay 89
hand@@ 89
ills 89
impending 89
innovate 89
interview 89
irreversible 89
mistaken 89
oligarchs 89
organisms 89
outsize 89
pan@@ 89
pessimism 89
powered 89
privately 89
provincial 89
revealing 89
smo@@ 89
sub-prime 89
subsidized 89
super-@@ 89
unleash 89
wishes 89
2.7 88
50,000 88
Calderón 88
Eurobonds 88
Gaulle 88
Libyan 88
Margaret 88
Theresa 88
aluminum 88
anchor 88
appoint 88
arrival 88
bankrupt 88
br@@ 88
breast 88
collapsing 88
conducting 88
conspiracy 88
constraint 88
cross 88
description 88
destiny 88
detect 88
dictatorships 88
doomed 88
drew 88
exclude 88
gasoline 88
handled 88
helicopter 88
iled 88
incidents 88
iness 88
integrating 88
legislators 88
maturity 88
movie 88
multi@@ 88
myth 88
navigate 88
nearby 88
od@@ 88
oned 88
second-@@ 88
second-largest 88
talented 88
thriving 88
unthinkable 88
watched 88
withdrawing 88
working-class 88
worrisome 88
yielding 88
� 88
2000s 87
Bi@@ 87
Caucasus 87
F. 87
FARC 87
MIT 87
Sharif 87
Syriza 87
Zhou 87
affluent 87
categories 87
channeled 87
conflicting 87
consecutive 87
correctly 87
counted 87
deb@@ 87
debated 87
def@@ 87
deploying 87
devote 87
dismal 87
distributional 87
eradicate 87
excluding 87
exile 87
fragility 87
gravity 87
guiding 87
husband 87
immigrant 87
impeding 87
incurred 87
ited 87
judgments 87
killings 87
lesser 87
mobilizing 87
no-@@ 87
perspectives 87
persuaded 87
posts 87
refrain 87
renewal 87
repayment 87
res@@ 87
resigned 87
rigorous 87
strains 87
subsidiaries 87
succeeds 87
tion-@@ 87
title 87
tuberculosis 87
undercut 87
wh@@ 87
-to-@@ 86
2.6 86
Bahrain 86
DPJ 86
Five 86
Politics 86
asylum-seekers 86
bright 86
bur@@ 86
competence 86
consequential 86
consists 86
defenders 86
dirty 86
fin@@ 86
fundamentalism 86
greed 86
havoc 86
hostage 86
inward 86
kes 86
lag 86
lucky 86
manipulate 86
mat@@ 86
once-@@ 86
operates 86
organic 86
outdated 86
peacekeeping 86
picked 86
picking 86
predominantly 86
rapprochement 86
realism 86
rents 86
seas 86
sho@@ 86
sions 86
sis 86
socioeconomic 86
speculators 86
swap 86
systemically 86
taxed 86
thinkers 86
tion@@ 86
uni@@ 86
virtue 86
visits 86
4.5 85
Capital 85
Hosni 85
IT 85
Macri 85
Moldova 85
Non-Proliferation 85
Tsipras 85
Volcker 85
alists 85
avoidance 85
bl@@ 85
conceived 85
crucially 85
delegation 85
den 85
denounced 85
developing-country 85
efficacy 85
ency 85
exacerbating 85
ff@@ 85
fleeing 85
flooding 85
hardest 85
hearing 85
hearts 85
her@@ 85
ils 85
ma 85
mismanagement 85
narrowly 85
objections 85
onset 85
overhang 85
radicals 85
readers 85
retired 85
river 85
shame 85
shocking 85
social-welfare 85
studying 85
stunning 85
supportive 85
symptom 85
uprising 85
ur 85
withdrawn 85
1986 84
20,000 84
67 84
Belarus 84
GM 84
Guantánamo 84
Im@@ 84
Mechanism 84
Not 84
Pi@@ 84
Pre@@ 84
Reinhart 84
Since 84
Th@@ 84
Time 84
adds 84
alcohol 84
capitalize 84
ces 84
combining 84
crossing 84
detail 84
directors 84
drops 84
engineer 84
enrollment 84
explore 84
foot 84
full-time 84
fying 84
hero 84
labor-force 84
lic@@ 84
loyal 84
moderates 84
modernize 84
near-zero 84
nurture 84
outlays 84
promotes 84
racism 84
reassuring 84
signatories 84
thrown 84
valued 84
vo@@ 84
well-known 84
# 83
College 83
Markets 83
Political 83
ach@@ 83
ades 83
ann@@ 83
anti-Semitism 83
ass@@ 83
ast 83
brave 83
calculation 83
capacities 83
capitals 83
customer 83
defenses 83
diagnostic 83
dictate 83
disappointment 83
discount 83
drain 83
endemic 83
eve 83
exceptionally 83
globe 83
hardship 83
hazard 83
ill-@@ 83
inauguration 83
inclined 83
intervened 83
loses 83
materialize 83
merits 83
nominee 83
obtained 83
owed 83
owner 83
populated 83
postponed 83
proceeds 83
pronounced 83
pulled 83
repressive 83
resume 83
shes 83
slavery 83
spike 83
standoff 83
surging 83
susceptible 83
switch 83
synthetic 83
taxing 83
unavoidable 83
undertaking 83
upheaval 83
witnessing 83
Area 82
Banking 82
Christmas 82
Com@@ 82
KONG 82
Khrushchev 82
Our 82
Se@@ 82
Turks 82
U 82
adapted 82
admittedly 82
all-@@ 82
asserted 82
associations 82
auto 82
bles 82
broadband 82
brother 82
derived 82
detention 82
discover 82
diversified 82
dose 82
emission 82
extremes 82
fixing 82
groundwork 82
headwinds 82
impasse 82
inconsistent 82
ingredients 82
investigations 82
majorities 82
markedly 82
non-governmental 82
nuclear-@@ 82
odd 82
oldest 82
owes 82
pipelines 82
plot 82
post-World 82
praise 82
prestige 82
proving 82
questioning 82
rap@@ 82
realization 82
reinforces 82
repercussions 82
resemble 82
restructure 82
sons 82
tendencies 82
twin 82
underestimate 82
underpinning 82
undervalued 82
vowed 82
workplace 82
1933 81
1987 81
AR@@ 81
D. 81
Hu@@ 81
Monti 81
Rogoff 81
SMEs 81
Society 81
Tiananmen 81
Two 81
Uber 81
You 81
announce 81
asi@@ 81
awarded 81
ay 81
busy 81
capital-@@ 81
comply 81
confused 81
contradictory 81
correlation 81
cosmopolitan 81
deficiencies 81
divergence 81
divorce 81
empowering 81
enthusiastic 81
explosive 81
fits 81
geographical 81
headquarters 81
homeowners 81
ics 81
inhabitants 81
ire 81
jail 81
machinery 81
maximizing 81
mer@@ 81
meters 81
monopolies 81
off-@@ 81
perceive 81
pluralism 81
pragmatism 81
prevails 81
priced 81
proximity 81
rated 81
reactors 81
rebellion 81
reconsider 81
refuses 81
rolling 81
specialized 81
substantive 81
sympathy 81
triple 81
tur@@ 81
turbulence 81
ud@@ 81
ugly 81
underscores 81
unfortunate 81
unwillingness 81
verge 81
visiting 81
woes 81
would-be 81
ws 81
30,000 80
Against 80
End 80
Euro 80
Independence 80
Kissinger 80
Service 80
Tax 80
W 80
accidents 80
admission 80
afraid 80
analytical 80
anti-immigrant 80
asset-price 80
ball 80
barrier 80
bonuses 80
complained 80
consultation 80
critically 80
defended 80
depended 80
deprived 80
drones 80
ed-@@ 80
educate 80
eligible 80
embodied 80
enshrined 80
ger@@ 80
growth-@@ 80
guess 80
highlighting 80
imp@@ 80
improves 80
influx 80
insolvent 80
intellectual-property 80
interpret 80
invaded 80
lin@@ 80
locations 80
manageable 80
misery 80
moderation 80
of-@@ 80
one-quarter 80
opted 80
outsourcing 80
passive 80
persecution 80
pessimistic 80
posing 80
questionable 80
radiation 80
rank 80
rebalance 80
rendered 80
rou@@ 80
score 80
ser@@ 80
simplistic 80
staying 80
subjected 80
superiority 80
surrender 80
talents 80
theirs 80
transferred 80
varying 80
walls 80
warn 80
work@@ 80
130 79
2.2 79
3.2 79
57 79
63 79
All 79
Corbyn 79
Dubai 79
ICT 79
Ju@@ 79
Right 79
apartheid 79
artificially 79
boon 79
bs 79
clause 79
color 79
commentary 79
constituencies 79
contradiction 79
decreased 79
dge 79
diffusion 79
dubbed 79
el-Qaddafi 79
embassy 79
enjoying 79
ensuing 79
everyday 79
financial-@@ 79
flourish 79
functional 79
gar@@ 79
guns 79
hub 79
identical 79
innovators 79
irrigation 79
jeopardize 79
ju@@ 79
jurisdictions 79
ming 79
needless 79
orientation 79
pages 79
permits 79
precious 79
proves 79
provoked 79
quantities 79
remedy 79
risking 79
social-@@ 79
ster 79
transformative 79
yo@@ 79
-and-@@ 78
Britons 78
Economist 78
Force 78
Francisco 78
Frankfurt 78
Liberation 78
Mohammed 78
Osama 78
Rousseff 78
To@@ 78
accommodation 78
analogy 78
aversion 78
cite 78
classified 78
cleaner 78
conferences 78
crunch 78
curve 78
device 78
disadvantage 78
distinguished 78
diversify 78
dri@@ 78
duration 78
els 78
ement 78
enjoys 78
feat 78
frequency 78
gh@@ 78
gy 78
hitting 78
illicit 78
imposes 78
imposition 78
incident 78
indicating 78
lagging 78
leveraging 78
mature 78
officer 78
opt 78
peninsula 78
perverse 78
qualify 78
render 78
riots 78
satisfaction 78
shore 78
skin 78
spillover 78
star@@ 78
tim@@ 78
traits 78
twentieth-century 78
unchanged 78
unhappy 78
upside 78
ve-@@ 78
,000-@@ 77
2.8 77
41 77
53 77
Ac@@ 77
Austrian 77
CDU 77
Castro 77
Conservatives 77
Framework 77
GNP 77
Now 77
Oil 77
Sal@@ 77
Tanzania 77
Thai 77
Wilson 77
administered 77
advanced-country 77
ah@@ 77
amendment 77
automobile 77
catalyst 77
complement 77
dam 77
demonstration 77
demonstrators 77
disadvantaged 77
double-digit 77
embargo 77
fierce 77
flee 77
governors 77
hegemonic 77
hom@@ 77
ill@@ 77
incompatible 77
literature 77
locally 77
mal@@ 77
manages 77
market-@@ 77
messages 77
minded 77
morning 77
mount 77
nation-states 77
notorious 77
obsession 77
occupy 77
oppression 77
ore 77
paralyzed 77
parent 77
payroll 77
penalties 77
persistently 77
prescription 77
professors 77
pulling 77
ratify 77
reactor 77
recommend 77
ruler 77
societal 77
steam 77
stra@@ 77
trauma 77
unsurprisingly 77
upholding 77
ut@@ 77
writers 77
62 76
Adam 76
Argentine 76
Black 76
Do@@ 76
EU-@@ 76
FSB 76
Ho@@ 76
Iceland 76
Old 76
SPD 76
Stiglitz 76
alleviate 76
anti-establishment 76
apparatus 76
bacteria 76
beating 76
burned 76
celebrated 76
civilized 76
classical 76
coercion 76
complain 76
computing 76
consuming 76
convenient 76
convention 76
craft 76
deepened 76
defines 76
discoveries 76
dismantling 76
disposable 76
entertainment 76
ep@@ 76
fantasy 76
fastest 76
flag 76
floating 76
heroic 76
illustrates 76
incoming 76
incompetence 76
inflicted 76
ko 76
languages 76
lower-income 76
med 76
metrics 76
mi@@ 76
newcomers 76
ology 76
ours 76
plunged 76
post@@ 76
preoccupied 76
prevalence 76
primacy 76
privileges 76
proceedings 76
prohibition 76
purchased 76
racist 76
reformist 76
reproductive 76
republic 76
resignation 76
short-lived 76
specialists 76
sti@@ 76
stringent 76
swaps 76
tical 76
transitional 76
treasury 76
£ 76
-year 75
1.9 75
1968 75
6-@@ 75
AfD 75
How 75
Intergovernmental 75
Resolution 75
Rica 75
Transatlantic 75
advised 75
airports 75
ale 75
analyses 75
bal@@ 75
banker 75
bas@@ 75
bets 75
buffer 75
carbon-@@ 75
compromised 75
condemn 75
crossed 75
discouraging 75
enriched 75
extraction 75
extraordinarily 75
fearing 75
flying 75
harassment 75
ile 75
im 75
inner 75
installed 75
insurgents 75
intends 75
intractable 75
invisible 75
ky 75
lags 75
lists 75
ly@@ 75
married 75
mayor 75
meets 75
murdered 75
outbreaks 75
pilot 75
portrayed 75
possession 75
predicting 75
proactive 75
prosecutors 75
siege 75
sparked 75
sponsored 75
symbols 75
tactic 75
tropical 75
underpins 75
varieties 75
volumes 75
wisely 75
1962 74
49 74
Comprehensive 74
Debt 74
FBI 74
Gülen 74
Her@@ 74
Kar@@ 74
Leone 74
Northeast 74
President-elect 74
Ra@@ 74
algorithms 74
and@@ 74
ath 74
autocrats 74
beneath 74
burdened 74
champions 74
colleague 74
continuity 74
corresponding 74
decides 74
delicate 74
depressing 74
discretionary 74
domination 74
employee 74
exploration 74
exploring 74
exported 74
financial-sector 74
fore@@ 74
fulfilled 74
fusion 74
graduate 74
hard-@@ 74
headline 74
heating 74
hugely 74
ili@@ 74
imperatives 74
imprisonment 74
jihadist 74
liberation 74
mer 74
metaphor 74
multiplier 74
obscure 74
occasions 74
opaque 74
ory 74
outweigh 74
peers 74
prohibited 74
questioned 74
realm 74
recovering 74
resign 74
settings 74
shortly 74
single-@@ 74
surged 74
swings 74
th-@@ 74
transit 74
translated 74
uncomfortable 74
unskilled 74
weigh 74
worldview 74
2.1 73
46 73
54 73
64 73
Alexander 73
Americas 73
Bhutto 73
Bu@@ 73
Dream 73
El@@ 73
Franco-German 73
Hollywood 73
MPs 73
Man@@ 73
Mor@@ 73
Persian 73
Post 73
Pradesh 73
SDG 73
Schäuble 73
Sierra 73
Star 73
Stockholm 73
Warren 73
Winston 73
abrupt 73
acknowledging 73
adjusting 73
advocacy 73
amounting 73
announcing 73
armies 73
ast@@ 73
bizarre 73
boats 73
boy 73
chemicals 73
chess 73
clashes 73
climate-@@ 73
crowded 73
crowds 73
cyberspace 73
decision-makers 73
describing 73
diaspora 73
disappointed 73
disclosure 73
disorders 73
disrupted 73
eli@@ 73
ented 73
fertile 73
fever 73
forging 73
fundamentalist 73
fundamentalists 73
glut 73
grassroots 73
gs 73
havens 73
hole 73
hopeful 73
hosting 73
imprisoned 73
infant 73
jihadists 73
jo@@ 73
lows 73
matched 73
monarchy 73
one-fifth 73
optimists 73
papers 73
par 73
paths 73
precautionary 73
pro-European 73
procedure 73
publish 73
qualities 73
refer 73
rel@@ 73
reminiscent 73
resembles 73
sad 73
senators 73
shocked 73
sizeable 73
sk@@ 73
sm 73
sted 73
stretch 73
submitted 73
transmitted 73
tw@@ 73
unbalanced 73
violating 73
ward 73
wealthiest 73
0.1 72
3.3 72
3.6 72
99 72
Affordable 72
EMU 72
Executive 72
Guard 72
Milton 72
acceleration 72
atively 72
automated 72
balance-of-payments 72
barring 72
blaming 72
branches 72
broker 72
chooses 72
clever 72
consequently 72
constituency 72
convert 72
curtail 72
deterrent 72
diet 72
divisive 72
eating 72
elevated 72
engineered 72
examination 72
formerly 72
fortunes 72
frozen 72
gamble 72
grade 72
gridlock 72
hosts 72
ier 72
independently 72
inspiring 72
listening 72
mantra 72
meddling 72
nervous 72
occupations 72
operated 72
overcapacity 72
participated 72
particles 72
pieces 72
portray 72
punished 72
remedies 72
reporters 72
retains 72
shopping 72
slaughter 72
smarter 72
still-@@ 72
strengthens 72
stricter 72
talked 72
tank 72
trades 72
8,000 71
Fo@@ 71
Fourth 71
Jazeera 71
KGB 71
Los 71
Management 71
Min@@ 71
Mueller 71
Silvio 71
Te@@ 71
V 71
accumulating 71
advent 71
asserting 71
ate-@@ 71
blessing 71
brothers 71
campaigning 71
contempt 71
cool 71
cryptocurrencies 71
cushion 71
depositors 71
developers 71
disorderly 71
domain 71
doses 71
endure 71
epidemics 71
fascist 71
foolish 71
forged 71
heated 71
importing 71
inform 71
invention 71
length 71
lifestyle 71
lobby 71
low-wage 71
mathematics 71
modernizing 71
moments 71
multinationals 71
myself 71
observation 71
polarized 71
polling 71
precarious 71
prerequisite 71
prosper 71
puzzle 71
ratification 71
rejects 71
restrictive 71
retained 71
robotics 71
seekers 71
shelter 71
signaling 71
sive 71
spiritual 71
suppression 71
sw@@ 71
traveled 71
tre@@ 71
tt@@ 71
ture 71
tures 71
unfolding 71
water-@@ 71
weakens 71
widen 71
yed 71
za 71
0.3 70
0s 70
1940 70
1948 70
1988 70
Cultural 70
Digital 70
Enlightenment 70
FIFA 70
Fox 70
Ge@@ 70
H 70
JCPOA 70
Kashmir 70
Open 70
Or@@ 70
Santiago 70
Tehran 70
To 70
Uruguay 70
William 70
automobiles 70
belt 70
better-@@ 70
bly 70
broadening 70
bul@@ 70
coincidence 70
compassion 70
composed 70
connecting 70
convened 70
couldn 70
dividing 70
dog 70
donations 70
ensured 70
erratic 70
exciting 70
experimental 70
fastest-growing 70
fat 70
framed 70
fruits 70
futile 70
hardliners 70
isolationism 70
lawyer 70
lessness 70
lofty 70
occupying 70
pessimists 70
pie 70
pre-industrial 70
prosecution 70
protects 70
prudential 70
punitive 70
railway 70
relatives 70
risk-@@ 70
slack 70
squeeze 70
swift 70
takeover 70
tering 70
tip 70
user 70
varied 70
vigorous 70
yielded 70
0.2 69
1929 69
1978 69
2-@@ 69
88 69
AS@@ 69
Armenia 69
Colombian 69
Communism 69
GCC 69
Inter@@ 69
Karl 69
Larry 69
NGO 69
Senkaku 69
Tillerson 69
Will 69
accordance 69
arising 69
assertion 69
betting 69
boo@@ 69
cholera 69
civilizations 69
climb 69
collaborative 69
collapses 69
contend 69
convenience 69
delays 69
di 69
diagnosed 69
entitlement 69
ess@@ 69
etc 69
experimentation 69
expressing 69
geopolitics 69
gift 69
glance 69
hypocrisy 69
hypothesis 69
logistics 69
lucrative 69
manipulated 69
minimizing 69
mobilization 69
ome@@ 69
pan-European 69
patriotism 69
plastic 69
predicament 69
q@@ 69
radicalism 69
referenda 69
relating 69
rewarded 69
rogue 69
screening 69
sequence 69
servants 69
simpler 69
submit 69
successors 69
suggestion 69
tailored 69
technologically 69
textbook 69
transformational 69
trivial 69
ultra-low 69
undergo 69
unilateralism 69
virtues 69
virtuous 69
visions 69
withdrew 69
-up 68
1950s 68
4-@@ 68
6,000 68
Air 68
Cal@@ 68
Fi@@ 68
Harry 68
IN@@ 68
Jiabao 68
Jong-il 68
Medicaid 68
Morales 68
Ryan 68
aff@@ 68
are@@ 68
ass 68
ational 68
basically 68
brutality 68
charismatic 68
coffee 68
compound 68
continuation 68
credit-@@ 68
cross-@@ 68
deadline 68
determines 68
dic@@ 68
dies 68
dissidents 68
draws 68
ear@@ 68
economic-policy 68
embarked 68
fiction 68
four-@@ 68
guaranteeing 68
heritage 68
horrific 68
impeded 68
ine@@ 68
inertia 68
jointly 68
jump 68
lan 68
livestock 68
lock 68
measurable 68
militia 68
neuro@@ 68
nostalgia 68
od 68
off@@ 68
outs 68
peg 68
persistence 68
post-Soviet 68
reassure 68
resisting 68
rolled 68
sec@@ 68
selective 68
self-determination 68
sensitivity 68
sh 68
shy 68
slide 68
sorts 68
stabilized 68
stars 68
stops 68
subtle 68
supervisory 68
supplying 68
theft 68
topics 68
tting 68
twenty 68
underscored 68
va 68
victories 68
1920 67
1972 67
1984 67
5.5 67
56 67
73 67
Congo 67
Ha@@ 67
Is@@ 67
LDP 67
Men@@ 67
Mis@@ 67
Over 67
Shi 67
Tibetan 67
abundance 67
advancement 67
ai@@ 67
aided 67
alas 67
arena 67
assembled 67
assurances 67
ate@@ 67
backward 67
bling 67
boosts 67
campaigned 67
characteristic 67
chi@@ 67
clo@@ 67
coal-fired 67
combines 67
committees 67
cronies 67
depreciate 67
drastic 67
dual 67
fertilizer 67
harness 67
hybrid 67
i-@@ 67
ie 67
inclusiveness 67
interdependent 67
know-how 67
leap 67
legislature 67
license 67
meaningless 67
milk 67
mixture 67
modernity 67
multipolar 67
national-security 67
overwhelmed 67
panels 67
percent 67
peril 67
pes 67
plague 67
public-debt 67
religions 67
repaid 67
replied 67
sacrifices 67
savvy 67
self-fulfilling 67
slight 67
squ@@ 67
stayed 67
stri@@ 67
teacher 67
tier 67
tripled 67
uprisings 67
useless 67
utility 67
voluntarily 67
well-functioning 67
xenophobic 67
1985 66
66 66
7-@@ 66
Alibaba 66
Balkan 66
Carter 66
Coun@@ 66
Criminal 66
Data 66
Deputy 66
Emirates 66
Kyiv 66
MGI 66
Nicaragua 66
PA 66
RMB 66
SWFs 66
So@@ 66
Solidarity 66
Zedong 66
agrees 66
answered 66
anymore 66
audiences 66
beef 66
biases 66
brains 66
breach 66
burn 66
cap@@ 66
capturing 66
centric 66
comparing 66
diplomat 66
dragged 66
ek 66
escalate 66
exposing 66
extract 66
fascism 66
fast-growing 66
fatigue 66
foreign-@@ 66
foresee 66
fraught 66
handling 66
hoc 66
homeland 66
ide@@ 66
influences 66
investigate 66
izes 66
lawmakers 66
le-@@ 66
magic 66
mandates 66
manipulating 66
motive 66
obsessed 66
one-party 66
patriotic 66
planting 66
preparation 66
resurgence 66
rid 66
sel@@ 66
seldom 66
shop 66
si 66
tail@@ 66
tightened 66
tru@@ 66
unchecked 66
unregulated 66
upgrade 66
vers 66
viability 66
von 66
wood 66
160 65
1947 65
1974 65
200,000 65
50-@@ 65
Environment 65
IS@@ 65
Kyi 65
Muhammad 65
Nairobi 65
Prague 65
Ri@@ 65
Slovakia 65
St. 65
Trichet 65
Up 65
Zuma 65
allied 65
behaviors 65
bent 65
bes 65
blockchain 65
blocks 65
canceled 65
cents 65
championed 65
chaotic 65
citing 65
clock 65
codes 65
comp@@ 65
completing 65
concludes 65
confronts 65
contested 65
convicted 65
credentials 65
curbing 65
debacle 65
downs 65
drug-@@ 65
dysfunction 65
enforcing 65
escaped 65
faction 65
fans 65
financiers 65
gesture 65
hegemon 65
highs 65
human-@@ 65
hy@@ 65
hyper-@@ 65
ideologies 65
impacts 65
impetus 65
individually 65
inflated 65
jeopardizing 65
ki@@ 65
killer 65
killers 65
landmark 65
mild 65
mirror 65
neighborhoods 65
nuclear-weapons 65
ov 65
overlook 65
plain 65
possesses 65
properties 65
pur@@ 65
quota 65
recourse 65
retirees 65
sa 65
separatist 65
session 65
severity 65
sidelines 65
sister 65
slows 65
spill 65
sters 65
strive 65
supplier 65
supreme 65
tape 65
thoroughly 65
tipping 65
top-down 65
tourists 65
tracking 65
trade-@@ 65
tyranny 65
uneven 65
unusually 65
updated 65
vessels 65
ye@@ 65
-related 64
58 64
Academy 64
Catalonia 64
China-@@ 64
Cypriot 64
Facility 64
Governing 64
Home 64
Intelligence 64
Joint 64
Kaczyński 64
Ki@@ 64
Lagarde 64
Mohammad 64
Poor 64
Suu 64
absorbed 64
ack@@ 64
acquiring 64
analyze 64
anti-Semitic 64
arm@@ 64
arts 64
athletes 64
atomic 64
autumn 64
ba@@ 64
ck 64
clubs 64
compensated 64
conditionality 64
confirms 64
contemplate 64
cow 64
criticizing 64
dams 64
depleted 64
dest 64
deteriorated 64
develops 64
devised 64
disparate 64
dynasty 64
e-commerce 64
farther 64
fearful 64
founders 64
fur@@ 64
gam@@ 64
gan@@ 64
hasn 64
hor@@ 64
hotel 64
indebtedness 64
infamous 64
injections 64
lingering 64
lobbyists 64
mile 64
mode 64
ne 64
oil-@@ 64
oms 64
opposes 64
ord@@ 64
owning 64
parallels 64
practitioners 64
pregnant 64
pursues 64
rape 64
requests 64
ric@@ 64
rooms 64
sacred 64
safeguarding 64
scant 64
secession 64
self 64
self-defense 64
shipping 64
shorter 64
slo@@ 64
soul 64
spearheaded 64
stagnating 64
totalitarian 64
trick 64
tz 64
unanimously 64
untenable 64
unveiled 64
urging 64
van@@ 64
wholly 64
worthwhile 64
76 63
Atomic 63
Bernie 63
Bulgaria 63
Catholics 63
Century 63
Darwin 63
Gen@@ 63
Gore 63
IAEA 63
Jintao 63
José 63
Ki-moon 63
Latvia 63
Na@@ 63
Powell 63
Rohingya 63
Services 63
Shi@@ 63
Stephen 63
Three 63
Why 63
Workers 63
assessed 63
attainment 63
authorized 63
banning 63
battlefield 63
brilliant 63
catch-up 63
chan@@ 63
cheaply 63
consciousness 63
consolidated 63
dent 63
designated 63
deteriorate 63
devastation 63
district 63
endangered 63
endorsement 63
enters 63
evaluation 63
ex-@@ 63
expecting 63
films 63
formulate 63
frame 63
full-blown 63
goodwill 63
governmental 63
horrors 63
human@@ 63
hun@@ 63
imperialism 63
incumbents 63
intact 63
inv@@ 63
lifestyles 63
load 63
mandated 63
marketplace 63
misses 63
now-@@ 63
oring 63
pneumonia 63
poli@@ 63
powerhouse 63
pp@@ 63
prudence 63
readiness 63
revenge 63
reviews 63
rumors 63
seed 63
signature 63
similarities 63
sixth 63
spin 63
squandered 63
stolen 63
strife 63
string 63
subdued 63
subsidize 63
thoughtful 63
throwing 63
tour 63
unraveling 63
valuations 63
variant 63
versa 63
wealthier 63
wear 63
ö@@ 63
199@@ 62
2007-2008 62
3-@@ 62
51 62
59 62
86 62
Can 62
Daniel 62
EC@@ 62
Environmental 62
From 62
History 62
Koizumi 62
Massachusetts 62
ODA 62
Olmert 62
PLO 62
Russian-@@ 62
Schengen 62
Si@@ 62
Snowden 62
Soros 62
Way 62
Work 62
abound 62
adapting 62
alienated 62
all-time 62
appropriately 62
asymmetric 62
atic 62
best-@@ 62
bled 62
blunt 62
candidacy 62
chaired 62
chapter 62
cho@@ 62
complications 62
conception 62
council 62
depreciated 62
devastated 62
disinformation 62
divert 62
dropping 62
earners 62
employer 62
famine 62
feeding 62
foreign-currency 62
fortunate 62
gener@@ 62
grids 62
hailed 62
hal@@ 62
hawks 62
healthcare 62
high-speed 62
humiliating 62
implicitly 62
invoked 62
ironic 62
kids 62
lim@@ 62
local-government 62
massively 62
metric 62
noting 62
organs 62
peculiar 62
persons 62
plastics 62
plunge 62
populous 62
preceding 62
pro-growth 62
radicalization 62
regret 62
rer 62
start-ups 62
stating 62
supplied 62
tal@@ 62
tempting 62
toppled 62
trains 62
tted 62
two-year 62
uniquely 62
variable 62
ventures 62
walking 62
widened 62
worsened 62
í@@ 62
1975 61
20-@@ 61
Arab-Israeli 61
Bal@@ 61
Ben@@ 61
CCS 61
Democrat 61
Hassan 61
Journal 61
Luxembourg 61
MENA 61
OMT 61
Orthodox 61
Prince 61
Sen 61
Taylor 61
acquisition 61
app 61
ards 61
ash@@ 61
biased 61
ble@@ 61
bloodshed 61
ce 61
celebration 61
charisma 61
circulation 61
collecting 61
colonialism 61
converge 61
covers 61
crafted 61
denominated 61
departments 61
derive 61
designs 61
directions 61
disciplines 61
dismantle 61
dollar-denominated 61
ell@@ 61
ent-@@ 61
externalities 61
favoring 61
fire@@ 61
fisheries 61
footprint 61
grain 61
gri@@ 61
holiday 61
indices 61
inflict 61
interfere 61
interior 61
isolate 61
it-@@ 61
je@@ 61
ken 61
lan@@ 61
liberalizing 61
lining 61
lying 61
magazine 61
mergers 61
mountain 61
nuanced 61
operators 61
p-@@ 61
rainfall 61
real-world 61
recruit 61
reminds 61
rescued 61
riskier 61
royal 61
shooting 61
short-run 61
side@@ 61
simultaneous 61
small-scale 61
sovereigns 61
starvation 61
supranational 61
surpass 61
tale 61
textbooks 61
tissue 61
transferring 61
ue 61
und@@ 61
underscore 61
universally 61
verdict 61
wholesale 61
xenophobia 61
3.4 60
82 60
CBO 60
Chechnya 60
Czechoslovakia 60
Einstein 60
Estonia 60
IR@@ 60
Islam@@ 60
Kofi 60
MBS 60
Mitt 60
Scandinavian 60
Standard 60
Uribe 60
addiction 60
ade@@ 60
ambiguous 60
ani@@ 60
appearing 60
arsenals 60
babies 60
backstop 60
bidding 60
blocs 60
bombings 60
broadcast 60
bullying 60
capitalists 60
cease 60
clarify 60
clothing 60
col@@ 60
commander 60
complicating 60
contacts 60
cost-@@ 60
curriculum 60
decay 60
diarrhea 60
discouraged 60
dra@@ 60
elling 60
employing 60
endorse 60
eroding 60
exc@@ 60
friction 60
happily 60
harmony 60
hierarchy 60
horse 60
i.e. 60
identification 60
ik@@ 60
incorporated 60
indications 60
injured 60
input 60
istic 60
lab@@ 60
label 60
lean 60
liked 60
logy 60
micro-@@ 60
midterm 60
non-performing 60
non-tradable 60
offsetting 60
ological 60
ori@@ 60
ousness 60
overheating 60
passion 60
planners 60
premiums 60
prevalent 60
prioritize 60
prosecutor 60
reckoning 60
referring 60
relentlessly 60
renewable-energy 60
secrecy 60
separated 60
spared 60
staged 60
suspend 60
taste 60
ter-@@ 60
tolerant 60
turbulent 60
ven@@ 60
verification 60
versions 60
vocal 60
vocational 60
waging 60
wartime 60
watershed 60
wondering 60
4,000 59
52 59
Can@@ 59
Common 59
Control 59
Fa@@ 59
Five-Year 59
Good 59
Guinea 59
Ham@@ 59
Hurricane 59
IF@@ 59
Kohl 59
La@@ 59
NA@@ 59
Nor@@ 59
Poli@@ 59
SDRs 59
Santos 59
Securities 59
Soviets 59
UN@@ 59
Westerners 59
aiming 59
altered 59
aring 59
attribute 59
believers 59
bolstered 59
bosses 59
brands 59
bru@@ 59
calculus 59
clearing 59
conducive 59
conscience 59
conversion 59
coordinating 59
corporation 59
countering 59
countryside 59
dates 59
declarations 59
disability 59
displayed 59
dumping 59
filed 59
fiscally 59
fly 59
grab 59
idle 59
inquiry 59
invite 59
knowhow 59
looms 59
loved 59
manager 59
mines 59
murderous 59
om 59
ome 59
oning 59
out-@@ 59
outlined 59
pandemic 59
pped 59
prop 59
proportions 59
rac@@ 59
rankings 59
redress 59
refinancing 59
reliant 59
rivalries 59
rocket 59
routes 59
seeming 59
segment 59
self-serving 59
spark 59
spotlight 59
stature 59
strained 59
strides 59
succumb 59
surgical 59
swiftly 59
therapies 59
tic@@ 59
torn 59
tweets 59
variations 59
vigorously 59
waning 59
warranted 59
wishful 59
worlds 59
wrought 59
yourself 59
0.4 58
2.9 58
77 58
Beirut 58
Bri@@ 58
CI@@ 58
Chernobyl 58
Croatia 58
FOMC 58
Fiscal 58
Fre@@ 58
Georgian 58
Gra@@ 58
Regional 58
Salman 58
TR@@ 58
Yes 58
abilities 58
abstract 58
alignment 58
amendments 58
arose 58
articulated 58
ation@@ 58
autocracy 58
barred 58
belongs 58
bolstering 58
bon@@ 58
boss 58
comm@@ 58
communal 58
constituents 58
constraining 58
criterion 58
cru@@ 58
crumbling 58
disappearance 58
drastically 58
ef@@ 58
encounter 58
equation 58
ethnicity 58
ethos 58
fairer 58
federalism 58
folly 58
freed 58
fringe 58
granting 58
guilt 58
habit 58
head@@ 58
hubris 58
importers 58
inefficiency 58
leg@@ 58
lengthy 58
loud 58
matching 58
ministerial 58
naive 58
ol 58
overvalued 58
ow@@ 58
peaked 58
permitting 58
post-communist 58
premise 58
prohibit 58
publishing 58
recapitalization 58
recoveries 58
rent 58
rethinking 58
rock 58
salary 58
scenes 58
self-defeating 58
sn@@ 58
spell 58
spillovers 58
spots 58
straight 58
survivors 58
taxpayer 58
testimony 58
tively 58
,@@ 57
10-@@ 57
300,000 57
68 57
9-@@ 57
Amendment 57
Andrew 57
Anglo-Saxon 57
CN 57
Carney 57
Des@@ 57
ESM 57
Eurozone 57
Janet 57
Jim 57
Kenneth 57
Khodorkovsky 57
Life 57
Mac@@ 57
Matteo 57
Morgan 57
NTC 57
Nordic 57
Orange 57
Plenum 57
Pol@@ 57
Rumsfeld 57
Taiwanese 57
War@@ 57
Yale 57
Yasukuni 57
abide 57
abolished 57
adherence 57
anchored 57
artists 57
attached 57
bailed 57
birds 57
bor@@ 57
catalyze 57
chart 57
cloud 57
co 57
consolidating 57
contingent 57
contributor 57
convene 57
conversations 57
courageous 57
covert 57
cy@@ 57
demographics 57
descent 57
drift 57
egregious 57
eighteenth 57
equals 57
euro-zone 57
fat@@ 57
gers 57
grouping 57
holy 57
hubs 57
incorporate 57
inexpensive 57
intimidation 57
invading 57
journal 57
junta 57
ki 57
labeled 57
leisure 57
longest 57
macro 57
mankind 57
measurement 57
mentality 57
mini-@@ 57
nationality 57
non-tariff 57
offense 57
oli@@ 57
outgoing 57
overarching 57
passionate 57
peer 57
plan@@ 57
plane 57
please 57
positively 57
preferable 57
pretext 57
radi@@ 57
random 57
register 57
reiterated 57
remarks 57
retire 57
retrenchment 57
revision 57
riding 57
rift 57
setback 57
shaken 57
shops 57
specified 57
sterling 57
stifling 57
supremacy 57
taboo 57
topple 57
tt 57
unconditional 57
unfettered 57
unimaginable 57
wonders 57
writes 57
0th 56
7,000 56
72 56
AN@@ 56
Anwar 56
But 56
Columbia 56
Iron 56
J. 56
Keynesians 56
Kurdistan 56
OSCE 56
PR@@ 56
Problem 56
San@@ 56
Ste@@ 56
Tur@@ 56
USSR 56
Water 56
Zionism 56
accuracy 56
ach 56
ading 56
altering 56
alternatively 56
ambiguity 56
ao 56
ath@@ 56
avi@@ 56
bans 56
boat 56
briefly 56
bus 56
caliphate 56
charity 56
classroom 56
coined 56
collaborate 56
comparisons 56
completion 56
conservatism 56
contradictions 56
cry 56
debating 56
deductions 56
delaying 56
department 56
derail 56
discern 56
disdain 56
elaborate 56
ements 56
ess 56
excitement 56
exert 56
fan 56
fast-@@ 56
filling 56
fines 56
flaw 56
flu@@ 56
form@@ 56
forward-looking 56
girl 56
heroes 56
hurricanes 56
instances 56
jihad 56
lac@@ 56
landslide 56
loc@@ 56
maker 56
mas@@ 56
masters 56
nationwide 56
natural-resource 56
notoriously 56
observer 56
oversee 56
passes 56
paved 56
periodic 56
pesticides 56
pivotal 56
predatory 56
preferential 56
pres@@ 56
pretend 56
processed 56
prompt 56
proteins 56
provider 56
provocations 56
republics 56
requested 56
retailers 56
roadmap 56
ron@@ 56
sink 56
sla@@ 56
spheres 56
squarely 56
starkly 56
stepping 56
stresses 56
suffice 56
suits 56
surveyed 56
suspects 56
sympathetic 56
tacit 56
thoughts 56
tortured 56
ures 56
uring 56
usage 56
utilities 56
val@@ 56
visa 56
wearing 56
whoever 56
yellow 56
yesterday 56
0 55
0-@@ 55
0.6 55
140 55
900 55
Buddhist 55
Case 55
Challenge 55
Danish 55
EFSF 55
Israel-Palestine 55
Ke@@ 55
Nature 55
Osborne 55
PE@@ 55
Pan@@ 55
Shah 55
Socialists 55
Speaker 55
Strategic 55
accepts 55
aggravated 55
allocating 55
articles 55
articulate 55
aspire 55
backs 55
bind 55
bite 55
builds 55
buried 55
cal 55
capitalized 55
cleaning 55
cleansing 55
comprehend 55
conventions 55
conversely 55
crossroads 55
crown 55
dictates 55
disparity 55
dom 55
educating 55
entrants 55
et@@ 55
expands 55
flu 55
full-scale 55
fun@@ 55
gel 55
horror 55
hur@@ 55
implosion 55
ining 55
int@@ 55
intend 55
invitation 55
jailed 55
laboratory 55
lawsuits 55
lax 55
lip 55
lobbies 55
milestone 55
military-@@ 55
minute 55
non-financial 55
oc@@ 55
ok 55
old-fashioned 55
outward 55
pause 55
pave 55
perpetual 55
phased 55
politicized 55
praised 55
printed 55
punishing 55
recruitment 55
regulator 55
renegotiation 55
renew 55
revise 55
rewarding 55
seizing 55
shutdown 55
slogans 55
smoke 55
solvency 55
spaces 55
spectacle 55
standpoint 55
steer 55
stroke 55
surgery 55
treats 55
ty@@ 55
uri@@ 55
victorious 55
2.@@ 54
Am@@ 54
Are 54
BEACH 54
BP 54
Barroso 54
Be 54
C. 54
CF@@ 54
Coalition 54
Fu@@ 54
Globalization 54
ICTY 54
Jeremy 54
Manchester 54
Mc@@ 54
Mexicans 54
More 54
Mul@@ 54
My@@ 54
Nigerian 54
Seas 54
Sur@@ 54
Treasuries 54
Universal 54
Vol@@ 54
Wor@@ 54
Yushchenko 54
abolish 54
absorbing 54
academia 54
acc@@ 54
alizes 54
arming 54
assertiveness 54
astonishing 54
ater@@ 54
bars 54
biofuels 54
bloated 54
brunt 54
calamity 54
coin 54
combatants 54
condemnation 54
condemning 54
contexts 54
contracted 54
costing 54
cruel 54
culminated 54
cy 54
dare 54
dearth 54
defiance 54
defy 54
desires 54
differential 54
dilemmas 54
discriminatory 54
divides 54
don@@ 54
electronics 54
embodies 54
encountered 54
enrich 54
environmentalists 54
envoy 54
escaping 54
establishes 54
exact 54
examining 54
expressions 54
free-@@ 54
frightening 54
greatness 54
halted 54
hardware 54
heights 54
hiding 54
homegrown 54
hu@@ 54
hum@@ 54
ides 54
impediments 54
ini@@ 54
insurers 54
intergovernmental 54
intolerance 54
kills 54
negligible 54
nonsense 54
ologists 54
open-ended 54
pay@@ 54
pensioners 54
plentiful 54
port@@ 54
presupposes 54
promptly 54
protective 54
realistically 54
responds 54
responsibly 54
restraints 54
scre@@ 54
shield 54
shortfalls 54
sized 54
specialization 54
sponsors 54
stagnated 54
subprime 54
succeeding 54
suitable 54
ths 54
ubiquitous 54
un 54
unexpectedly 54
viewers 54
wield 54
world-class 54
3.8 53
Albania 53
Bosnian 53
Bre@@ 53
Bundestag 53
CE@@ 53
Election 53
Hamilton 53
Helsinki 53
Hy@@ 53
Karzai 53
Khomeini 53
Lama 53
Make 53
Money 53
Murdoch 53
PA@@ 53
Seattle 53
Shiite 53
Technology 53
Tra@@ 53
X 53
accusing 53
ams 53
analogous 53
appalling 53
appointing 53
attending 53
attractiveness 53
attributable 53
au 53
belonging 53
breeding 53
burgeoning 53
chemistry 53
comprised 53
concert 53
constituted 53
contracting 53
crippling 53
curious 53
deception 53
devaluations 53
drilling 53
elled 53
en-@@ 53
encouragement 53
export-oriented 53
forgiveness 53
fy 53
generational 53
generic 53
gent 53
halved 53
ham@@ 53
high-profile 53
highway 53
humane 53
hurdles 53
hurting 53
immunity 53
inadvertently 53
incompetent 53
inf@@ 53
inheritance 53
install 53
jumped 53
lers 53
logistical 53
longevity 53
loom 53
marijuana 53
messy 53
methane 53
nit@@ 53
noticed 53
ominous 53
ousted 53
overdue 53
pandemics 53
planes 53
post-Cold 53
predictably 53
pregnancy 53
prisons 53
proxies 53
re-elected 53
refuge 53
remembering 53
restaurants 53
retaining 53
rhetorical 53
scaling 53
scholar 53
searching 53
shattered 53
shoulder 53
smoothly 53
stan@@ 53
stifle 53
suppressed 53
sway 53
tainted 53
third-largest 53
top-@@ 53
transcend 53
unc@@ 53
undeniable 53
uniform 53
warrant 53
weakest 53
website 53
wildly 53
wounded 53
15-@@ 52
1944 52
81 52
Anti-@@ 52
Azerbaijan 52
Cheney 52
Commissioner 52
Eisenhower 52
Er@@ 52
Eurasia 52
Glass-Steagall 52
Himalayan 52
Land 52
Left 52
Manmohan 52
Ni@@ 52
Salvador 52
Serbian 52
She@@ 52
TFP 52
Varoufakis 52
Venezuelans 52
Western-@@ 52
Without 52
afforded 52
ai 52
airport 52
alert 52
analyzing 52
ano@@ 52
ar-@@ 52
aries 52
arrow 52
augment 52
barrels 52
bi 52
billionaire 52
cal@@ 52
campaigners 52
cat@@ 52
chauvinism 52
concede 52
converted 52
copy 52
cultivate 52
dairy 52
demagogues 52
discretion 52
distort 52
dominates 52
ect 52
embody 52
endeavor 52
excellence 52
finish 52
forums 52
full-fledged 52
harming 52
helium 52
helm 52
ignorant 52
immoral 52
instincts 52
interestingly 52
investment-@@ 52
legality 52
life-saving 52
linguistic 52
measles 52
ment@@ 52
monitored 52
nationalistic 52
nationals 52
nominated 52
nurses 52
objects 52
obtaining 52
often-@@ 52
person@@ 52
persuading 52
petroleum 52
phenomena 52
physicians 52
prejudice 52
prompting 52
refers 52
reinvigorate 52
retro@@ 52
rough 52
schedule 52
sentenced 52
sentences 52
setbacks 52
show@@ 52
sin@@ 52
sively 52
sleep 52
sometime 52
sorry 52
speaker 52
ssing 52
startups 52
stein 52
stuff 52
stupid 52
suicidal 52
suspension 52
sy@@ 52
tapping 52
thereafter 52
third-@@ 52
tightly 52
totaling 52
trump 52
uniting 52
unrelated 52
van 52
viruses 52
wasteful 52
weighed 52
.5 51
4.3 51
97 51
Alternative 51
Ay@@ 51
Children 51
Chinese-@@ 51
Del@@ 51
Hayek 51
Lithuania 51
M5S 51
Michel 51
Napoleon 51
Network 51
PLA 51
Peres 51
Today 51
Vatican 51
Wilders 51
Wolfowitz 51
Xinjiang 51
Years 51
abruptly 51
ada 51
alienation 51
all-out 51
ama 51
ancestors 51
anonymous 51
asing 51
asis 51
bank@@ 51
billionaires 51
businessman 51
by-@@ 51
care@@ 51
circumvent 51
commensurate 51
commissioned 51
confusing 51
continually 51
contrasts 51
convey 51
curricula 51
data-@@ 51
defeating 51
defuse 51
desperation 51
diets 51
differentials 51
digitization 51
emanating 51
embark 51
emperor 51
eradicating 51
exercised 51
exiting 51
expenses 51
fathers 51
file 51
five-@@ 51
food-@@ 51
friendship 51
ft 51
g-@@ 51
geostrategic 51
guerrilla 51
incite 51
indoor 51
inferior 51
issuance 51
labor-@@ 51
lets 51
like-minded 51
mad 51
marry 51
meager 51
melting 51
merchandise 51
mercy 51
mid@@ 51
migrate 51
misplaced 51
modification 51
momentous 51
normalize 51
ort 51
owns 51
pan-@@ 51
panacea 51
polar 51
por@@ 51
posture 51
powerless 51
precision 51
reaffirmed 51
recycling 51
reign 51
repeating 51
sample 51
selfish 51
sellers 51
sends 51
settlers 51
shly 51
shortsighted 51
shrunk 51
sins 51
ski 51
social-media 51
stic 51
sticking 51
stubbornly 51
sul@@ 51
tail 51
tant 51
tar@@ 51
tasked 51
tenth 51
tradeoff 51
troop 51
ups 51
vengeance 51
zombie 51
1949 50
2008-@@ 50
3.7 50
3.@@ 50
500,000 50
87 50
AVIV 50
Al-@@ 50
Aleppo 50
Better 50
Bhutan 50
Bur@@ 50
Bureau 50
Char@@ 50
Damascus 50
Denver 50
Drawing 50
EU-wide 50
Ehud 50
FTA 50
Fight 50
Fischer 50
Grand 50
K 50
Kirchner 50
Likud 50
Malaria 50
Manafort 50
Melbourne 50
Military 50
Niger 50
P5 50
Pentagon 50
Pri@@ 50
Rowhani 50
Sciences 50
Ser@@ 50
Sino-American 50
Val@@ 50
Wa@@ 50
accommodating 50
accompany 50
acies 50
acquisitions 50
admired 50
adversary 50
adversely 50
ail@@ 50
analyzed 50
architect 50
architects 50
arriving 50
assure 50
backgrounds 50
blo@@ 50
bo 50
buildup 50
bullet 50
by@@ 50
carnage 50
cartels 50
characterize 50
childbirth 50
clean-energy 50
coercive 50
corn 50
corrected 50
cou@@ 50
cro@@ 50
culprit 50
deadlock 50
deepest 50
definitive 50
delusion 50
desert 50
determinant 50
deterred 50
downgrade 50
dro@@ 50
ell 50
ez@@ 50
fabric 50
fade 50
faltering 50
genius 50
healing 50
histories 50
inconvenient 50
indifferent 50
ined 50
ingredient 50
invaluable 50
isolationist 50
job-@@ 50
law@@ 50
lement 50
maps 50
mystery 50
non-profit 50
one-time 50
passions 50
pin@@ 50
polity 50
polluted 50
posturing 50
prescriptions 50
protocol 50
provocative 50
purge 50
quar@@ 50
quit 50
ration@@ 50
reshape 50
resource-@@ 50
retraining 50
sand 50
scourge 50
showdown 50
sinking 50
skewed 50
stoking 50
stretching 50
sub-Saharan 50
sun@@ 50
tered 50
tertiary 50
texts 50
tired 50
traumatic 50
upheld 50
wa 50
1.25 49
8.5 49
AI@@ 49
Alexis 49
Back 49
Bangkok 49
Barcelona 49
Commerce 49
Cy@@ 49
Dalai 49
Em@@ 49
Gre@@ 49
Je@@ 49
Nicholas 49
Pl@@ 49
Ru@@ 49
Sadat 49
Sunday 49
Sunni-Shia 49
Tamil 49
Tocqueville 49
UBI 49
Zika 49
accompanying 49
alities 49
alli@@ 49
antagonism 49
antly 49
appointments 49
ari 49
arrows 49
averaging 49
berg 49
bers 49
biotechnology 49
bombers 49
brutally 49
capital-intensive 49
casting 49
chancellor 49
coherence 49
coins 49
concession 49
contractors 49
cooperating 49
copper 49
couples 49
crack 49
cutting-edge 49
dawn 49
deficiency 49
deficient 49
disaffected 49
disarray 49
divergent 49
diversion 49
drug-resistant 49
empathy 49
ens@@ 49
entitlements 49
espionage 49
explored 49
fallacy 49
farmland 49
fence 49
forecasters 49
fro@@ 49
generosity 49
highways 49
ight 49
illiteracy 49
immensely 49
inappropriate 49
incur 49
inde@@ 49
instant 49
intermediate 49
invests 49
journals 49
land-@@ 49
liberated 49
lin 49
long-lasting 49
loosening 49
low@@ 49
millennia 49
neutrality 49
nic@@ 49
parameters 49
paramount 49
persuasive 49
philosophical 49
physically 49
pioneering 49
pleasure 49
plummeting 49
polluting 49
pot 49
practiced 49
prohibiting 49
propel 49
propensity 49
pul@@ 49
pump 49
q 49
raging 49
railways 49
ray 49
recalls 49
relates 49
restaurant 49
ri 49
robot 49
separatists 49
servicing 49
shall 49
shine 49
soar 49
spare 49
stall 49
stoke 49
supporter 49
suppressing 49
surviving 49
teeth 49
theater 49
time-@@ 49
translates 49
traveling 49
tribunal 49
ular 49
undemocratic 49
undergone 49
ung 49
unpaid 49
unwanted 49
upheavals 49
utter 49
wake-up 49
warns 49
wounds 49
yp@@ 49
-of-GDP 48
180 48
2-3 48
61 48
78 48
Bro@@ 48
Cap@@ 48
Countries 48
Cu@@ 48
Eurasian 48
Haram 48
Ibrahim 48
Insurance 48
Islamabad 48
Katrina 48
Ku@@ 48
Macedonia 48
Mas@@ 48
Medical 48
Mi@@ 48
Nazism 48
Nelson 48
Nicolás 48
Portuguese 48
Price 48
Senegal 48
Staff 48
Ta@@ 48
Tymoshenko 48
UNICEF 48
Y 48
ac 48
acknowledges 48
admitting 48
alo@@ 48
anticipation 48
anxieties 48
banner 48
bare 48
baseline 48
bit@@ 48
blue-collar 48
boasts 48
calculate 48
cancers 48
celebrating 48
che 48
church 48
cooking 48
cooling 48
counter-productive 48
culturally 48
daughters 48
delivers 48
destined 48
disclose 48
downstream 48
downturns 48
dust 48
eggs 48
emit 48
enacting 48
enting 48
envy 48
evaluating 48
expire 48
favorably 48
fla@@ 48
float 48
glob@@ 48
gran@@ 48
hesitate 48
hints 48
hits 48
hollow 48
human-induced 48
hyper@@ 48
ic-@@ 48
ick 48
illiquid 48
ily 48
impaired 48
impedes 48
income-tax 48
internationalization 48
intrusive 48
ity-@@ 48
jihadi 48
lar@@ 48
less-@@ 48
life-@@ 48
lights 48
loop 48
ly-@@ 48
math 48
mercantilist 48
mes 48
mineral 48
morale 48
moratorium 48
motivations 48
narrowed 48
nascent 48
neoliberal 48
nutritional 48
occasional 48
offspring 48
organ 48
orthodox 48
park 48
pending 48
perpetuate 48
peso 48
philosophers 48
predicts 48
preparations 48
provoking 48
publications 48
rallied 48
ram@@ 48
reconciling 48
registration 48
remarked 48
resumption 48
ruthless 48
sat 48
scarcely 48
se-@@ 48
secularism 48
short-@@ 48
slashed 48
ssi@@ 48
stockpiles 48
sustainably 48
tables 48
thesis 48
tune 48
unpleasant 48
ven 48
veness 48
visitors 48
volunteers 48
winds 48
workable 48
xes 48
zero-@@ 48
0.8 47
2100 47
69 47
74 47
Abkhazia 47
Agriculture 47
Armed 47
BC 47
Bali 47
Bra@@ 47
Budapest 47
CITY 47
Disease 47
Do 47
Edward 47
Euro-@@ 47
FT@@ 47
Guatemala 47
Jimmy 47
Managing 47
Many 47
Mike 47
Milosevic 47
Mur@@ 47
Muslim-majority 47
New@@ 47
Nieto 47
Peña 47
Politburo 47
Refugee 47
Refugees 47
Return 47
Saakashvili 47
Strip 47
Wil@@ 47
Zhao 47
allegiance 47
ally-@@ 47
ame 47
ammunition 47
antibiotic 47
anticipating 47
antimicrobial 47
arbitrage 47
attendance 47
band 47
bat@@ 47
beauty 47
black@@ 47
bol@@ 47
bottom-up 47
bribes 47
build-up 47
capitalization 47
catching 47
chairs 47
charter 47
cl@@ 47
clouds 47
compromising 47
conceptual 47
countercyclical 47
critic 47
critique 47
dampen 47
deliberation 47
descendants 47
detained 47
directing 47
discredit 47
doubtful 47
draconian 47
echo 47
economic-growth 47
emb@@ 47
endgame 47
es-@@ 47
exempt 47
fashionable 47
fixes 47
freeing 47
frontiers 47
gauge 47
glory 47
greeted 47
hacking 47
hectares 47
humanities 47
impediment 47
incidence 47
inclination 47
influencing 47
installations 47
instantly 47
j 47
legislatures 47
linear 47
lli@@ 47
loaded 47
manifest 47
mediocre 47
metals 47
microfinance 47
mid-century 47
mismatch 47
multiculturalism 47
narrowing 47
negatively 47
non 47
non-existent 47
olo@@ 47
opium 47
part-time 47
patronage 47
perilous 47
projection 47
provocation 47
pun@@ 47
qui@@ 47
redistributive 47
reelection 47
relaxed 47
reshaping 47
rin@@ 47
ro 47
rupture 47
rushed 47
sch@@ 47
separately 47
she@@ 47
shores 47
taxi 47
terrain 47
twist 47
umbrella 47
unhealthy 47
unifying 47
unjust 47
unreliable 47
vanished 47
variables 47
vers@@ 47
waged 47
wanting 47
weekend 47
willingly 47
wor@@ 47
wrongly 47
10-15 46
110 46
12th 46
170 46
1931 46
1969 46
3D 46
6.7 46
60-@@ 46
92 46
At@@ 46
BBC 46
Biden 46
Boko 46
Burmese 46
CO@@ 46
CP@@ 46
Carmen 46
Company 46
Drug 46
ES@@ 46
Game 46
Gini 46
Gujarat 46
Hansen 46
Inequality 46
Innovation 46
Lam@@ 46
NASA 46
Outlook 46
Pa@@ 46
Pax 46
Poverty 46
Presidents 46
Rabin 46
Should 46
Single 46
Stream 46
WWI 46
Wal@@ 46
afflicted 46
afterwards 46
aides 46
anim@@ 46
annualized 46
aps 46
arrogance 46
at-@@ 46
attachment 46
attained 46
attributes 46
averted 46
beset 46
biomedical 46
bits 46
bloo@@ 46
blue 46
bre@@ 46
bullets 46
bury 46
caring 46
cocaine 46
cohesive 46
confirmation 46
consultations 46
conundrum 46
cooperatives 46
counter-cyclical 46
curse 46
delegates 46
devising 46
dictated 46
disconnect 46
distorting 46
enhances 46
envisioned 46
erupt 46
exemption 46
fore 46
gate 46
gre@@ 46
grounded 46
growth-enhancing 46
gue 46
har 46
hearings 46
holes 46
hurricane 46
ial 46
iles 46
impeachment 46
inal 46
interpretations 46
intra-@@ 46
kets 46
kin 46
lam@@ 46
layer 46
lead@@ 46
leaked 46
len 46
lens 46
macroeconomics 46
manifestation 46
mathematical 46
minerals 46
na@@ 46
nice 46
non-nuclear 46
ny 46
oppressive 46
oral 46
parks 46
pe 46
peasants 46
petty 46
pleased 46
ples 46
precipitate 46
preservation 46
presided 46
publicized 46
relation 46
risk-free 46
rockets 46
ruin 46
rupee 46
see@@ 46
sells 46
sequencing 46
seriousness 46
shoes 46
sians 46
six-@@ 46
song 46
stag@@ 46
swung 46
taper 46
telephone 46
thorough 46
tional 46
tribes 46
un-@@ 46
unanimous 46
undesirable 46
upset 46
vain 46
valuation 46
wrenching 46
30-year 45
A. 45
Botswana 45
Buenos 45
Club 45
Communists 45
Death 45
Deutsche 45
EM@@ 45
Electoral 45
Euro-Atlantic 45
Europe-wide 45
Federation 45
Fillon 45
Gerhard 45
Information 45
Kenyan 45
Khan 45
Kur@@ 45
Lan@@ 45
Lawrence 45
Manila 45
Melinda 45
Model 45
Over@@ 45
Panama 45
Petersburg 45
RBI 45
Rice 45
Rodrik 45
Sam@@ 45
Settlements 45
Shell 45
Silva 45
Tahrir 45
Thirty 45
Uni@@ 45
affiliated 45
ailing 45
amp@@ 45
analytics 45
anti-American 45
apo@@ 45
aspiring 45
beaten 45
big-@@ 45
bipolar 45
book@@ 45
cable 45
caste 45
ced 45
channeling 45
cigarettes 45
closure 45
clusters 45
coefficient 45
colleges 45
complacent 45
compulsory 45
constructing 45
cour@@ 45
cr@@ 45
crazy 45
cul@@ 45
cultivated 45
cyber-@@ 45
cynicism 45
deep-seated 45
detection 45
disabled 45
dissatisfaction 45
dissolution 45
distinctive 45
drafted 45
eased 45
economy-wide 45
electorates 45
emergencies 45
energies 45
ero@@ 45
essay 45
extinction 45
fare 45
fights 45
for-@@ 45
formulated 45
fostered 45
franc 45
gas-@@ 45
gh 45
half-million 45
hang 45
harmonization 45
hired 45
illegally 45
impulse 45
incipient 45
incited 45
inconceivable 45
institute 45
intermediation 45
intolerable 45
inviting 45
joblessness 45
junior 45
keys 45
las@@ 45
legacies 45
letters 45
levy 45
lifelong 45
lion 45
liver 45
loosen 45
manufacture 45
marking 45
merger 45
moderately 45
molecular 45
mosquito 45
mutualization 45
near-term 45
objection 45
one-child 45
opens 45
pat@@ 45
planetary 45
poet 45
post-2015 45
prematurely 45
pressured 45
prominence 45
propelled 45
pumped 45
quarterly 45
rain 45
ravaged 45
reconciled 45
recruits 45
recurring 45
red-@@ 45
releasing 45
reliability 45
reputations 45
restructured 45
resurgent 45
ries 45
scaled 45
screen 45
sen 45
senator 45
separating 45
settling 45
sexually 45
sh-@@ 45
shake 45
shots 45
sin 45
smallest 45
spirits 45
static 45
stretched 45
stripped 45
subsistence 45
sup@@ 45
supplement 45
surprises 45
suspicions 45
tations 45
tense 45
ther@@ 45
tible 45
timetable 45
tin@@ 45
tourist 45
touted 45
uncontrolled 45
update 45
validity 45
vegetables 45
vindicated 45
É@@ 45
1997-1998 44
30-@@ 44
AMLO 44
Again 44
Agricultural 44
Angola 44
Ba@@ 44
Battle 44
Cro@@ 44
Dilma 44
Fidel 44
Governance 44
Grexit 44
ICC 44
IP@@ 44
Janata 44
Lu@@ 44
Mayor 44
Migration 44
Nord 44
Ph@@ 44
Relations 44
Tal@@ 44
That 44
They 44
Trust 44
Ve@@ 44
Yu@@ 44
Yukos 44
abused 44
accuse 44
aggravate 44
airlines 44
aling 44
alle@@ 44
anti-EU 44
appearances 44
ased 44
ately 44
attest 44
blackmail 44
bout 44
bread 44
buys 44
client 44
codependency 44
coincided 44
combustion 44
concentrations 44
cop@@ 44
cornerstone 44
coups 44
curtailing 44
database 44
dating 44
debilitating 44
decade-long 44
deli@@ 44
denies 44
density 44
detainees 44
devalue 44
disciplined 44
disrupting 44
dissident 44
dress 44
egalitarian 44
eligibility 44
eng@@ 44
envisaged 44
ered 44
evening 44
evenly 44
excludes 44
farmer 44
featured 44
fies 44
fitting 44
fluid 44
frontline 44
frustrating 44
gambling 44
gangs 44
gender-@@ 44
grandchildren 44
greener 44
guards 44
gun@@ 44
harmed 44
harvest 44
hazards 44
hesitant 44
holistic 44
inducing 44
inject 44
insurmountable 44
intentionally 44
intermediaries 44
invoke 44
ja@@ 44
justifies 44
leaning 44
lent 44
matches 44
mate 44
motor 44
mounted 44
muster 44
mutations 44
naïve 44
ney 44
noble 44
observations 44
originated 44
overlapping 44
petition 44
petro@@ 44
pho@@ 44
plo@@ 44
policing 44
pos@@ 44
precedents 44
prejudices 44
premier 44
presenting 44
pro-democracy 44
prosecuted 44
quagmire 44
quantum 44
recessionary 44
redistribute 44
reserved 44
restrain 44
revolutionaries 44
rigged 44
rit@@ 44
ruble 44
satisfying 44
sinister 44
sion-@@ 44
six-party 44
sober 44
social-democratic 44
sounding 44
spectacularly 44
subsidizing 44
substitutes 44
tall 44
tandem 44
tepid 44
threw 44
token 44
totaled 44
transformations 44
turnaround 44
tweet 44
unaware 44
unfinished 44
unfold 44
unnecessarily 44
unnoticed 44
ust 44
variation 44
videos 44
welcoming 44
winner-take-all 44
wo@@ 44
woefully 44
0.9 43
197@@ 43
198@@ 43
2.0 43
4.6 43
40,000 43
450 43
93 43
AL@@ 43
Accords 43
Adviser 43
Ambassador 43
Amsterdam 43
Angeles 43
BS 43
Bharatiya 43
Citigroup 43
Elizabeth 43
Friedrich 43
H. 43
Khatami 43
La 43
Man 43
Mitterrand 43
Order 43
Ossetia 43
Promise 43
Rise 43
Risk 43
Schröder 43
Sergei 43
Strait 43
VAT 43
Who 43
Zone 43
accomplishments 43
admiration 43
ain@@ 43
alling 43
anarchy 43
anti-European 43
anti-Western 43
apology 43
appealed 43
applicable 43
asks 43
aspiration 43
assigned 43
associate 43
avoids 43
awi 43
backbone 43
behaving 43
boring 43
brinkmanship 43
burdensome 43
ca 43
changer 43
char@@ 43
clothes 43
colonies 43
competitor 43
concluding 43
continuously 43
creators 43
creditworthiness 43
crimin@@ 43
cs 43
deeds 43
din@@ 43
dinner 43
distract 43
diverted 43
dogs 43
dom@@ 43
dominating 43
earliest 43
ears 43
eling 43
embarrassing 43
employs 43
ened 43
energy-intensive 43
eness 43
finger 43
fixed-@@ 43
fle@@ 43
foes 43
freshwater 43
frustrations 43
garment 43
grossly 43
guerrillas 43
high-risk 43
hotels 43
humiliated 43
hydro@@ 43
identifies 43
illusions 43
injuries 43
insecure 43
instrumental 43
insure 43
kick 43
kings 43
ladder 43
lap@@ 43
leaks 43
lease 43
leftists 43
localized 43
locals 43
long-range 43
lots 43
loudly 43
lunch 43
marginalization 43
mp@@ 43
nasty 43
nine-@@ 43
nu@@ 43
nurturing 43
of@@ 43
og@@ 43
ouster 43
pir@@ 43
pity 43
plummet 43
predictability 43
pro-market 43
programming 43
pronouncements 43
prosecute 43
reaffirm 43
reliably 43
rife 43
ris@@ 43
ron 43
sanctioned 43
satellites 43
sco@@ 43
skir@@ 43
smallholder 43
smuggling 43
sor@@ 43
start-up 43
steal 43
strikingly 43
subordinate 43
substitution 43
succumbed 43
sum@@ 43
swaths 43
tracks 43
tree 43
ug@@ 43
ura 43
ush 43
violates 43
violently 43
visas 43
vitality 43
wheat 43
wildlife 43
yearning 43
0.0@@ 42
1938 42
1953 42
1961 42
3-4 42
30@@ 42
350 42
40@@ 42
83 42
Banks 42
Bran@@ 42
CN@@ 42
CSU 42
Cam@@ 42
Consumer 42
Dar@@ 42
ExxonMobil 42
Fannie 42
Golden 42
Island 42
Leadership 42
Lenin 42
ME@@ 42
Mad@@ 42
Mari@@ 42
PPP 42
PRI 42
Pearl 42
Samuelson 42
Saud 42
Serb 42
Sin@@ 42
TA 42
Target 42
Test 42
Trap 42
Tunisian 42
US@@ 42
Ver@@ 42
Vo@@ 42
Wahhabi 42
Wolfgang 42
Yemeni 42
abortions 42
adherents 42
adhering 42
advertisers 42
allocations 42
amp 42
ases 42
attracts 42
bang 42
battery 42
below-@@ 42
birthday 42
blockade 42
bordering 42
breathe 42
bully 42
cam@@ 42
charities 42
chips 42
clauses 42
comment 42
commissions 42
communists 42
complicate 42
constitutions 42
cont@@ 42
contemplating 42
crowding 42
dam@@ 42
damages 42
dear 42
decarbonization 42
depletion 42
depths 42
dig@@ 42
dy@@ 42
ei@@ 42
el-@@ 42
endowments 42
enforceable 42
ential 42
ets 42
failings 42
feder@@ 42
fee 42
feeds 42
first-ever 42
forcefully 42
glaring 42
glass 42
gn@@ 42
graphic 42
hampered 42
heels 42
hurts 42
ids 42
ign@@ 42
impressed 42
instructive 42
intrinsic 42
investigative 42
isolating 42
lagged 42
levers 42
licensing 42
loopholes 42
lum@@ 42
minus 42
movies 42
muddle 42
navy 42
newfound 42
nurtured 42
ordering 42
ore@@ 42
palpable 42
paranoid 42
permission 42
pon@@ 42
positioning 42
precedence 42
prefers 42
prisoner 42
probable 42
prolong 42
ramifications 42
record-high 42
regaining 42
relieve 42
rendering 42
rent-seeking 42
resounding 42
respecting 42
retaliate 42
sacrificing 42
section 42
seventh 42
sits 42
social-security 42
spawned 42
stewardship 42
strip 42
tenets 42
terrifying 42
ts@@ 42
tti 42
underwater 42
uneasy 42
unsuccessful 42
unwise 42
us-@@ 42
veil 42
vigor 42
villagers 42
vitally 42
warheads 42
warmer 42
wide-ranging 42
win@@ 42
windfall 42
yuan 42
0,000 41
1920s 41
1957 41
2022 41
2035 41
4.8 41
98 41
AIG 41
About 41
Addis 41
Algerian 41
Ass@@ 41
Chase 41
Commonwealth 41
Curtain 41
Dec@@ 41
Dialogue 41
Dmitri 41
Doing 41
During 41
GST 41
Han@@ 41
Inflation 41
Institution 41
Ir@@ 41
Joe 41
Keqiang 41
Libyans 41
Lord 41
MD@@ 41
Mecca 41
Miller 41
Mozambique 41
Navy 41
PC 41
PKK 41
R2P 41
Recovery 41
Sahel 41
Saleh 41
Stanley 41
UAE 41
abolition 41
aches 41
ake 41
amend 41
analogies 41
anti-globalization 41
assurance 41
ata 41
atmospheric 41
avoidable 41
award 41
beggar-thy-neighbor 41
beleaguered 41
betrayal 41
biomass 41
brightest 41
burden-sharing 41
bureaucracies 41
calories 41
cancel 41
cares 41
cas@@ 41
cash-@@ 41
ce-@@ 41
ceremony 41
chip 41
cli@@ 41
climate-related 41
complaint 41
compounding 41
consistency 41
corporate-@@ 41
cost-benefit 41
counterweight 41
cumbersome 41
dared 41
defaulted 41
derives 41
distances 41
dit 41
dogma 41
dragging 41
euro@@ 41
exodus 41
exploded 41
ey@@ 41
facilitates 41
fend 41
fool 41
foot@@ 41
for-profit 41
generalized 41
genetics 41
gging 41
ghost 41
glimpse 41
hallmark 41
hindsight 41
illustrate 41
impartial 41
ination 41
indexed 41
inefficiencies 41
infants 41
inflation-@@ 41
ingenuity 41
instinct 41
institutionalized 41
instructions 41
inventions 41
kingdom 41
lasts 41
lat@@ 41
lavish 41
lessly 41
liberalize 41
loo@@ 41
lowers 41
man-made 41
massacres 41
master@@ 41
medieval 41
mitigated 41
money-market 41
muscular 41
notions 41
overt 41
overtaken 41
painfully 41
paraphrase 41
partition 41
passengers 41
phases 41
plunging 41
policy-@@ 41
pools 41
precondition 41
preliminary 41
preserved 41
prey 41
prospective 41
psychologists 41
pumping 41
recruiting 41
regained 41
renounce 41
repairing 41
runoff 41
sav@@ 41
saves 41
scratch 41
shaky 41
short- 41
slip 41
slipped 41
sophistication 41
sporting 41
sses 41
stre@@ 41
tam@@ 41
tame 41
tantamount 41
the-@@ 41
thri@@ 41
ticket 41
time@@ 41
tization 41
tolerated 41
tweeted 41
unreasonable 41
ured 41
varies 41
weighing 41
wiped 41
1900 40
20th 40
91 40
A-@@ 40
An 40
Assistance 40
Aviv 40
Bak@@ 40
Buffett 40
CTBT 40
Cham@@ 40
Confucian 40
Den@@ 40
Du@@ 40
Eurogroup 40
Fe@@ 40
Fin@@ 40
Four 40
Friday 40
Gar@@ 40
German-@@ 40
Hague 40
IA 40
Jiang 40
Kan 40
Mae 40
Nokia 40
Non-@@ 40
Okinawa 40
Orleans 40
Pakistanis 40
Protestant 40
Rajan 40
Ricardo 40
SEC 40
Schroeder 40
Sho@@ 40
Sou@@ 40
Stern 40
Terror 40
Tobacco 40
Too 40
UNESCO 40
US-Japan 40
Virginia 40
While 40
abyss 40
acutely 40
adi 40
administer 40
ado@@ 40
advisory 40
age-@@ 40
airspace 40
aligning 40
anism 40
attain 40
backers 40
bashing 40
battling 40
boast 40
boundary 40
breath 40
bypass 40
childcare 40
chronically 40
churches 40
cleared 40
coffers 40
collaborating 40
colossal 40
complexities 40
compounds 40
conceivable 40
contradicts 40
correcting 40
credited 40
crushing 40
customary 40
dealings 40
denounce 40
detriment 40
diesel 40
distracted 40
dol@@ 40
domains 40
doom 40
draw@@ 40
electrification 40
eled 40
ena 40
epic 40
eruption 40
expelled 40
flo@@ 40
flooded 40
forbidden 40
gestures 40
ght 40
hel@@ 40
hell 40
hol@@ 40
honored 40
hydrogen 40
inaugural 40
incendiary 40
insider 40
insiders 40
inspectors 40
intertwined 40
iring 40
jobless 40
kin@@ 40
laudable 40
lecture 40
lo 40
long-awaited 40
loser 40
low-skill 40
macroprudential 40
mechanical 40
meter 40
metropolitan 40
motivate 40
mountains 40
muscle 40
muted 40
nanotechnology 40
nationally 40
observe 40
ony 40
orship 40
oth@@ 40
pale 40
pendulum 40
physicists 40
planted 40
post-1945 40
post-2008 40
poured 40
preparedness 40
pretense 40
principled 40
profligacy 40
prowess 40
radioactive 40
reassert 40
recapitalize 40
recommendation 40
redundant 40
reg@@ 40
rein@@ 40
relaxing 40
rep@@ 40
residual 40
resource-rich 40
revelation 40
revitalize 40
righ@@ 40
schoolchildren 40
self-inflicted 40
shaking 40
shor@@ 40
sided 40
soci@@ 40
soft-power 40
stays 40
stoked 40
strongman 40
sue 40
supervisors 40
tag@@ 40
theorists 40
therapeutic 40
undocumented 40
unease 40
vacation 40
vaccinated 40
vo 40
voiced 40
war-@@ 40
weighted 40
wire 40
ł@@ 40
1956 39
1977 39
2040 39
79 39
84 39
9,000 39
AM@@ 39
Abdel 39
BRI 39
BRIC 39
Bear 39
Bolton 39
Brazilians 39
CALIFORNIA 39
CPI 39
Capitalism 39
Chechen 39
Christianity 39
Christine 39
Col@@ 39
DP 39
Delta 39
Diaoyu 39
Donbas 39
Ed@@ 39
Far 39
Fran@@ 39
Governors 39
H.W. 39
Harbor 39
Iran-@@ 39
Koran 39
Limits 39
Meeting 39
Mr. 39
My 39
OR@@ 39
Pew 39
Province 39
REDD 39
Reconstruction 39
Rus@@ 39
Scandinavia 39
Schumpeter 39
Sheikh 39
Slovenia 39
Sol@@ 39
The@@ 39
Tusk 39
Vietnamese 39
Young 39
Youth 39
accrue 39
advantageous 39
aled 39
ameliorate 39
any@@ 39
appeasement 39
arity 39
arrests 39
ash 39
atically 39
auspices 39
await 39
awakening 39
ba 39
bedrock 39
ben@@ 39
blatant 39
bode 39
borrower 39
bother 39
calculating 39
cattle 39
charitable 39
child-@@ 39
ck@@ 39
coexistence 39
comeback 39
commanders 39
commissioner 39
complicity 39
confrontational 39
coping 39
correlated 39
cotton 39
councils 39
crafting 39
culminating 39
debt-financed 39
decreasing 39
deferred 39
deprive 39
directives 39
editors 39
eg@@ 39
ely 39
emboldened 39
embraces 39
emp@@ 39
enrolled 39
entailed 39
eternal 39
ethically 39
exercising 39
exorbitant 39
expedi@@ 39
faded 39
flames 39
forceful 39
formulating 39
frankly 39
glo@@ 39
hackers 39
headway 39
hear@@ 39
hinges 39
homeless 39
hostilities 39
income-@@ 39
ine-@@ 39
inflow 39
insulate 39
insured 39
interviews 39
interwar 39
invade 39
investigating 39
itable 39
item 39
laundering 39
len@@ 39
lev@@ 39
lighting 39
longtime 39
maize 39
malign 39
mattered 39
mayhem 39
mentally 39
misuse 39
monitors 39
murders 39
nau@@ 39
oil-price 39
orbit 39
overseeing 39
overwhelm 39
paint 39
pap@@ 39
pas@@ 39
penchant 39
periodically 39
phasing 39
philanthropy 39
piecemeal 39
ple 39
poster 39
postponing 39
presumed 39
productivity-enhancing 39
profligate 39
proprietary 39
proudly 39
rallies 39
reacting 39
reassured 39
receipts 39
redefine 39
ref@@ 39
renegotiate 39
rers 39
resolute 39
resorting 39
respectable 39
revisionist 39
revol@@ 39
sacrificed 39
salient 39
sanctuary 39
scare 39
scramble 39
script 39
sect 39
selecting 39
signatory 39
speakers 39
starved 39
statesmen 39
stealing 39
stored 39
striving 39
supervisor 39
swe@@ 39
sy 39
tapering 39
tear 39
textiles 39
themes 39
til@@ 39
travails 39
travelers 39
triggers 39
truths 39
tter 39
ttle 39
underinvestment 39
unprepared 39
unsafe 39
untold 39
unwarranted 39
visionary 39
void 39
weren 39
wings 39
zero-carbon 39
&apos;@@ 38
.com 38
12@@ 38
15,000 38
1932 38
1946 38
1951 38
2º 38
4,@@ 38
400,000 38
Aid 38
Ara@@ 38
Ash@@ 38
Der@@ 38
Dick 38
Don 38
Dwight 38
ESG 38
Euroskeptic 38
Fifth 38
Geun-hye 38
Havel 38
Hi@@ 38
IC 38
ID@@ 38
IM@@ 38
Imperial 38
Indonesian 38
Interpol 38
Islamism 38
Jam@@ 38
Juan 38
Kabul 38
Khashoggi 38
Lahore 38
Long 38
Nasser 38
Press 38
Programme 38
Progressive 38
Ram@@ 38
Ross 38
Sahara 38
Sen@@ 38
Survey 38
Things 38
Threat 38
Zionist 38
acious 38
acks 38
airstrikes 38
aker 38
analyst 38
ano 38
ante 38
antitrust 38
appreciating 38
approached 38
apt 38
arbitration 38
arian 38
associates 38
atism 38
aya 38
batteries 38
binge 38
block@@ 38
brake 38
breathing 38
bribery 38
builders 38
cap-and-trade 38
capital-flow 38
catastrophes 38
ceased 38
cep@@ 38
cer 38
ch-@@ 38
clearinghouse 38
cling 38
commanding 38
compares 38
confidence-building 38
consumption-tax 38
converting 38
crony 38
crushed 38
cultivating 38
denomination 38
denouncing 38
deserved 38
destabilization 38
discovering 38
disguised 38
disp@@ 38
dispersed 38
displace 38
echoed 38
email 38
endanger 38
exuberance 38
financial-services 38
forcibly 38
foresight 38
fuel-@@ 38
grace 38
grateful 38
halving 38
harmonious 38
head-on 38
holder 38
holdouts 38
illegitimate 38
illusory 38
imper@@ 38
inherit 38
injustices 38
insignificant 38
intuitive 38
ji 38
joke 38
ko@@ 38
laborers 38
li 38
lia 38
long-time 38
mask 38
medication 38
medications 38
mel@@ 38
mighty 38
monuments 38
moribund 38
mortgage-backed 38
municipalities 38
neurons 38
nom@@ 38
northeast 38
occurrence 38
ounding 38
out-of-@@ 38
pal@@ 38
persisted 38
pocket 38
pop 38
post-election 38
price-@@ 38
proclaiming 38
protein 38
protesting 38
rallying 38
rav@@ 38
reactionary 38
real-time 38
reasoned 38
recovers 38
red@@ 38
refu@@ 38
rehabilitation 38
relate 38
renaissance 38
repo 38
reservations 38
reside 38
residence 38
salt 38
ser 38
shadows 38
sil@@ 38
sol@@ 38
someday 38
sorely 38
spontaneous 38
spur@@ 38
ss-@@ 38
ster@@ 38
sticks 38
stigma 38
sunlight 38
syn@@ 38
tal 38
tarnished 38
tious 38
tivity 38
too-big-to-fail 38
trade-off 38
tricky 38
tumor 38
tumultuous 38
turnover 38
undertook 38
unforeseen 38
unleashing 38
unlock 38
vivid 38
wished 38
wonderful 38
world-@@ 38
worst-case 38
-free 37
-like 37
.... 37
12-@@ 37
17.@@ 37
18-@@ 37
1963 37
19th 37
250,000 37
5.6 37
ACA 37
Ankara 37
Antarctic 37
Arabian 37
Bashir 37
Bismarck 37
Br@@ 37
DRC 37
Despite 37
Diet 37
Dollar 37
Emerging 37
Every 37
Gülenists 37
Hiroshima 37
Homo 37
Hope 37
IV 37
JPMorgan 37
Jackson 37
Japan-@@ 37
Jeffrey 37
Jonathan 37
Mag@@ 37
Mitchell 37
Nation 37
Navalny 37
Opportunity 37
Pas@@ 37
Pen@@ 37
Pervez 37
RC 37
Riyadh 37
Stat@@ 37
Stock 37
Tigers 37
Truman 37
Truth 37
Vi@@ 37
Wars 37
Wealth 37
Wo@@ 37
absorption 37
accords 37
ace 37
aded 37
amenable 37
amnesty 37
amplified 37
apartment 37
apathy 37
apes 37
arch@@ 37
arrogant 37
asserts 37
aud@@ 37
ax@@ 37
bac@@ 37
backsliding 37
bailing 37
bankruptcies 37
behaved 37
beli@@ 37
beneficiary 37
bigotry 37
bil@@ 37
blowing 37
bouts 37
boycott 37
break@@ 37
bud@@ 37
buffers 37
caps 37
cease-fire 37
cede 37
centrality 37
cervical 37
charging 37
cheating 37
cherished 37
communiqué 37
conglomerates 37
coral 37
credibly 37
cult 37
cutbacks 37
dan@@ 37
defied 37
definitely 37
discounted 37
disturbances 37
dormant 37
drink 37
ective 37
editorial 37
emotion 37
empires 37
energetic 37
ethanol 37
eu@@ 37
evic@@ 37
federation 37
fer@@ 37
fications 37
fiercely 37
fifty 37
flags 37
fli@@ 37
flies 37
flourishing 37
follow-up 37
footsteps 37
gates 37
geographically 37
gloomy 37
greedy 37
groundbreaking 37
haircut 37
han 37
harbor 37
highest-@@ 37
hydropower 37
icon 37
ideologically 37
igh@@ 37
implausible 37
impossibility 37
infighting 37
insulated 37
insult 37
internationalism 37
intimidate 37
invent 37
inventory 37
ished 37
itation 37
lab 37
laboratories 37
lauded 37
lends 37
liable 37
mann 37
mantle 37
manufacturer 37
maxim@@ 37
metal 37
microeconomic 37
modes 37
modify 37
nativist 37
nexus 37
oath 37
oil-producing 37
oil-rich 37
onic 37
ounce 37
outrageous 37
overlap 37
palace 37
payoff 37
pegged 37
perils 37
pharmaceuticals 37
pile 37
pioneered 37
pledging 37
poisoned 37
post-Brexit 37
pouring 37
pr@@ 37
practicing 37
premia 37
pro-cyclical 37
proc@@ 37
prohibits 37
prophecy 37
quoted 37
rati@@ 37
recurrence 37
references 37
reformer 37
regul@@ 37
remotely 37
repressed 37
republican 37
resentments 37
reset 37
revert 37
revolts 37
rosy 37
rot 37
ruins 37
run@@ 37
segregation 37
semblance 37
shar@@ 37
shoulders 37
sian 37
six@@ 37
slashing 37
slim 37
slipping 37
spo@@ 37
squeezed 37
ssed 37
stagflation 37
stimulated 37
stu@@ 37
sty 37
taxable 37
technology-@@ 37
textile 37
three-year 37
thwart 37
traced 37
translating 37
underdeveloped 37
unelected 37
unequivocally 37
univers@@ 37
unravel 37
upswing 37
usher 37
usti@@ 37
vic@@ 37
virulent 37
vs. 37
wards 37
washing 37
weekly 37
wiser 37
workings 37
wound 37
yer 37
youngest 37
125 36
1940s 36
25,000 36
4.1 36
4.@@ 36
50th 36
African-Americans 36
Allies 36
Arabic 36
Aung 36
Bloomberg 36
Bol@@ 36
Bon@@ 36
Brookings 36
Carl 36
Child 36
Cho@@ 36
Clo@@ 36
Coming 36
Crown 36
Democr@@ 36
Dominique 36
Dublin 36
EA@@ 36
EITC 36
FDP 36
Far@@ 36
Hamburg 36
Holland 36
IBM 36
Kerala 36
Liber@@ 36
Lincoln 36
Mnuchin 36
Mosul 36
Mugabe 36
Pal@@ 36
Palin 36
Patri@@ 36
Pennsylvania 36
Rec@@ 36
Ren@@ 36
Rim 36
Shinawatra 36
Standing 36
Theory 36
Tom@@ 36
Wal-Mart 36
Watch 36
Weapons 36
YouTube 36
abandonment 36
adept 36
aders 36
afflicting 36
after-tax 36
akes 36
alarmed 36
alistic 36
ances 36
answering 36
anybody 36
arithmetic 36
ase 36
asset-@@ 36
backfire 36
beacon 36
benchmarks 36
betrayed 36
bleeding 36
blunder 36
bolder 36
bottlenecks 36
brac@@ 36
breed 36
brighter 36
brokers 36
bull 36
buttress 36
celebrations 36
clerics 36
cohort 36
collusion 36
communicable 36
comparatively 36
congestion 36
consciously 36
convertibility 36
corrections 36
cricket 36
demand-@@ 36
demonetization 36
deterring 36
developed-country 36
disadvantages 36
disillusioned 36
distributing 36
dressed 36
dwindling 36
echoes 36
electing 36
elephant 36
energy-efficient 36
erected 36
evaluated 36
evidence-based 36
fading 36
faiths 36
far-fetched 36
featuring 36
ffs 36
fil@@ 36
fingers 36
flights 36
framing 36
front-@@ 36
fulness 36
geared 36
gifts 36
ha 36
halting 36
hard@@ 36
heartland 36
heavier 36
heavy-handed 36
homogeneous 36
homosexuality 36
hypocritical 36
ians 36
illustrated 36
importer 36
incursions 36
ini 36
initiating 36
injected 36
injury 36
insofar 36
instituted 36
interlocutors 36
intern@@ 36
ist-@@ 36
jeopardy 36
jury 36
kan@@ 36
kilograms 36
legitimize 36
legitimized 36
liberate 36
lung 36
macro-prudential 36
marched 36
maturities 36
mayors 36
ment-@@ 36
mini-grids 36
miscalculation 36
misunderstanding 36
monarchies 36
monetization 36
money-@@ 36
multi-year 36
navigating 36
negotiator 36
nerve 36
objected 36
one-size-fits-all 36
ounded 36
outsider 36
overthrown 36
packed 36
ped@@ 36
photo 36
pictures 36
piracy 36
pit@@ 36
pluralistic 36
pooling 36
portable 36
possessing 36
prescribed 36
proceeding 36
profit-@@ 36
propping 36
quell 36
radar 36
rebu@@ 36
refra@@ 36
regre@@ 36
retrospect 36
revaluation 36
revising 36
revisions 36
rings 36
rubble 36
runaway 36
shale-gas 36
shness 36
sights 36
sincere 36
smokers 36
sobering 36
sourcing 36
startling 36
stemmed 36
stockpile 36
stranger 36
substances 36
superpowers 36
tag 36
thwarted 36
tify 36
tioning 36
tis 36
tom@@ 36
top@@ 36
toughest 36
tun@@ 36
undue 36
unsettling 36
upturn 36
usefulness 36
ushered 36
verse 36
veterans 36
vigilant 36
viral 36
wreak 36
yan 36
á@@ 36
ü@@ 36
1964 35
1983 35
2000-@@ 35
3.1 35
4.4 35
4.7 35
71 35
750 35
800,000 35
Ababa 35
Alawite 35
BIS 35
Bachelet 35
CPC 35
CS@@ 35
Charlie 35
Comey 35
Credit 35
Dan@@ 35
EEA 35
EPP 35
Flynn 35
Gamal 35
Gor@@ 35
Greater 35
HA@@ 35
Hal@@ 35
Hill 35
Hol@@ 35
Hun 35
IA@@ 35
Income 35
Indo-Pacific 35
Jobs 35
Kha@@ 35
Lessons 35
Michigan 35
Ministers 35
Most 35
Novartis 35
Os 35
Out 35
Pad@@ 35
Phelps 35
Presidential 35
Pyongyang 35
Raúl 35
Real 35
Remain 35
Rex 35
Russia-@@ 35
Section 35
Ts 35
Tu@@ 35
US-based 35
Vs 35
Wi@@ 35
Ye@@ 35
Z 35
ables 35
abnormal 35
aces 35
aci@@ 35
across-the-board 35
adventure 35
ain 35
anti-Americanism 35
aspires 35
assaults 35
assertions 35
assisted 35
aters 35
awkward 35
bay 35
big@@ 35
bombed 35
bonus 35
bran@@ 35
cameras 35
cardiovascular 35
carrier 35
chambers 35
characterizes 35
charm 35
chest 35
cing 35
climbed 35
cluster 35
commerci@@ 35
conspicuous 35
contagious 35
contaminated 35
contraception 35
copyright 35
counteract 35
cows 35
deduction 35
defects 35
deliberations 35
dem@@ 35
depress 35
detected 35
dged 35
dismissing 35
distortion 35
distribu@@ 35
divergences 35
dness 35
donated 35
dried 35
dt 35
eagerly 35
eff@@ 35
embryos 35
emitted 35
emo@@ 35
enriching 35
equip 35
equity-@@ 35
evade 35
exceedingly 35
ey 35
fascinating 35
fif@@ 35
fighter 35
firsthand 35
fleet 35
flip 35
free@@ 35
full-@@ 35
furious 35
ga 35
hampering 35
handing 35
hanging 35
hesitation 35
heterodox 35
high-growth 35
hinder 35
home@@ 35
honesty 35
horizons 35
hype 35
idity 35
inaccurate 35
inate 35
inciting 35
indefinite 35
information-@@ 35
interbank 35
ises 35
just-@@ 35
lanes 35
lation 35
leak 35
lier 35
lifeline 35
macro-@@ 35
meals 35
meritocracy 35
minimum-wage 35
mir 35
murky 35
natural-gas 35
nutrients 35
ols 35
oneself 35
oper@@ 35
oph@@ 35
overseen 35
ows 35
pair 35
parliamentarians 35
partially 35
pathogens 35
pathways 35
percentage-point 35
perpetuating 35
pointless 35
pollutants 35
posted 35
proclaim 35
proverbial 35
puzzling 35
raft 35
rai@@ 35
rants 35
read@@ 35
realignment 35
reaping 35
recalled 35
recalling 35
recommends 35
reinvent 35
reply 35
rescuing 35
rigidities 35
san@@ 35
scored 35
securitization 35
self-confidence 35
sequ@@ 35
shoot 35
short-sighted 35
sow 35
spilled 35
sta@@ 35
stakeholder 35
stamp 35
state-controlled 35
staunch 35
stave 35
stereotypes 35
swee@@ 35
sword 35
technique 35
then-President 35
timid 35
tin 35
traffickers 35
tribunals 35
ub@@ 35
ud 35
um-@@ 35
underlies 35
unipolar 35
usable 35
visibly 35
whi@@ 35
-minded 34
100-@@ 34
190@@ 34
1936 34
25-@@ 34
40-@@ 34
5.2 34
9.5 34
AC 34
AT 34
Advisers 34
And 34
Armenian 34
Benjamin 34
By 34
Chapter 34
Coast 34
Confucianism 34
Cs 34
Currency 34
Daily 34
ER@@ 34
Ford 34
Gam@@ 34
Goal 34
Helmut 34
Hindus 34
Ivoire 34
Jean 34
Kyrgyzstan 34
Lake 34
Laos 34
Len@@ 34
Line 34
Mat@@ 34
Medicine 34
Mic@@ 34
Montreal 34
Nehru 34
Obrador 34
Operation 34
Progress 34
Rom@@ 34
SO@@ 34
Sandy 34
Sil@@ 34
Sochi 34
Sputnik 34
Steve 34
Stu@@ 34
Sun@@ 34
Tobin 34
Tor@@ 34
Ty@@ 34
Valls 34
Wang 34
Zuckerberg 34
abolishing 34
abundantly 34
accommodative 34
ace@@ 34
acknowledgement 34
affirmative 34
aking 34
annexed 34
anom@@ 34
appointees 34
ara 34
arable 34
assassinated 34
averting 34
ballots 34
belonged 34
bend 34
births 34
biting 34
breeds 34
broadcasting 34
buy-@@ 34
cartel 34
centralization 34
challenger 34
checking 34
cigarette 34
clearest 34
clerical 34
clinic 34
comb@@ 34
conditioning 34
consisting 34
consulted 34
contamination 34
counsel 34
cri@@ 34
criticisms 34
curtailed 34
daring 34
dashed 34
day-to-day 34
derailed 34
destroys 34
determinants 34
devil 34
dictum 34
dimensional 34
disabilities 34
disengagement 34
disillusion 34
doubted 34
dr@@ 34
drafting 34
dynastic 34
editor 34
educators 34
eighth 34
elementary 34
elitist 34
endangering 34
endowed 34
erodes 34
ex 34
exemptions 34
expedient 34
feminism 34
flowed 34
fosters 34
fri@@ 34
fury 34
graft 34
hard-won 34
heel 34
heralded 34
ica 34
idealism 34
idly 34
inception 34
incoherent 34
injection 34
interrupted 34
interventionist 34
inventories 34
inventors 34
inward-looking 34
ious 34
joy 34
kov 34
lackluster 34
lectures 34
levied 34
liberalized 34
lobbied 34
lottery 34
m-@@ 34
mag@@ 34
managerial 34
manifestations 34
meal 34
men@@ 34
menace 34
mid-1990 34
migrated 34
missile-defense 34
mod@@ 34
mone@@ 34
moon 34
myths 34
nationalization 34
navigation 34
nuclear-power 34
observ@@ 34
oll@@ 34
onal 34
onerous 34
ouse 34
outer 34
overestimate 34
overtake 34
ozone 34
paltry 34
paranoia 34
patron 34
penetration 34
persuasion 34
plug 34
poly@@ 34
post-conflict 34
power-sharing 34
preemptive 34
presumption 34
prim@@ 34
prince 34
princes 34
private-@@ 34
profiles 34
prominently 34
psychiatric 34
pushes 34
reining 34
remark 34
replicate 34
repu@@ 34
resorted 34
respiratory 34
restart 34
resumed 34
rich-country 34
ridden 34
rs 34
rup@@ 34
sanction 34
sealed 34
similarity 34
sit@@ 34
slave 34
smartphone 34
snap 34
sou@@ 34
standstill 34
strings 34
strongmen 34
stubborn 34
subsidiary 34
superficial 34
sworn 34
tap@@ 34
teaches 34
terror@@ 34
tile 34
titude 34
tives 34
toppling 34
tor-@@ 34
tradeoffs 34
transparently 34
traps 34
trips 34
truce 34
ums 34
unaffordable 34
unambiguous 34
uncompetitive 34
unfavorable 34
unproductive 34
upgraded 34
veteran 34
vian 34
well-established 34
whopping 34
wit@@ 34
wondered 34
zer 34
zzle 34
,500 33
1939 33
2010-@@ 33
3.9 33
4.2 33
8th 33
Albert 33
Arthur 33
B. 33
Bec@@ 33
Brezhnev 33
CAPE 33
CD@@ 33
Camp 33
Chilean 33
Cities 33
Clin@@ 33
Corps 33
Cur@@ 33
Deep@@ 33
Eichengreen 33
Emperor 33
Employment 33
Exchequer 33
Financing 33
Forward 33
French-@@ 33
Guangdong 33
Hel@@ 33
Holy 33
Huawei 33
Janeiro 33
Kushner 33
Louis 33
Mac 33
Major 33
Malawi 33
Mill 33
NA 33
Namibia 33
Norwegian 33
Orwell 33
PBC 33
Paulson 33
Peoples 33
Post-@@ 33
Queen 33
Realpolitik 33
Romanian 33
SE@@ 33
SGP 33
SR@@ 33
Sam 33
Serbs 33
Shenzhen 33
Space 33
Tar@@ 33
Tech 33
Uzbekistan 33
Venice 33
Winter 33
Yor@@ 33
Zhu 33
administrators 33
adolescents 33
arisen 33
asc@@ 33
attests 33
avenues 33
bastion 33
blin@@ 33
bloggers 33
blunders 33
boldly 33
bottle 33
bow 33
branded 33
businesspeople 33
cannabis 33
chasing 33
classrooms 33
clean@@ 33
cleric 33
commons 33
compliant 33
conceivably 33
confidently 33
consensual 33
conserv@@ 33
contender 33
convictions 33
country-@@ 33
crippled 33
curiosity 33
cyclically 33
decoupling 33
defl@@ 33
degraded 33
delu@@ 33
derivative 33
destabilized 33
discomfort 33
displays 33
disregarded 33
dissolve 33
diver@@ 33
divestment 33
divine 33
drowning 33
eas@@ 33
ects 33
egg 33
electr@@ 33
electrical 33
elegant 33
emails 33
erect 33
espoused 33
estimating 33
exacerbates 33
exposes 33
extensively 33
externally 33
fel@@ 33
fences 33
fer 33
fertilizers 33
fic@@ 33
files 33
fracking 33
fts 33
generously 33
graduation 33
gravest 33
gy@@ 33
habitat 33
halfway 33
hammer 33
hand-@@ 33
hazardous 33
health-insurance 33
herald 33
hood 33
hook 33
humility 33
hydrocarbon 33
hyperinflation 33
incursion 33
inextricably 33
insurgent 33
intangible 33
itated 33
ja 33
jeopardized 33
keepers 33
knowledge-based 33
leg 33
licensed 33
lif@@ 33
locking 33
log@@ 33
mafia 33
males 33
masked 33
medi@@ 33
militarism 33
mob 33
modeled 33
mold 33
monks 33
motor@@ 33
muddled 33
newest 33
offenses 33
onward 33
optim@@ 33
orchestrated 33
outdoor 33
outraged 33
parental 33
parochial 33
performs 33
pernicious 33
personalities 33
photos 33
physician 33
pitfalls 33
publicity 33
qualifications 33
randomized 33
rationality 33
rationing 33
reclaim 33
reestablish 33
regressive 33
relocate 33
replaces 33
restrained 33
retribution 33
rev@@ 33
risk-sharing 33
risk@@ 33
risked 33
salvation 33
shining 33
shoots 33
simplify 33
slash 33
slightest 33
sof@@ 33
soldier 33
spec@@ 33
statesman 33
streams 33
submission 33
syndrome 33
tains 33
technology-driven 33
telecoms 33
thank 33
thir@@ 33
tigh@@ 33
tolerable 33
totalitarianism 33
tract 33
tragedies 33
trans 33
transactional 33
transmit 33
treason 33
tricks 33
trilateral 33
trucks 33
typ@@ 33
ual 33
uck@@ 33
ude 33
undo 33
unify 33
untapped 33
untested 33
upsurge 33
ut 33
vac@@ 33
vent@@ 33
vered 33
ville 33
vow 33
wane 33
watches 33
whites 33
wives 33
worship 33
x-@@ 33
xi@@ 33
youthful 33
,0@@ 32
-market 32
18th 32
2003-@@ 32
35-@@ 32
60,000 32
60th 32
96 32
AD 32
Ali@@ 32
Americana 32
BRICs 32
Bangladeshi 32
Bas@@ 32
Benghazi 32
Bor@@ 32
CH@@ 32
CO 32
Carbon 32
Colonel 32
Cre@@ 32
Côte 32
DS 32
Dow 32
Dre@@ 32
EC 32
EU-15 32
FDIC 32
Hab@@ 32
IS 32
Il@@ 32
Ji@@ 32
Johannesburg 32
Kelly 32
Lima 32
Luther 32
Made 32
Marxism 32
Michelle 32
Monnet 32
Nikita 32
Op@@ 32
Ori@@ 32
Philippine 32
Point 32
Por@@ 32
Res@@ 32
Ric@@ 32
STEM 32
Salaf@@ 32
Shia-@@ 32
Solzhenitsyn 32
Stearns 32
Str@@ 32
Sun 32
Tajikistan 32
Vic@@ 32
Wel@@ 32
Zs 32
abduction 32
abstr@@ 32
accidental 32
acquiescence 32
acupuncture 32
adequacy 32
admits 32
advanced-economy 32
adventures 32
advise 32
ae 32
aming 32
amplify 32
anti-Muslim 32
apologies 32
appease 32
appliances 32
apprehension 32
astounding 32
asu@@ 32
ater 32
authentic 32
auto@@ 32
awaits 32
benevolent 32
blames 32
blanket 32
blog 32
broadened 32
brokered 32
cage 32
calibrated 32
cher 32
chicken 32
cians 32
clear-cut 32
commercially 32
common@@ 32
confisc@@ 32
conspicuously 32
consumer-@@ 32
contents 32
contractionary 32
conveniently 32
coun@@ 32
countered 32
cracking 32
crashed 32
databases 32
dated 32
deposed 32
depriving 32
detractors 32
diagnostics 32
diminishes 32
direc@@ 32
disbur@@ 32
disguise 32
dismantled 32
divi@@ 32
documentary 32
dow 32
dre@@ 32
du 32
earthquakes 32
elec@@ 32
eminent 32
emotionally 32
enactment 32
endorsing 32
engages 32
epicenter 32
eth@@ 32
euro-@@ 32
exhibit 32
extravagant 32
fiscal-policy 32
foe 32
four-year 32
frank 32
frictions 32
frightened 32
fun 32
genomics 32
gist 32
glaciers 32
grandfather 32
grappling 32
grips 32
gro@@ 32
hair 32
hangs 32
heady 32
heir 32
hint 32
hydrocarbons 32
iconic 32
id-@@ 32
incredibly 32
ind@@ 32
indicted 32
inequities 32
inflate 32
inflicting 32
inhibit 32
inspections 32
inter-Korean 32
invoking 32
irresistible 32
jihadism 32
knees 32
lamented 32
late-@@ 32
latent 32
lau@@ 32
leveled 32
lid 32
lied 32
life-threatening 32
lined 32
listened 32
loading 32
long-overdue 32
madness 32
materialized 32
medic@@ 32
meth@@ 32
mistakenly 32
modeling 32
monumental 32
mosques 32
mouth 32
multitude 32
naked 32
needing 32
neg@@ 32
noise 32
normative 32
occupational 32
offline 32
oming 32
one@@ 32
ound 32
ounds 32
packaged 32
packaging 32
paradoxical 32
paving 32
peacekeepers 32
per-@@ 32
permissible 32
pioneer 32
pit 32
plainly 32
poison 32
polarizing 32
polluters 32
pornography 32
post-WWII 32
pot@@ 32
pounds 32
presumptive 32
primaries 32
privatize 32
prohibitively 32
protested 32
rab@@ 32
rebuilt 32
recapture 32
refinance 32
refined 32
reform-minded 32
regi@@ 32
relax 32
relegated 32
relocation 32
renowned 32
resent 32
restive 32
reviewed 32
riches 32
riddled 32
sacked 32
saddled 32
scapegoat 32
scholarly 32
sea-@@ 32
secretly 32
security-@@ 32
sex@@ 32
sham 32
shapes 32
shir@@ 32
short-termism 32
sible 32
silenced 32
simplest 32
skyrocketing 32
spe@@ 32
stal@@ 32
standardized 32
startup 32
ste 32
strategists 32
summary 32
sweep 32
taboos 32
teachings 32
tears 32
tele@@ 32
thrust 32
tilted 32
tops 32
tracked 32
unequivocal 32
unfounded 32
unwelcome 32
upper-@@ 32
urs 32
utmost 32
verbal 32
vet 32
victors 32
walked 32
wan@@ 32
watch@@ 32
well-defined 32
well-educated 32
win-win 32
xed 32
00 31
1-2 31
193@@ 31
1965 31
4-5 31
5.7 31
6.4 31
7.6 31
8.@@ 31
African-American 31
As@@ 31
Bin 31
Bou@@ 31
Bridge 31
Coal 31
Correa 31
Cristina 31
DS@@ 31
Dam@@ 31
Dhaka 31
ESDP 31
Ethics 31
Euroskeptics 31
Geo@@ 31
Green@@ 31
Greens 31
HPV 31
Hawaii 31
Hoover 31
IPS 31
Ivan 31
Jean-@@ 31
Jer@@ 31
Kennan 31
Ker@@ 31
LGBT 31
Mars 31
Marxist 31
Mattis 31
Mekong 31
Nawaz 31
OM@@ 31
ON@@ 31
PI@@ 31
Pandora 31
Principles 31
Ramaphosa 31
Rev@@ 31
Rule 31
Save 31
Scott 31
Siberia 31
Sim@@ 31
Srebrenica 31
Supp@@ 31
Sydney 31
Ti@@ 31
Transparency 31
Tre@@ 31
Wolf 31
Yo@@ 31
Zardari 31
accelerates 31
achieves 31
alien 31
anic 31
anonymity 31
anti-immigration 31
appe@@ 31
ared 31
arms-control 31
ascent 31
assemble 31
bag 31
blows 31
bodes 31
border-@@ 31
bothered 31
bots 31
breaches 31
cake 31
captive 31
carriers 31
catch@@ 31
categor@@ 31
causal 31
centerpiece 31
chaebols 31
chorus 31
chur@@ 31
commun@@ 31
conceded 31
conjunction 31
constitutionally 31
contributors 31
corrosive 31
cronyism 31
cruelty 31
crush 31
dar@@ 31
dding 31
dearly 31
debt-service 31
decidedly 31
dele@@ 31
demand-side 31
destinations 31
devoid 31
dian 31
differs 31
disappearing 31
discrepancy 31
disinflation 31
displacing 31
distraction 31
disturbed 31
dreamed 31
drowned 31
dwellers 31
early-@@ 31
early-stage 31
editing 31
emerging-economy 31
enced 31
ende@@ 31
enmity 31
equitably 31
ere 31
erecting 31
ese 31
evolves 31
exiled 31
expropriation 31
fateful 31
fix@@ 31
fixated 31
fraudulent 31
fray 31
freezing 31
gal@@ 31
glorious 31
harms 31
hedging 31
hi 31
hierarchical 31
hinted 31
hopeless 31
house@@ 31
hunt 31
imperialist 31
indictment 31
inspection 31
instructed 31
invasive 31
investigated 31
investment-led 31
irrit@@ 31
issuers 31
itous 31
ji@@ 31
ket 31
kick-start 31
lament 31
land-use 31
law-enforcement 31
lawlessness 31
legendary 31
lira 31
lity 31
livelihood 31
looser 31
louder 31
mali@@ 31
marginally 31
mental-health 31
modern-day 31
modestly 31
multiply 31
normalcy 31
not@@ 31
one-off 31
organism 31
overblown 31
overestimated 31
overriding 31
overstated 31
pack 31
pariah 31
peer-to-peer 31
philanthropic 31
pluralist 31
politicization 31
pour 31
preclude 31
precursor 31
predictive 31
progressed 31
proliferating 31
protocols 31
psycho@@ 31
quote 31
races 31
reads 31
reckon 31
redirect 31
reefs 31
reelected 31
relaxation 31
remorse 31
rested 31
reversals 31
ria 31
right-@@ 31
risk-averse 31
romantic 31
row@@ 31
rushing 31
sanity 31
secrets 31
sectoral 31
seizure 31
sexuality 31
sey 31
sharper 31
singled 31
sizes 31
sli@@ 31
slope 31
slums 31
solvent 31
staffed 31
starving 31
state-sponsored 31
stationed 31
sterilization 31
stro@@ 31
suggestions 31
super-rich 31
switched 31
ten-@@ 31
thro@@ 31
tilt 31
timed 31
tipped 31
toolkit 31
trade-offs 31
trail 31
tuous 31
twins 31
ues 31
unchallenged 31
unfunded 31
unmistakable 31
unused 31
upend 31
uri 31
vendors 31
venue 31
wasting 31
websites 31
wedge 31
well-designed 31
wielding 31
worn 31
xing 31
yawning 31
-of-@@ 30
101 30
190 30
1941 30
1958 30
1976 30
3,@@ 30
ANC 30
Abraham 30
Aquino 30
BAT 30
BNP 30
Baker 30
Borders 30
Burkina 30
CDF 30
Chad 30
Cross 30
District 30
Doctrine 30
Dr. 30
Evo 30
Faso 30
Foshan 30
G8 30
German@@ 30
Ghraib 30
Go 30
Greenland 30
HC 30
Hamid 30
Higgs 30
Interest 30
Jones 30
Jud@@ 30
Khmer 30
Las 30
Leonid 30
Leviathan 30
MP 30
Maghreb 30
Malaysian 30
Mauritius 30
NAM 30
Ob@@ 30
Pap@@ 30
Pompeo 30
Punjab 30
Relief 30
Responsibility 30
SCAF 30
Samsung 30
Sand@@ 30
Sharia 30
Sichuan 30
Spe@@ 30
Steven 30
Stuart 30
Study 30
Sunni-@@ 30
T-@@ 30
THAAD 30
Tribunal 30
Tripoli 30
Trump-@@ 30
Tw@@ 30
Twenty-First 30
Under 30
Vegas 30
Watanabe 30
Watson 30
Weber 30
Wh@@ 30
Zurich 30
adaptive 30
addictive 30
afloat 30
alienate 30
alizations 30
alty 30
amazing 30
ania 30
animosity 30
anti-Japanese 30
anti-democratic 30
anu@@ 30
app@@ 30
arities 30
artillery 30
ase@@ 30
asymmetry 30
ati 30
attackers 30
autocracies 30
aviation 30
awa@@ 30
awaiting 30
awash 30
ays 30
basing 30
battered 30
beholden 30
beside 30
bluntly 30
breathtaking 30
brewing 30
buck 30
bulwark 30
c-@@ 30
captures 30
carbon-dioxide 30
cash-strapped 30
cer@@ 30
chemotherapy 30
circulating 30
clan 30
colors 30
column 30
commemorate 30
complicit 30
conce@@ 30
concentrating 30
confuse 30
consul@@ 30
contractual 30
contradict 30
corps 30
counterbalance 30
crashes 30
custody 30
decimated 30
del@@ 30
deleverage 30
democratizing 30
dental 30
depicted 30
despotic 30
diffuse 30
discourages 30
double-dip 30
edition 30
eliminates 30
embarrassment 30
emigration 30
emitters 30
ences 30
encro@@ 30
enlarged 30
entrance 30
envision 30
escalated 30
exceptionalism 30
exits 30
expansive 30
faithful 30
fantasies 30
fifteen 30
fishermen 30
frac@@ 30
fran@@ 30
ful@@ 30
gambit 30
gan 30
gists 30
gli@@ 30
grabs 30
grams 30
grandiose 30
grapple 30
great-power 30
guest 30
handouts 30
happier 30
harbinger 30
harnessing 30
health-@@ 30
hefty 30
high-end 30
hopelessly 30
hukou 30
hunting 30
hypothetical 30
impulses 30
incitement 30
incorporating 30
indiscriminate 30
insurrection 30
inter-governmental 30
interconnectedness 30
intergenerational 30
intimate 30
intuition 30
itor 30
ivory 30
justifiable 30
largesse 30
last-minute 30
leaf 30
leveling 30
libel 30
liber@@ 30
lightly 30
loosely 30
lou@@ 30
low-skilled 30
lure 30
maj@@ 30
mar 30
mas 30
mastery 30
measurements 30
mechan@@ 30
mediation 30
medium- 30
mega-regional 30
megabanks 30
meritocratic 30
middle- 30
middle-@@ 30
mirrors 30
mismatches 30
mockery 30
monopoli@@ 30
morphed 30
motto 30
muddling 30
natives 30
neglecting 30
neutralize 30
never-ending 30
newer 30
nitrogen 30
no-fly 30
non-violent 30
normality 30
ods 30
ominously 30
onian 30
orph@@ 30
ose 30
oun@@ 30
oxygen 30
pardon 30
passport 30
peace-@@ 30
philanthropists 30
plac@@ 30
plutonium 30
pol@@ 30
pre-emptive 30
privatized 30
pro-Western 30
problem-solving 30
procedural 30
proportional 30
propped 30
psychologically 30
ption 30
publics 30
raid 30
re-establish 30
realist 30
recording 30
replicated 30
resonate 30
resonates 30
respectful 30
retaliatory 30
rock-bottom 30
satisfactory 30
scales 30
screens 30
secretary-general 30
sectarianism 30
sections 30
secularists 30
self-reinforcing 30
shallow 30
shortcoming 30
simplicity 30
sixteenth 30
sle@@ 30
slow-@@ 30
somebody 30
soybeans 30
spi@@ 30
storing 30
stranded 30
stricken 30
sued 30
superstar 30
synchronized 30
tang@@ 30
tempered 30
th-largest 30
thin@@ 30
throne 30
tifying 30
tiger 30
tionary 30
tive-@@ 30
tournament 30
tying 30
unbridled 30
undercutting 30
undone 30
unethical 30
unsettled 30
unsure 30
use@@ 30
utopian 30
vanish 30
variants 30
verifiable 30
victor 30
waited 30
warriors 30
watchdog 30
weary 30
wel@@ 30
zi 30
à 30
13th 29
16.@@ 29
2021 29
7.@@ 29
700,000 29
89 29
AD@@ 29
AP 29
According 29
Af@@ 29
Aires 29
Bab@@ 29
Blue 29
CA@@ 29
CDS 29
Canal 29
Catalan 29
Commons 29
Compact 29
Dawn 29
Def@@ 29
E. 29
Farage 29
Franco 29
Freddie 29
GNI 29
Hai@@ 29
Haldane 29
Hole 29
Hon@@ 29
IEA 29
Internet-@@ 29
JPM 29
Kadima 29
Ken 29
Kuroda 29
MDG 29
MO@@ 29
Mbeki 29
Missile 29
Museum 29
NCD 29
Nagasaki 29
Nuremberg 29
Platform 29
Rab@@ 29
Ran@@ 29
Regulation 29
Resistance 29
Romer 29
Rouge 29
Sav@@ 29
Self-Defense 29
Some 29
Sup@@ 29
São 29
Techno@@ 29
Thin@@ 29
Trading 29
Tuberculosis 29
UMNO 29
UNHCR 29
Wolfensohn 29
Wrong 29
Xiaobo 29
Yahoo 29
abducted 29
able-@@ 29
adamant 29
adopts 29
advising 29
agony 29
aiding 29
all-powerful 29
allure 29
altruistic 29
anda 29
antipathy 29
antiretroviral 29
apocalyptic 29
applauded 29
appro@@ 29
apps 29
arc 29
arians 29
arrives 29
atri@@ 29
authorization 29
averages 29
belligerent 29
biop@@ 29
blurred 29
boasted 29
boldness 29
built-in 29
cali@@ 29
casualty 29
cat 29
chec@@ 29
chickens 29
chilling 29
cies 29
circum@@ 29
clues 29
collabor@@ 29
collision 29
colon@@ 29
commands 29
compensating 29
conceal 29
confrontations 29
conquest 29
consist 29
constituent 29
coo@@ 29
corners 29
corridor 29
cubic 29
decades-long 29
del 29
dence 29
densely 29
dev@@ 29
diagnoses 29
diamond 29
dier 29
differentiated 29
dignified 29
dim 29
disclosed 29
disconnected 29
détente 29
ech@@ 29
ego@@ 29
embarking 29
enclaves 29
encounters 29
end-@@ 29
engulfed 29
enthusiastically 29
entrusted 29
equations 29
eradicated 29
erred 29
ert 29
ethnically 29
evacuation 29
ever-increasing 29
exchanging 29
executing 29
explode 29
facile 29
fanatics 29
fanfare 29
faulty 29
fester 29
fol@@ 29
forego 29
fractured 29
friend@@ 29
funders 29
gas@@ 29
gene@@ 29
gon@@ 29
governs 29
grandparents 29
graphy 29
gut 29
hardened 29
hindered 29
hitherto 29
hovering 29
humankind 29
ideologues 29
illiterate 29
impe@@ 29
induc@@ 29
inescapable 29
instituting 29
instruc@@ 29
ital 29
jargon 29
justifying 29
ker@@ 29
kidney 29
knit 29
labeling 29
lame 29
lawless 29
league 29
left-leaning 29
legs 29
leprosy 29
lever 29
licenses 29
long@@ 29
low-productivity 29
malicious 29
manifesto 29
medals 29
menu 29
mid-term 29
misallocation 29
misinformation 29
moderated 29
modicum 29
mortal 29
mul@@ 29
multi-polar 29
multifaceted 29
mundane 29
museum 29
mutation 29
mysterious 29
narrower 29
neatly 29
net-@@ 29
nicotine 29
non-EU 29
non-Western 29
non-traditional 29
nud@@ 29
obstruc@@ 29
oppressed 29
organizers 29
outreach 29
overreach 29
overthrew 29
pacts 29
pain@@ 29
painted 29
panicked 29
paternalism 29
peaks 29
peasant 29
ph 29
pin 29
playbook 29
ple@@ 29
policemen 29
pope 29
posi@@ 29
possessed 29
power-@@ 29
precipitously 29
premiership 29
presses 29
prestigious 29
pretending 29
primitive 29
probabilities 29
professions 29
proportionate 29
reception 29
reciprocity 29
record-low 29
reeling 29
regim@@ 29
remainder 29
renders 29
replete 29
reputational 29
revi@@ 29
ringing 29
ripe 29
roy@@ 29
rulings 29
sabotage 29
sadness 29
sand@@ 29
sea-level 29
senses 29
servic@@ 29
sessions 29
seventeenth 29
shi 29
sia 29
sing@@ 29
siveness 29
sizable 29
sky-high 29
smartphones 29
smugglers 29
sociologist 29
solic@@ 29
sourced 29
spar@@ 29
spy 29
squeezing 29
staging 29
staple 29
state-led 29
statecraft 29
steering 29
stering 29
stones 29
stop@@ 29
strategist 29
structurally 29
subpar 29
supplements 29
swath 29
swimming 29
synthesis 29
system@@ 29
tally 29
taming 29
tan 29
tapped 29
tar 29
tastes 29
tax@@ 29
termed 29
theorist 29
thumb 29
tian 29
tic-@@ 29
tness 29
trace 29
traces 29
trans-@@ 29
tsunamis 29
turbines 29
una 29
unanimity 29
uncovered 29
undeniably 29
underlie 29
unfolded 29
unstoppable 29
unsurprising 29
upstream 29
uro@@ 29
value-@@ 29
vitamin 29
well-intentioned 29
www.@@ 29
yev 29
zeal 29
0.25 28
00-@@ 28
193 28
20-30 28
2007-@@ 28
230 28
240 28
4.9 28
5.1 28
5.3 28
5.8 28
600,000 28
7.7 28
Adolf 28
Adua 28
Ahmedinejad 28
Alex@@ 28
Andre@@ 28
Antarctica 28
Bad@@ 28
Barak 28
Basic 28
Bel@@ 28
Bomb 28
CB@@ 28
Carolina 28
Cas@@ 28
Channel 28
Cruz 28
Down 28
Duma 28
Eng@@ 28
Eric 28
Family 28
Frank 28
Gary 28
Gavi 28
Geert 28
Geithner 28
Gul 28
Humala 28
INDCs 28
Independent 28
Institutes 28
Inácio 28
Jack 28
Jared 28
Jordanian 28
Kevin 28
Leninist 28
MFIs 28
Ma 28
Maldives 28
Maliki 28
Manhattan 28
Maoist 28
May@@ 28
Much 28
Mussolini 28
Myth 28
NEWPORT 28
Nationalist 28
Pashtun 28
Pat@@ 28
Paulo 28
Petroleum 28
Piñera 28
Protec@@ 28
Pur@@ 28
QE3 28
Rate 28
Regulatory 28
Renaissance 28
SA@@ 28
Sar@@ 28
Schmidt 28
Sev@@ 28
Slobodan 28
Smoot-Hawley 28
Soviet-@@ 28
Tariffs 28
Tha@@ 28
Thucydides 28
Tran@@ 28
Tro@@ 28
Turkmenistan 28
Ur@@ 28
Us 28
Van 28
Well@@ 28
Woodrow 28
Yar 28
above-@@ 28
abusive 28
accompanies 28
addicted 28
adolescent 28
adulthood 28
air-@@ 28
airplane 28
alter@@ 28
alumni 28
anc@@ 28
ancy 28
aned 28
animated 28
announcements 28
anomaly 28
ap 28
apolo@@ 28
arti@@ 28
astro@@ 28
asymmetrical 28
bble 28
bio-@@ 28
bird 28
blood@@ 28
bounds 28
breakout 28
bursting 28
capped 28
captain 28
cent 28
characters 28
checked 28
chem@@ 28
chlor@@ 28
circuit 28
cites 28
cocoa 28
collateralized 28
comforting 28
commentator 28
commonplace 28
competi@@ 28
complaining 28
compreh@@ 28
concomitant 28
configuration 28
conserve 28
contemplated 28
continents 28
contingency 28
counter-terrorism 28
cured 28
cyber@@ 28
dar 28
darkness 28
deaf 28
deceleration 28
decency 28
deficit-@@ 28
definitions 28
defying 28
depressive 28
deprivation 28
deton@@ 28
differing 28
directive 28
dishon@@ 28
dislike 28
dispar@@ 28
distinguishing 28
dog@@ 28
dor 28
dreaded 28
ef 28
embroiled 28
entrepreneur 28
equi@@ 28
euphoria 28
execute 28
expulsion 28
extra-@@ 28
eyed 28
faculty 28
fan@@ 28
fanciful 28
fats 28
feeble 28
figured 28
firepower 28
fit@@ 28
floo@@ 28
forgiven 28
fracturing 28
frenzy 28
front-loaded 28
für 28
gang 28
gged 28
grand@@ 28
graph@@ 28
groupings 28
guarantor 28
guarded 28
hair@@ 28
harmonize 28
heighten 28
hemisphere 28
hereditary 28
hijacked 28
hoo@@ 28
horrible 28
hospitable 28
hygiene 28
iceberg 28
ility 28
inadequately 28
inch 28
indul@@ 28
inflation-targeting 28
influenza 28
inging 28
inity 28
insidious 28
insular 28
intellectually 28
interviewed 28
intransigence 28
intrusion 28
investigators 28
isms 28
jihadis 28
juncture 28
labor-saving 28
laissez-faire 28
lastly 28
layers 28
legalization 28
lian 28
literary 28
literate 28
litigation 28
macro@@ 28
magnified 28
marriages 28
materi@@ 28
maturing 28
mend 28
merge 28
mers 28
middle-aged 28
mindful 28
miserable 28
misused 28
mosquitoes 28
multipliers 28
muscles 28
naming 28
nationalized 28
neo-liberal 28
neo@@ 28
night@@ 28
nose 28
nudge 28
obli@@ 28
oblivious 28
old-@@ 28
onist 28
onists 28
originate 28
outflow 28
overtures 28
paralyzing 28
pathway 28
penalize 28
personalized 28
physicist 28
play@@ 28
pleasant 28
pling 28
ponder 28
preconditions 28
presentation 28
principally 28
prise 28
prob@@ 28
prosecuting 28
public-policy 28
py 28
ques 28
rattling 28
reassurance 28
recalcitrant 28
reciprocal 28
redefined 28
reformists 28
relinquish 28
repudiation 28
researcher 28
resettlement 28
revolutionized 28
s-based 28
saga 28
scapegoats 28
school-age 28
school@@ 28
scrap 28
self-proclaimed 28
seminal 28
sensitivities 28
shark 28
sharks 28
shook 28
shrank 28
shutting 28
sibility 28
singular 28
slice 28
sliding 28
smile 28
socialization 28
som@@ 28
speculate 28
spying 28
stances 28
state-run 28
steered 28
stifled 28
stomach 28
strangers 28
stry 28
subjective 28
sunk 28
supervised 28
symbolism 28
synonymous 28
tackled 28
tectonic 28
temper 28
tes@@ 28
tiers 28
tionist 28
treatable 28
tren@@ 28
tumors 28
unacceptably 28
unaddressed 28
unconscious 28
unconstitutional 28
unorthodox 28
unpopularity 28
unwinding 28
uptick 28
val 28
velocity 28
wash 28
weaponry 28
wetlands 28
whatsoever 28
yard 28
zo@@ 28
és 28
150,000 27
170@@ 27
1954 27
2,500 27
200-@@ 27
2060 27
24-@@ 27
6.8 27
8.3 27
94 27
AAA 27
AS 27
Afghans 27
Allied 27
American-@@ 27
Ang@@ 27
Anglo@@ 27
Annual 27
Arizona 27
Attorney 27
Az@@ 27
BR@@ 27
Bad 27
Barry 27
Benazir 27
CE 27
Carnegie 27
Ci@@ 27
Dani 27
Dem@@ 27
Deutschland 27
ECT 27
Economies 27
Emissions 27
European@@ 27
Fattah 27
Filipino 27
GB@@ 27
Ga@@ 27
Gap 27
Golan 27
Gold 27
Good@@ 27
Grillo 27
Hariri 27
Honduras 27
Hum@@ 27
I. 27
Ide@@ 27
Institu@@ 27
Jakarta 27
Jan@@ 27
Jokowi 27
Judaism 27
Just 27
Kam@@ 27
Kansas 27
Kant 27
Lancet 27
Let 27
Luiz 27
Lyndon 27
López 27
Mah@@ 27
Mahatma 27
NSA 27
On@@ 27
PAS 27
PP 27
Path 27
Pati@@ 27
Process 27
Protestants 27
Rajapaksa 27
Rob@@ 27
Rust 27
SD@@ 27
SOE 27
SWF 27
Safe 27
Sec@@ 27
So 27
Statistics 27
Studies 27
Sude@@ 27
Sykes-Picot 27
Tencent 27
Tesla 27
Tiger 27
Transition 27
Tsai 27
U-@@ 27
Vision 27
Waziristan 27
Western-style 27
admire 27
adventurism 27
affiliates 27
agan 27
age-old 27
agile 27
airline 27
aks 27
ala 27
amended 27
anathema 27
anew 27
anne 27
annihilation 27
anno@@ 27
apologized 27
ard@@ 27
arist 27
artist 27
assa@@ 27
asthma 27
audit 27
augmented 27
avowed 27
bacterium 27
bags 27
beg@@ 27
bility 27
bing 27
bitterly 27
blessed 27
blindness 27
bogus 27
boil 27
borrows 27
branding 27
buoyed 27
butter 27
buttressed 27
cancellation 27
cellular 27
chamber 27
championing 27
chers 27
cks 27
cla@@ 27
clas@@ 27
coexist 27
columnist 27
comfortably 27
communicating 27
compar@@ 27
consumes 27
copies 27
corridors 27
cozy 27
creed 27
culprits 27
curtain 27
dd@@ 27
dead@@ 27
dedication 27
deepens 27
deline@@ 27
derided 27
devi@@ 27
diamonds 27
dictatorial 27
die@@ 27
digging 27
diplomatically 27
disagreed 27
discarded 27
discer@@ 27
discord 27
disgust 27
dish 27
disillusionment 27
dislocation 27
dispatched 27
dissatisfied 27
dissolved 27
distinguishes 27
diverting 27
dollar-@@ 27
downfall 27
dump 27
dwarf 27
earmarked 27
earnest 27
earns 27
efully 27
embryonic 27
emig@@ 27
encompassing 27
encroachment 27
entangled 27
envisage 27
evidenced 27
exchanged 27
expansionist 27
expe@@ 27
exponentially 27
extracted 27
fact-@@ 27
familiarity 27
fanatical 27
fintech 27
fleeting 27
flock 27
fulfills 27
gal 27
galvanize 27
gatherings 27
genomes 27
gigantic 27
glu@@ 27
gor@@ 27
grass 27
gripped 27
growers 27
gul@@ 27
half-decade 27
hamper 27
harm@@ 27
hat 27
hat@@ 27
heirs 27
heroin 27
hopelessness 27
hostages 27
hourly 27
illi@@ 27
implicated 27
import-@@ 27
improbable 27
individualism 27
infinite 27
innovation-@@ 27
inroads 27
inspires 27
instruction 27
ise 27
ities 27
jets 27
jump-start 27
junk 27
ku@@ 27
labs 27
lec@@ 27
library 27
likened 27
listing 27
lords 27
manipul@@ 27
manipulator 27
mapping 27
marshal 27
mechanics 27
medium-@@ 27
microbes 27
millennium 27
minimized 27
missteps 27
mistre@@ 27
mosque 27
murderer 27
my@@ 27
narcotics 27
nativism 27
nearing 27
networked 27
newborn 27
nity 27
nongovernmental 27
northeastern 27
nostalgic 27
not-so-@@ 27
nourishment 27
obscured 27
occupies 27
odious 27
oligarchy 27
one-half 27
operator 27
opting 27
ostrac@@ 27
our@@ 27
overhauling 27
paramilitary 27
parasites 27
participant 27
participatory 27
patri@@ 27
peacemaking 27
perceives 27
perennial 27
perestroika 27
performan@@ 27
persecuted 27
picks 27
pre-2008 27
preeminent 27
preempt 27
pressuring 27
produc@@ 27
profiling 27
progressives 27
projecting 27
prosecutions 27
protagonists 27
public-relations 27
ranges 27
rectitude 27
redouble 27
reinvigorating 27
reminding 27
renegotiating 27
reporter 27
reproduction 27
reservoirs 27
resident 27
respite 27
reverting 27
ring@@ 27
risk-management 27
roiled 27
roiling 27
roof 27
roof@@ 27
rying 27
sab@@ 27
samples 27
seasonal 27
second-round 27
shipped 27
shment 27
shu@@ 27
sigh 27
simplified 27
small-@@ 27
snow@@ 27
solar-@@ 27
sounded 27
sour 27
spiraling 27
spite 27
stagnate 27
starve 27
statutory 27
streamline 27
stunned 27
submarine 27
submarines 27
succumbing 27
suspending 27
switching 27
tac@@ 27
tain@@ 27
teenagers 27
temptations 27
tentative 27
terribly 27
testament 27
tex 27
theoretically 27
thered 27
thinker 27
thresholds 27
throes 27
tici@@ 27
tigers 27
tiveness 27
uk@@ 27
unbearable 27
uncommon 27
underscoring 27
unfamiliar 27
unites 27
unlocking 27
unruly 27
upwards 27
utilization 27
vaunted 27
verify 27
vetoed 27
wal@@ 27
wan 27
wells 27
whales 27
wipe 27
wn 27
workforces 27
wrath 27
write-offs 27
yers 27
zi@@ 27
,000 26
-style 26
.org 26
1,500 26
12,000 26
1919 26
194@@ 26
1966 26
200@@ 26
27@@ 26
5,@@ 26
5.@@ 26
7.8 26
Accord 26
AfDB 26
Ahmed 26
Anat@@ 26
Around 26
Belgrade 26
Bethlehem 26
Blanchard 26
Brunei 26
CLAREMONT 26
Carlos 26
Cat@@ 26
Choice 26
Coll@@ 26
Colorado 26
Condoleezza 26
Crow@@ 26
DB 26
Deaton 26
Dhabi 26
Direc@@ 26
Divi@@ 26
Dominican 26
EI@@ 26
Emergency 26
Fall 26
Felipe 26
Fle@@ 26
Fukuyama 26
GOP 26
Gallup 26
Geor@@ 26
Gl@@ 26
Gran@@ 26
He 26
Hebdo 26
Heights 26
Herbert 26
Horn 26
Industry 26
Irving 26
Israeli-@@ 26
Japanese-@@ 26
Jarosław 26
Jersey 26
Jr 26
Kal@@ 26
Ken@@ 26
Koch 26
Lady 26
Lau@@ 26
MS@@ 26
Max 26
Mig@@ 26
Mil@@ 26
Minsk 26
Mount 26
NP@@ 26
Nu@@ 26
Ohio 26
Ol@@ 26
Ortega 26
Pakistan-@@ 26
Pay@@ 26
Pic@@ 26
Pinochet 26
Populism 26
Prevention 26
Prophet 26
Ps 26
RC@@ 26
Republican-controlled 26
Rosneft 26
SA 26
SS 26
Sadr 26
Saint 26
Shiller 26
Sino-@@ 26
Solution 26
Somali 26
Ted 26
Tim@@ 26
Trump@@ 26
Walmart 26
Wat@@ 26
Yitzhak 26
Zambia 26
Zi@@ 26
abi@@ 26
activ@@ 26
adheres 26
affirmed 26
affordability 26
agro-@@ 26
airplanes 26
akh 26
al-Maliki 26
algorithm 26
ali 26
alleviating 26
allowances 26
aly@@ 26
amplifying 26
anachronistic 26
animus 26
antiquated 26
apologize 26
arch 26
arranged 26
asures 26
ative-@@ 26
backfired 26
bad@@ 26
basin 26
bert 26
blatantly 26
bluster 26
bond-buying 26
brush 26
busts 26
buyer 26
campus 26
cats 26
cell@@ 26
cian 26
citizenry 26
city-@@ 26
cked 26
classi@@ 26
cle@@ 26
cleavages 26
cler@@ 26
clinging 26
clou@@ 26
coal-@@ 26
collaborators 26
commanded 26
commodity-@@ 26
commodity-price 26
commu@@ 26
compatriots 26
conciliatory 26
conditioned 26
connects 26
conquer 26
consisted 26
consortium 26
consultants 26
consumer-led 26
consumption-@@ 26
contests 26
contractor 26
cooperated 26
countervailing 26
cow@@ 26
creatures 26
currents 26
cusp 26
dealers 26
decades-old 26
decentralization 26
deceptive 26
decom@@ 26
defender 26
defer 26
definitively 26
delegated 26
demography 26
depleting 26
devolution 26
dians 26
disapproval 26
discriminate 26
dispose 26
distancing 26
dot-com 26
dressing 26
droves 26
easiest 26
econom@@ 26
economic-@@ 26
edi@@ 26
electro@@ 26
elicit 26
emer@@ 26
employment-@@ 26
eng 26
entrench 26
enty 26
environment@@ 26
eries 26
erupts 26
evils 26
expansions 26
expresses 26
extern@@ 26
extracting 26
fatally 26
fickle 26
fluctu@@ 26
foothold 26
formulation 26
func@@ 26
gaping 26
gated 26
genic 26
genocidal 26
gin 26
glacial 26
graph 26
grotesque 26
groundwater 26
ham 26
hasten 26
heal 26
heart@@ 26
hectare 26
heft 26
henchmen 26
herd 26
herein 26
heyday 26
illing 26
illumin@@ 26
imit@@ 26
imitate 26
impersonal 26
impotence 26
impro@@ 26
incarceration 26
inconclusive 26
indisputable 26
inept 26
inexorable 26
inexorably 26
infect 26
ingrained 26
ino 26
inspirational 26
intentional 26
intriguing 26
irrelevance 26
lash 26
ld 26
least-developed 26
legitimizing 26
lengths 26
liberating 26
lively 26
long-held 26
lun@@ 26
man-@@ 26
mandarins 26
mani@@ 26
manifested 26
market-driven 26
mass-@@ 26
mentions 26
mercantilism 26
mid-1980 26
militarized 26
misconduct 26
mmed 26
mo 26
monetize 26
monument 26
multicultural 26
multiplying 26
n-@@ 26
nai@@ 26
narrow@@ 26
neoliberalism 26
nonprofit 26
novelist 26
nuc@@ 26
obese 26
obstruct 26
oil@@ 26
omics 26
on-based 26
onslaught 26
open-@@ 26
operative 26
ora 26
orchestr@@ 26
orious 26
oted 26
ound@@ 26
outcry 26
outpaced 26
overex@@ 26
overlooks 26
paci@@ 26
pains 26
painting 26
palatable 26
particle 26
patented 26
pharm@@ 26
photographs 26
plotting 26
plurality 26
political-@@ 26
powerfully 26
prepares 26
president-elect 26
pro-business 26
prof@@ 26
programmed 26
purged 26
quantify 26
quipped 26
raz@@ 26
rebate 26
receded 26
recklessly 26
recurrent 26
referendums 26
regrettable 26
releases 26
religiously 26
reproduce 26
resemblance 26
restructurings 26
revisit 26
rewrite 26
rigidity 26
robustness 26
sands 26
scattered 26
scientifically 26
self-interested 26
self-reliance 26
self-sufficiency 26
semin@@ 26
sequestration 26
shedding 26
sheep 26
shelf 26
siph@@ 26
slowdowns 26
smar@@ 26
sni@@ 26
soften 26
soli@@ 26
souls 26
spac@@ 26
spelled 26
spills 26
sponsor 26
spree 26
stic@@ 26
stric@@ 26
stun@@ 26
stunted 26
surgeon 26
surges 26
surrogacy 26
surround 26
survives 26
swallow 26
sym@@ 26
tabloid 26
tain 26
tellingly 26
tenuous 26
testified 26
then-US 26
third-party 26
thrift 26
thrives 26
thugs 26
ti 26
tickets 26
ticking 26
time-consuming 26
timeline 26
tionism 26
tit-for-tat 26
tized 26
tocracy 26
torate 26
tragically 26
tram@@ 26
tribe 26
tribute 26
trick@@ 26
two-way 26
unambiguously 26
unanswered 26
uncharted 26
unfairly 26
ung@@ 26
unseen 26
vertical 26
vying 26
walks 26
wed 26
wheel 26
whichever 26
wil@@ 26
wine 26
wireless 26
with@@ 26
withhold 26
wrongdoing 26
ó@@ 26
16,000 25
1st 25
2004-@@ 25
2011-2012 25
21st 25
3-5 25
5-10 25
50@@ 25
6,@@ 25
6-7 25
80,000 25
Abdul 25
Albanian 25
Alzheimer 25
Anthropocene 25
Ariel 25
Art 25
BM 25
Bangalore 25
Bob 25
Bonn 25
Canberra 25
Chongqing 25
Eff@@ 25
Enough 25
Ethiopian 25
Ever 25
FAO 25
Ferdinand 25
Fisher 25
Florence 25
GF@@ 25
Gender 25
Giscard 25
Graham 25
HIV-positive 25
Hor@@ 25
IRGC 25
ISI 25
Inter-American 25
Inve@@ 25
Kenyans 25
Kyong-hui 25
Laguna 25
Lead 25
Lim@@ 25
M. 25
Madison 25
Mahathir 25
Mauricio 25
Media 25
Mes@@ 25
Mit@@ 25
Monday 25
NTDs 25
Nar@@ 25
Nice 25
Nile 25
Other 25
PN@@ 25
PO@@ 25
PP@@ 25
Palace 25
Philip 25
Protect 25
Pu@@ 25
Rafsanjani 25
Risks 25
Rud@@ 25
SNP 25
Santa 25
Scots 25
Seehofer 25
Sein 25
Sirleaf 25
Sta@@ 25
Strauss-Kahn 25
Sub@@ 25
Sudanese 25
Sufi 25
Sultan 25
Summer 25
Toronto 25
Troika 25
UKIP 25
Uttar 25
Venter 25
WEF 25
Wales 25
Walter 25
WikiLeaks 25
Working 25
Xilai 25
Yellow 25
Ze@@ 25
abo@@ 25
aboard 25
absor@@ 25
accessing 25
accorded 25
admirable 25
ado 25
aerial 25
affili@@ 25
afflict 25
al- 25
angst 25
applicants 25
appropri@@ 25
arbiter 25
arrivals 25
aspir@@ 25
aspirational 25
assisting 25
asted 25
astonishingly 25
auction 25
bank-@@ 25
bbed 25
behaves 25
bel@@ 25
besieged 25
bone 25
break-up 25
breastfeeding 25
bric@@ 25
bumpy 25
cared 25
cargo 25
carrots 25
casual 25
cautiously 25
celebrity 25
cem@@ 25
centrally 25
chaebol 25
championship 25
cheer 25
chemical-weapons 25
coincide 25
conclusive 25
congress 25
conqu@@ 25
conquered 25
consult 25
controversies 25
conver@@ 25
converging 25
convertible 25
cosmo@@ 25
cracks 25
creature 25
custom@@ 25
decelerating 25
deduc@@ 25
depart 25
deployments 25
desp@@ 25
devastate 25
development-@@ 25
devotion 25
diagnose 25
diff@@ 25
dip 25
disease-@@ 25
disper@@ 25
disposition 25
disrup@@ 25
distinctly 25
diversifying 25
doc@@ 25
domino 25
drinks 25
drought-@@ 25
eagerness 25
electri@@ 25
endlessly 25
ero 25
ession 25
ethic 25
ever-larger 25
expansionism 25
exploding 25
fabric@@ 25
falsi@@ 25
famines 25
faraway 25
farm@@ 25
feasibility 25
federalist 25
feminist 25
ffed 25
fiasco 25
finite 25
first-hand 25
fledgling 25
fringes 25
galvanized 25
game-changing 25
gateway 25
gays 25
gle@@ 25
god@@ 25
grabbing 25
growth-oriented 25
guardians 25
guise 25
guy 25
hall@@ 25
harassed 25
hard-line 25
heaven 25
helicopters 25
help@@ 25
hen@@ 25
hens 25
holdout 25
home-@@ 25
hormone 25
horrendous 25
hurdle 25
hydroelectric 25
ie@@ 25
imed 25
impover@@ 25
incorrect 25
incub@@ 25
indignation 25
individu@@ 25
inevitability 25
infancy 25
infiltr@@ 25
infra@@ 25
intensifies 25
justifications 25
kicking 25
knowledgeable 25
kowto@@ 25
landed 25
lane 25
lef@@ 25
limitation 25
logging 25
loosened 25
loving 25
loyalties 25
lusion 25
mach@@ 25
malnourished 25
manpower 25
manual 25
marginalize 25
marsh@@ 25
meg@@ 25
merging 25
messaging 25
migr@@ 25
mistreatment 25
mond 25
myth@@ 25
na 25
nat@@ 25
nefarious 25
new@@ 25
newborns 25
normalizing 25
northwest 25
num@@ 25
numbered 25
nutritious 25
offerings 25
one-way 25
one-year 25
ong-@@ 25
ories 25
originating 25
outsourced 25
overcame 25
overhangs 25
overshadowed 25
overturn 25
overturned 25
pac@@ 25
perv@@ 25
pitting 25
pli@@ 25
poisonous 25
polite 25
pollsters 25
portrays 25
postcommunist 25
pre-war 25
precipitated 25
predicated 25
proceeded 25
productively 25
pyramid 25
rant 25
rationally 25
rays 25
recruited 25
reflation 25
regionally 25
relieved 25
repatriate 25
replicating 25
requisite 25
rightful 25
ritual 25
road@@ 25
rolls 25
rout 25
ruined 25
rum@@ 25
ruthlessly 25
sanguine 25
sati@@ 25
scra@@ 25
seal 25
searches 25
seasoned 25
self-sufficient 25
seller 25
sens@@ 25
sequester 25
service-sector 25
shockingly 25
shoring 25
sim@@ 25
single-minded 25
ski@@ 25
skillfully 25
slaves 25
snow 25
so-@@ 25
soils 25
son-in-law 25
soup 25
specifics 25
speeds 25
staking 25
statesmanship 25
statist 25
stered 25
stiff 25
strang@@ 25
styles 25
stymied 25
subservient 25
suffrage 25
tarianism 25
tea 25
tearing 25
televised 25
template 25
tig@@ 25
timber 25
tish 25
titles 25
tiv@@ 25
topped 25
tos 25
tou@@ 25
trac@@ 25
tracts 25
trajectories 25
transported 25
trickle-down 25
trough 25
tu 25
tuition 25
twelve 25
tycoon 25
uda 25
ult 25
uncoordinated 25
underpinnings 25
unpredictability 25
vaccinations 25
vanguard 25
vation 25
vir@@ 25
ware 25
wea@@ 25
wedded 25
yan@@ 25
year-@@ 25
yo 25
zz@@ 25
º 25
-P@@ 24
08 24
1,200 24
16-@@ 24
169 24
1952 24
1955 24
2002-@@ 24
2014-@@ 24
270 24
6.2 24
6.3 24
6th 24
7.4 24
70-@@ 24
70th 24
90-@@ 24
Anna 24
Arms 24
Articles 24
Ashton 24
Assessment 24
Belgian 24
Bengali 24
Beyond 24
CACs 24
CRA 24
CS 24
Cambodian 24
Chiang 24
Civic 24
Code 24
Cohen 24
Colombians 24
Continent 24
Cour@@ 24
Deposit 24
Diseases 24
Ds 24
EL@@ 24
EPA 24
Eco@@ 24
Equality 24
European-@@ 24
FC 24
Feldstein 24
Flake 24
Himalayas 24
Iowa 24
KRG 24
Kadyrov 24
Kash@@ 24
Knesset 24
LE@@ 24
Lagos 24
Leung 24
Levant 24
Lin@@ 24
Lom@@ 24
Mid@@ 24
Moral 24
Must 24
Nak@@ 24
Naz@@ 24
Net@@ 24
Nutrition 24
Of 24
Omar 24
Oval 24
Oxfam 24
Paradox 24
Pence 24
Pon@@ 24
Pot@@ 24
Prodi 24
Ramallah 24
Reduction 24
Rel@@ 24
SP@@ 24
START 24
Sarajevo 24
Schuman 24
Sechin 24
Sino-Japanese 24
Sir 24
Solow 24
Solutions 24
Sor@@ 24
Stre@@ 24
Swaraj 24
Syn@@ 24
Syri@@ 24
Task 24
Temp@@ 24
Ten 24
Thought 24
Timothy 24
Tom 24
Tories 24
Tru@@ 24
Ts@@ 24
UN-@@ 24
Water@@ 24
_ 24
accusation 24
adage 24
adhered 24
advertisements 24
ady 24
aku@@ 24
alarmingly 24
alarmist 24
ald 24
alled 24
altruism 24
ambivalent 24
ance-@@ 24
ange 24
antagon@@ 24
anti-dumping 24
apped 24
approving 24
aquaculture 24
ardent 24
arduous 24
arresting 24
assaulted 24
assign 24
atro@@ 24
attaining 24
augmenting 24
autocrat 24
ave 24
awe 24
back-@@ 24
bacterial 24
barometer 24
behind-the-scenes 24
bickering 24
billion-dollar 24
bitterness 24
bla@@ 24
blan@@ 24
blew 24
blindly 24
blu@@ 24
bottom@@ 24
carpet 24
casts 24
catches 24
ceilings 24
cent@@ 24
cessation 24
check@@ 24
chim@@ 24
clu@@ 24
commits 24
complemented 24
complicates 24
conceive 24
concessional 24
consulting 24
contending 24
convening 24
cosmopolitanism 24
country-specific 24
crashing 24
credo 24
crossings 24
crowdfunding 24
cup 24
dampening 24
dance 24
dash 24
decarbon@@ 24
decree 24
decrees 24
deep-rooted 24
defaulting 24
defective 24
defensible 24
depressions 24
des@@ 24
desertification 24
desirability 24
detrimental 24
developmental 24
dic 24
did@@ 24
dily 24
dious 24
dirt 24
disciplinary 24
disenchantment 24
dishonest 24
dissemination 24
donate 24
doorstep 24
doubly 24
downgraded 24
dru@@ 24
durability 24
edly 24
eless 24
ells 24
em 24
emitter 24
ene 24
ense 24
epidemiological 24
eras 24
excuses 24
facilitation 24
family-@@ 24
fascists 24
façade 24
fervent 24
fiat 24
fiduciary 24
figuring 24
financial-reform 24
fir@@ 24
fitness 24
floated 24
flowers 24
fodder 24
foregone 24
forgive 24
formali@@ 24
freight 24
fruitful 24
fulfillment 24
funeral 24
futility 24
garbage 24
gic 24
gifted 24
globalizing 24
gray 24
hale 24
harbors 24
harmless 24
hawk 24
headscarf 24
helpless 24
heroism 24
high-value 24
high-yield 24
hindering 24
horri@@ 24
hs 24
hung 24
hysteria 24
iPhone 24
ill-advised 24
ill-conceived 24
inconsistency 24
indicative 24
inexperienced 24
inflammatory 24
inhibitors 24
injecting 24
institutes 24
intrinsically 24
iously 24
irrationality 24
istically 24
ith 24
ke-@@ 24
kes@@ 24
key@@ 24
krill 24
laureates 24
learns 24
leeway 24
left-right 24
lifeblood 24
limbo 24
logically 24
lonely 24
long-established 24
low-hanging 24
malfeasance 24
maneuvers 24
manufactures 24
manufacturing-@@ 24
marke@@ 24
mean@@ 24
memoirs 24
mentor 24
mid-1990s 24
midnight 24
mightily 24
mildly 24
mill 24
murderers 24
musical 24
nam@@ 24
nar@@ 24
nearest 24
neo-conservative 24
networking 24
nish 24
non-binding 24
noteworthy 24
numerical 24
nursing 24
obe@@ 24
obscures 24
observing 24
oft-@@ 24
old-age 24
one-sided 24
one-tenth 24
opportunistic 24
orial 24
ov@@ 24
passports 24
pathetic 24
patrol 24
pesticide 24
phy 24
pioneers 24
pitch 24
placement 24
plots 24
porous 24
portraying 24
poverty-reduction 24
precautions 24
precipitous 24
premises 24
probe 24
productivity-@@ 24
progressively 24
provi@@ 24
purportedly 24
qualitative 24
que@@ 24
raped 24
rash 24
rebounded 24
rebuffed 24
recur 24
redundancy 24
relic 24
relocating 24
reluctantly 24
renege 24
renunciation 24
reparations 24
research@@ 24
resembling 24
reshaped 24
resolutely 24
resur@@ 24
robustly 24
scary 24
second-class 24
secretive 24
self-destructive 24
self-esteem 24
self-evident 24
sensing 24
shirts 24
shri@@ 24
shrug 24
silencing 24
sk 24
skillful 24
sparking 24
spate 24
spearhead 24
speculated 24
spirited 24
state-of-the-art 24
staunchly 24
steadfast 24
stir 24
stirred 24
stirring 24
stumbling 24
suburbs 24
sucked 24
suffoc@@ 24
summarized 24
supplemented 24
sustains 24
synergies 24
tate 24
tem@@ 24
tening 24
thetic 24
thick 24
thy 24
timeframe 24
too-@@ 24
toring 24
touched 24
tran@@ 24
transplant 24
tread 24
tual 24
tumult 24
tycoons 24
udd@@ 24
udes 24
umb@@ 24
unabated 24
underestimating 24
understandings 24
underwriting 24
uneducated 24
unfit 24
unfulfilled 24
unmet 24
unparalleled 24
unprecedentedly 24
upfront 24
uttered 24
vacations 24
validate 24
vehemently 24
vel 24
vely 24
vocation 24
war-torn 24
wastewater 24
wat@@ 24
welfare-@@ 24
well-meaning 24
whip 24
witnesses 24
wom@@ 24
worsens 24
zo 24
zy 24
ºC 24
è@@ 24
ón 24
5-6 23
6.9 23
Adenauer 23
Airbnb 23
Ak@@ 23
Allen 23
Amman 23
Aristotle 23
Att@@ 23
Auschwitz 23
BA 23
BMI 23
Bam@@ 23
Bankers 23
Bayrou 23
Benedict 23
Bentham 23
Blin@@ 23
Bollywood 23
C-@@ 23
CC@@ 23
Cancer 23
Capitol 23
Chamber 23
Chance 23
Competitiveness 23
Cowen 23
Delors 23
Detroit 23
Druze 23
Dur@@ 23
EIB 23
ES 23
EU-level 23
Eritrea 23
Estaing 23
External 23
Exxon 23
Fac@@ 23
Fear 23
Fernández 23
Finnish 23
GPS 23
Gaz@@ 23
Gil@@ 23
Han 23
Holmes 23
Human@@ 23
Impact 23
Juli@@ 23
Kat@@ 23
Khar@@ 23
Kor@@ 23
Macro@@ 23
Marcos 23
Mess@@ 23
Moroccan 23
NPLs 23
Navarro 23
Nigel 23
Northwestern 23
Nouri 23
Occupy 23
Once 23
P-@@ 23
PISA 23
PM@@ 23
Perón 23
Pierre 23
Planet 23
Population 23
Pra@@ 23
Presidency 23
Prices 23
Prus@@ 23
Put@@ 23
Question 23
Sher@@ 23
Shrine 23
Sp@@ 23
Spaniards 23
Stein 23
Still 23
Suharto 23
Tariff 23
Ter@@ 23
Terrorism 23
USTR 23
Under@@ 23
Valéry 23
Yew 23
accelerator 23
accidentally 23
aching 23
acquiesce 23
adjacent 23
admon@@ 23
aire 23
aked 23
aliz@@ 23
allay 23
allow@@ 23
altar 23
amply 23
anchoring 23
ands 23
ant@@ 23
anti-austerity 23
anti-competitive 23
anti-government 23
antidote 23
arche@@ 23
arial 23
aroused 23
artistic 23
ascendancy 23
assuring 23
atop 23
attainable 23
atters 23
authoritative 23
authorize 23
automotive 23
bail-@@ 23
ballo@@ 23
barbaric 23
bark 23
bath@@ 23
betray 23
bic@@ 23
binds 23
boomers 23
boycotts 23
bridging 23
bub@@ 23
bull@@ 23
business-@@ 23
but@@ 23
cages 23
capital-market 23
capitalizing 23
castes 23
centrifuges 23
ceremonies 23
chiefly 23
cio 23
cle 23
clim@@ 23
clinicians 23
cohorts 23
command-and-control 23
commissioners 23
community-based 23
compass 23
competencies 23
confederation 23
confer 23
confirming 23
congen@@ 23
cons 23
consequent 23
constrains 23
contenders 23
contextual 23
corporatist 23
corrective 23
corrupted 23
counties 23
cries 23
crowd-@@ 23
cryptocurrency 23
cunning 23
curbed 23
dal 23
darker 23
declares 23
deductible 23
defect 23
deflect 23
delegating 23
democratize 23
deni@@ 23
descended 23
despots 23
detached 23
dge@@ 23
dges 23
differentiate 23
disarm 23
dismissal 23
dispute-settlement 23
distinctions 23
distortionary 23
distorts 23
dium 23
doctrines 23
double-@@ 23
dram@@ 23
ecologically 23
ection 23
edit@@ 23
enablers 23
enders 23
enroll 23
evangelical 23
ever-closer 23
exhaustion 23
exotic 23
extrapol@@ 23
factual 23
far-sighted 23
fared 23
fast-changing 23
fathom 23
fetus 23
fixed-asset 23
flux 23
follow@@ 23
foresaw 23
fra@@ 23
frigh@@ 23
fru@@ 23
gear 23
ghosts 23
gloom 23
go-@@ 23
govern@@ 23
grabbed 23
grandmother 23
grasped 23
guys 23
habit@@ 23
hacked 23
hai 23
hall 23
halve 23
harmonized 23
harvesting 23
hated 23
hawkish 23
high-productivity 23
high-ranking 23
hiking 23
hill 23
hoax 23
hon@@ 23
honestly 23
honors 23
hyped 23
ices 23
ilo@@ 23
imitation 23
impotent 23
incredible 23
inflame 23
informally 23
inhabited 23
inism 23
initi@@ 23
inland 23
innumerable 23
insults 23
intelligentsia 23
intensely 23
interfering 23
internationalist 23
interpre@@ 23
interrogation 23
irs 23
ised 23
ising 23
ite@@ 23
jan 23
jumping 23
kicked 23
kidnapped 23
kilometer 23
kitchen 23
kri@@ 23
lah 23
lam 23
launches 23
lavi@@ 23
lic 23
lifesaving 23
livable 23
locate 23
log 23
lone 23
loss-@@ 23
loyalists 23
magazines 23
may@@ 23
mediated 23
mice 23
mills 23
mim@@ 23
mimic 23
mini@@ 23
misdeeds 23
mol@@ 23
molecules 23
monopolistic 23
mud 23
multiplied 23
nail 23
nal 23
needlessly 23
ner@@ 23
nest 23
news@@ 23
nia 23
non-bank 23
non-democratic 23
non-interference 23
non-military 23
objec@@ 23
obstruction 23
oil-exporting 23
ola 23
omy 23
optimize 23
organiz@@ 23
ota 23
outlet 23
over-indebted 23
pales 23
parade 23
particul@@ 23
partisanship 23
passivity 23
payoffs 23
performers 23
personal-@@ 23
phenomenal 23
pla@@ 23
plea 23
plum@@ 23
poisoning 23
pooled 23
poverty-@@ 23
preaching 23
preferring 23
premised 23
preoccupation 23
preschool 23
princelings 23
privatizing 23
prizes 23
pro-EU 23
proliferate 23
pronged 23
prostitution 23
prudently 23
psychologist 23
pt 23
publishes 23
pumps 23
purges 23
qualifies 23
radicalized 23
raged 23
railroads 23
reactive 23
realpolitik 23
recidivism 23
recipes 23
reco@@ 23
recycled 23
refrained 23
region-wide 23
relapse 23
remuneration 23
repaired 23
resented 23
reservoir 23
righteous 23
rol@@ 23
rumored 23
sacrosanct 23
scorn 23
scru@@ 23
self-employed 23
sensibly 23
serial 23
services-led 23
sheik@@ 23
shootings 23
shut@@ 23
skill@@ 23
sleeping 23
slippery 23
slu@@ 23
socialists 23
socio-@@ 23
specialize 23
specific@@ 23
spies 23
spikes 23
spilling 23
spl@@ 23
splitting 23
stabilizers 23
stadiums 23
staked 23
standard-@@ 23
stronghold 23
stumble 23
supervise 23
supra-national 23
susceptibility 23
sweet 23
tab@@ 23
tablets 23
tary 23
theor@@ 23
therhood 23
thirst 23
thrived 23
thum@@ 23
tial 23
tism 23
tiz@@ 23
torpe@@ 23
trader 23
train@@ 23
trending 23
trickle 23
troublesome 23
tty 23
tually 23
ua 23
unavailable 23
unde@@ 23
undecided 23
underdevelopment 23
unofficial 23
unrelenting 23
upended 23
ute 23
viewpoint 23
vultures 23
warrants 23
wild@@ 23
wishing 23
worthless 23
wr@@ 23
wreck 23
yn 23
zealots 23
zzled 23
ä@@ 23
11th 22
20-year 22
23andMe 22
2nd 22
7-8 22
8.6 22
APEC 22
AT@@ 22
Ag@@ 22
Airport 22
Amartya 22
American-style 22
Andrés 22
Armenians 22
Arunachal 22
Asset 22
Becker 22
Belar@@ 22
Bil@@ 22
Biological 22
Bir@@ 22
Brother 22
CJD 22
CM@@ 22
CNN 22
CSR 22
Chil@@ 22
Christopher 22
Civi@@ 22
Class 22
Clean 22
Consul@@ 22
Corruption 22
Cou@@ 22
Cubans 22
D-@@ 22
DDT 22
Dangerous 22
Decline 22
Dilemma 22
Diplomacy 22
EU@@ 22
Electric 22
Enrique 22
Era 22
Erdogan 22
Eri@@ 22
FRANCISCO 22
Forest 22
G-@@ 22
GHG 22
HF@@ 22
Hangzhou 22
Hans 22
Hatoyama 22
Health@@ 22
Hindu@@ 22
ID 22
IVF 22
Ifo 22
Interior 22
Intifada 22
Ja@@ 22
Jew 22
Karachi 22
Lat@@ 22
Lev@@ 22
Maria 22
McConnell 22
Mik@@ 22
Mogherini 22
Moore 22
Nov@@ 22
Ok@@ 22
Oman 22
Oregon 22
Papers 22
Parkinson 22
Patel 22
Pius 22
Planning 22
Plato 22
Podemos 22
RE@@ 22
Rap@@ 22
Raz@@ 22
Ruhollah 22
SCO 22
Sector 22
Shar@@ 22
Shin@@ 22
Sisi 22
Socrates 22
Song 22
Spratly 22
Suez 22
Sum@@ 22
Supervision 22
Susan 22
System@@ 22
Systems 22
TE@@ 22
TF@@ 22
Tai@@ 22
Ten@@ 22
Tren@@ 22
Tudor 22
Urban 22
Ven@@ 22
Weimar 22
Wikipedia 22
Win@@ 22
Zero 22
abject 22
abor@@ 22
absolu@@ 22
abysmal 22
accomplishment 22
accoun@@ 22
achable 22
activated 22
admi@@ 22
affiliation 22
afflicts 22
affront 22
after@@ 22
aggravating 22
agribusiness 22
ails 22
ales 22
amassed 22
ander 22
ane 22
annu@@ 22
antagonizing 22
anti-Sem@@ 22
anti-poverty 22
antibodies 22
apparel 22
appoints 22
asse@@ 22
assuage 22
astute 22
asy 22
awakened 22
basi@@ 22
battleground 22
belatedly 22
ber-@@ 22
bering 22
biotech 22
bore 22
boxes 22
boy@@ 22
bred 22
brow@@ 22
brute 22
bung@@ 22
buses 22
bypassing 22
calculates 22
canceling 22
capping 22
carved 22
cau@@ 22
caucus 22
centenary 22
cheapest 22
clad 22
claimants 22
clam@@ 22
cleavage 22
closures 22
clow@@ 22
coaster 22
collects 22
colonization 22
colorful 22
commemor@@ 22
commemoration 22
communicated 22
composite 22
condemns 22
conflict-@@ 22
contention 22
contours 22
convincingly 22
counseling 22
croo@@ 22
dation 22
deal@@ 22
debt-fueled 22
decoupled 22
deep-@@ 22
defiant 22
dense 22
depreciations 22
detecting 22
deviation 22
dietary 22
digitized 22
digits 22
disastrously 22
discernible 22
dismay 22
dition 22
doms 22
doubtless 22
dow@@ 22
early-warning 22
eastward 22
eaten 22
eb@@ 22
educ@@ 22
elevate 22
embodiment 22
embolden 22
emissions-reduction 22
empi@@ 22
ender 22
enlarge 22
ensued 22
ental 22
erable 22
ess-@@ 22
evaluations 22
event@@ 22
ever-growing 22
excited 22
executions 22
exemplary 22
expel 22
explo@@ 22
export-@@ 22
expropri@@ 22
face-to-face 22
fanaticism 22
far-left 22
farce 22
fervor 22
fes@@ 22
fin 22
finalized 22
finest 22
firewall 22
flag@@ 22
flourished 22
foreign-born 22
formul@@ 22
foun@@ 22
frames 22
frothy 22
full-employment 22
garnered 22
gau@@ 22
gem@@ 22
gered 22
gl@@ 22
glori@@ 22
god 22
good-@@ 22
graduated 22
grains 22
guides 22
harshly 22
hastily 22
hasty 22
have-nots 22
haves 22
headquartered 22
hel 22
hinge 22
homelessness 22
ick@@ 22
idealistic 22
ight@@ 22
illustration 22
illy 22
imaginary 22
imaginative 22
immuni@@ 22
impairment 22
imperfections 22
impress 22
inadequacy 22
incurring 22
ingenious 22
inhabit 22
inmates 22
innate 22
inning 22
installing 22
intercep@@ 22
interest-@@ 22
internalize 22
interruption 22
intimidated 22
intolerant 22
intricate 22
invali@@ 22
inventing 22
isting 22
ita 22
iti 22
jeopardizes 22
jet 22
kar@@ 22
lawsuit 22
lear@@ 22
levies 22
lify 22
light-@@ 22
liquid@@ 22
lling 22
low-lying 22
lowest-@@ 22
lur@@ 22
manship 22
mediate 22
mediator 22
memor@@ 22
menacing 22
mentation 22
micro 22
milli@@ 22
miraculous 22
misrule 22
moderni@@ 22
modus 22
monetarist 22
monster 22
mony 22
morals 22
mourning 22
mouths 22
mp 22
mullahs 22
nation-building 22
necessities 22
nepotism 22
nes 22
nominally 22
oblige 22
obse@@ 22
offended 22
ounced 22
ouses 22
oxy@@ 22
pandering 22
patently 22
pay-for-success 22
peculi@@ 22
peer-reviewed 22
percentile 22
perseverance 22
pic@@ 22
pigs 22
piled 22
plaintiffs 22
pleasing 22
pled 22
plethora 22
polled 22
popul@@ 22
porting 22
posting 22
precipice 22
predetermined 22
predominance 22
product-@@ 22
promoters 22
propag@@ 22
prote@@ 22
protector 22
pse 22
public-opinion 22
ransom 22
ration 22
real-@@ 22
realists 22
reconstruct 22
record-breaking 22
redirected 22
redistributing 22
renewing 22
repayments 22
repetition 22
reputable 22
resentful 22
resonance 22
retreated 22
revolutionize 22
rigging 22
rigorously 22
rison 22
rotating 22
rumor 22
run-off 22
same-sex 22
scar@@ 22
scha@@ 22
scholarships 22
sclerotic 22
searched 22
seconds 22
sel 22
sensational 22
sett@@ 22
seven@@ 22
shadow-banking 22
shale-energy 22
shielded 22
showcase 22
shrewd 22
shun 22
sic 22
simplification 22
ska 22
skies 22
skyrocketed 22
smallpox 22
sowing 22
spans 22
speci@@ 22
spokesman 22
spokesperson 22
spor@@ 22
spurs 22
[...]
